{
  "version": "1.0",
  "truncation": null,
  "padding": null,
  "added_tokens": [
    {
      "id": 0,
      "content": "<unk>",
      "single_word": false,
      "lstrip": false,
      "rstrip": false,
      "normalized": false,
      "special": true
    }
  ],
  "normalizer": null,
  "pre_tokenizer": {
    "type": "ByteLevel",
    "add_prefix_space": false,
    "trim_offsets": true,
    "use_regex": false
  },
  "post_processor": null,
  "decoder": {
    "type": "ByteLevel",
    "add_prefix_space": true,
    "trim_offsets": true,
    "use_regex": true
  },
  "model": {
    "type": "BPE",
    "dropout": null,
    "unk_token": "<unk>",
    "continuing_subword_prefix": null,
    "end_of_word_suffix": null,
    "fuse_unk": false,
    "byte_fallback": true,
    "ignore_merges": false,
    "vocab": {
      "<unk>": 0,
      "!": 1,
      "\"": 2,
      "#": 3,
      "$": 4,
      "%": 5,
      "&": 6,
      "'": 7,
      "(": 8,
      ")": 9,
      "*": 10,
      "+": 11,
      ",": 12,
      "-": 13,
      ".": 14,
      "/": 15,
      "0": 16,
      "1": 17,
      "2": 18,
      "3": 19,
      "4": 20,
      "5": 21,
      "6": 22,
      "7": 23,
      "8": 24,
      "9": 25,
      ":": 26,
      ";": 27,
      "<": 28,
      "=": 29,
      ">": 30,
      "?": 31,
      "@": 32,
      "A": 33,
      "B": 34,
      "C": 35,
      "D": 36,
      "E": 37,
      "F": 38,
      "G": 39,
      "H": 40,
      "I": 41,
      "J": 42,
      "K": 43,
      "L": 44,
      "M": 45,
      "N": 46,
      "O": 47,
      "P": 48,
      "Q": 49,
      "R": 50,
      "S": 51,
      "T": 52,
      "U": 53,
      "V": 54,
      "W": 55,
      "X": 56,
      "Y": 57,
      "Z": 58,
      "[": 59,
      "\\": 60,
      "]": 61,
      "^": 62,
      "_": 63,
      "`": 64,
      "a": 65,
      "b": 66,
      "c": 67,
      "d": 68,
      "e": 69,
      "f": 70,
      "g": 71,
      "h": 72,
      "i": 73,
      "j": 74,
      "k": 75,
      "l": 76,
      "m": 77,
      "n": 78,
      "o": 79,
      "p": 80,
      "q": 81,
      "r": 82,
      "s": 83,
      "t": 84,
      "u": 85,
      "v": 86,
      "w": 87,
      "x": 88,
      "y": 89,
      "z": 90,
      "{": 91,
      "|": 92,
      "}": 93,
      "~": 94,
      "¡": 95,
      "¢": 96,
      "£": 97,
      "¤": 98,
      "¥": 99,
      "¦": 100,
      "§": 101,
      "¨": 102,
      "©": 103,
      "ª": 104,
      "«": 105,
      "¬": 106,
      "®": 107,
      "¯": 108,
      "°": 109,
      "±": 110,
      "²": 111,
      "³": 112,
      "´": 113,
      "µ": 114,
      "¶": 115,
      "·": 116,
      "¸": 117,
      "¹": 118,
      "º": 119,
      "»": 120,
      "¼": 121,
      "½": 122,
      "¾": 123,
      "¿": 124,
      "À": 125,
      "Á": 126,
      "Â": 127,
      "Ã": 128,
      "Ä": 129,
      "Å": 130,
      "Æ": 131,
      "Ç": 132,
      "È": 133,
      "É": 134,
      "Ê": 135,
      "Ë": 136,
      "Ì": 137,
      "Í": 138,
      "Î": 139,
      "Ï": 140,
      "Ð": 141,
      "Ñ": 142,
      "Ò": 143,
      "Ó": 144,
      "Ô": 145,
      "Õ": 146,
      "Ö": 147,
      "×": 148,
      "Ø": 149,
      "Ù": 150,
      "Ú": 151,
      "Û": 152,
      "Ü": 153,
      "Ý": 154,
      "Þ": 155,
      "ß": 156,
      "à": 157,
      "á": 158,
      "â": 159,
      "ã": 160,
      "ä": 161,
      "å": 162,
      "æ": 163,
      "ç": 164,
      "è": 165,
      "é": 166,
      "ê": 167,
      "ë": 168,
      "ì": 169,
      "í": 170,
      "î": 171,
      "ï": 172,
      "ð": 173,
      "ñ": 174,
      "ò": 175,
      "ó": 176,
      "ô": 177,
      "õ": 178,
      "ö": 179,
      "÷": 180,
      "ø": 181,
      "ù": 182,
      "ú": 183,
      "û": 184,
      "ü": 185,
      "ý": 186,
      "þ": 187,
      "ÿ": 188,
      "Ā": 189,
      "ā": 190,
      "Ă": 191,
      "ă": 192,
      "Ą": 193,
      "ą": 194,
      "Ć": 195,
      "ć": 196,
      "Ĉ": 197,
      "ĉ": 198,
      "Ċ": 199,
      "ċ": 200,
      "Č": 201,
      "č": 202,
      "Ď": 203,
      "ď": 204,
      "Đ": 205,
      "đ": 206,
      "Ē": 207,
      "ē": 208,
      "Ĕ": 209,
      "ĕ": 210,
      "Ė": 211,
      "ė": 212,
      "Ę": 213,
      "ę": 214,
      "Ě": 215,
      "ě": 216,
      "Ĝ": 217,
      "ĝ": 218,
      "Ğ": 219,
      "ğ": 220,
      "Ġ": 221,
      "ġ": 222,
      "Ģ": 223,
      "ģ": 224,
      "Ĥ": 225,
      "ĥ": 226,
      "Ħ": 227,
      "ħ": 228,
      "Ĩ": 229,
      "ĩ": 230,
      "Ī": 231,
      "ī": 232,
      "Ĭ": 233,
      "ĭ": 234,
      "Į": 235,
      "į": 236,
      "İ": 237,
      "ı": 238,
      "Ĳ": 239,
      "ĳ": 240,
      "Ĵ": 241,
      "ĵ": 242,
      "Ķ": 243,
      "ķ": 244,
      "ĸ": 245,
      "Ĺ": 246,
      "ĺ": 247,
      "Ļ": 248,
      "ļ": 249,
      "Ľ": 250,
      "ľ": 251,
      "Ŀ": 252,
      "ŀ": 253,
      "Ł": 254,
      "ł": 255,
      "Ń": 256,
      "in": 257,
      ");": 258,
      "on": 259,
      "at": 260,
      "er": 261,
      "or": 262,
      "en": 263,
      "st": 264,
      "se": 265,
      "re": 266,
      "if": 267,
      "ifĠ": 268,
      "al": 269,
      "ar": 270,
      "me": 271,
      "le": 272,
      "de": 273,
      "it": 274,
      "an": 275,
      "){": 276,
      "ge": 277,
      "('": 278,
      "ion": 279,
      "ce": 280,
      "for": 281,
      "ue": 282,
      "Ġin": 283,
      "lo": 284,
      "t_": 285,
      "el": 286,
      "._": 287,
      "',": 288,
      "ame": 289,
      "ĠinĠ": 290,
      "ct": 291,
      "fi": 292,
      "co": 293,
      "s.": 294,
      "ex": 295,
      "_=": 296,
      "pe": 297,
      "as": 298,
      "ro": 299,
      "ad": 300,
      "['": 301,
      "s(": 302,
      "ot": 303,
      "']": 304,
      "ent": 305,
      "ut": 306,
      "forĠ": 307,
      "ra": 308,
      "='": 309,
      "ate": 310,
      "id": 311,
      "one": 312,
      "ch": 313,
      "is": 314,
      "name": 315,
      "con": 316,
      "un": 317,
      "ing": 318,
      "None": 319,
      ");ifĠ": 320,
      "tr": 321,
      "ur": 322,
      "val": 323,
      "_.": 324,
      "ap": 325,
      "li": 326,
      ")}": 327,
      "ĠĠ": 328,
      "k=": 329,
      "ype": 330,
      "mp": 331,
      "];": 332,
      "di": 333,
      "ata": 334,
      "not": 335,
      "d_": 336,
      "str": 337,
      "':": 338,
      "arg": 339,
      "t(": 340,
      "d(": 341,
      "=None": 342,
      "ror": 343,
      ",'": 344,
      "to": 345,
      ".s": 346,
      "ck": 347,
      "um": 348,
      "up": 349,
      "mat": 350,
      "ti": 351,
      "','": 352,
      "len": 353,
      "seĠ": 354,
      "pat": 355,
      "ser": 356,
      "th": 357,
      "data": 358,
      ");>": 359,
      "notĠ": 360,
      ".ge": 361,
      "mo": 362,
      "type": 363,
      "ma": 364,
      "(_": 365,
      "):": 366,
      "p.": 367,
      "value": 368,
      "s_": 369,
      "ab": 370,
      "x=": 371,
      "path": 372,
      "par": 373,
      "Er": 374,
      "Error": 375,
      "),": 376,
      "ter": 377,
      "pen": 378,
      "pt": 379,
      "ver": 380,
      "log": 381,
      "dĠ": 382,
      "file": 383,
      "');": 384,
      "s,": 385,
      "){ifĠ": 386,
      "e_": 387,
      "s=": 388,
      "));": 389,
      "ey": 390,
      "res": 391,
      "ul": 392,
      "else": 393,
      "(k": 394,
      "rai": 395,
      "po": 396,
      "y=": 397,
      "np.": 398,
      "[0": 399,
      "te": 400,
      ";ifĠ": 401,
      "si": 402,
      "format": 403,
      "pl": 404,
      "ption": 405,
      "ation": 406,
      "raiseĠ": 407,
      "%s": 408,
      "'.": 409,
      "time": 410,
      "ance": 411,
      "ob": 412,
      "Tr": 413,
      "il": 414,
      "();": 415,
      "=None,": 416,
      "ta": 417,
      "()": 418,
      "(.": 419,
      "cl": 420,
      "k.": 421,
      "alse": 422,
      "True": 423,
      "pro": 424,
      "False": 425,
      "ĠforĠ": 426,
      "==": 427,
      "ite": 428,
      "stance": 429,
      "do": 430,
      "args": 431,
      "{}": 432,
      "ne": 433,
      "ext": 434,
      "ol": 435,
      "ction": 436,
      "appen": 437,
      "list": 438,
      "eĠ": 439,
      "')": 440,
      "){_=": 441,
      "]=": 442,
      "set": 443,
      "key": 444,
      "x,": 445,
      "ĠĠĠĠ": 446,
      "ss": 447,
      "**": 448,
      "{ifĠ": 449,
      "ip": 450,
      "&&": 451,
      "date": 452,
      "ub": 453,
      "fa": 454,
      "y_": 455,
      "else:": 456,
      "kw": 457,
      "x.": 458,
      "able": 459,
      "am": 460,
      "que": 461,
      "instance": 462,
      "no": 463,
      "obj": 464,
      "qu": 465,
      "exc": 466,
      "try": 467,
      "vi": 468,
      "append(": 469,
      "del": 470,
      "che": 471,
      "cal": 472,
      "[0]": 473,
      "ve": 474,
      "age": 475,
      ".re": 476,
      "get": 477,
      "sĠ": 478,
      ":>": 479,
      "_name": 480,
      "int": 481,
      "col": 482,
      "))": 483,
      "fig": 484,
      "'%": 485,
      "bu": 486,
      "y.": 487,
      "-1": 488,
      "ri": 489,
      "'.format": 490,
      "cont": 491,
      "ze": 492,
      "len(": 493,
      "os.": 494,
      ":Ġ": 495,
      "ord": 496,
      "ith": 497,
      "per": 498,
      "Re": 499,
      ".c": 500,
      "out": 501,
      "asĠ": 502,
      "s[": 503,
      "ba": 504,
      "']=": 505,
      "';": 506,
      "ha": 507,
      "get_": 508,
      "z=": 509,
      ",_": 510,
      "fo": 511,
      "ran": 512,
      ".get_": 513,
      "sc": 514,
      "attr": 515,
      ",:": 516,
      "et": 517,
      "ist": 518,
      "kwargs": 519,
      "ception": 520,
      "elifĠ": 521,
      "and": 522,
      "url": 523,
      "00": 524,
      "with": 525,
      ".get": 526,
      "sion": 527,
      "Ex": 528,
      "ingĠ": 529,
      "isinstance": 530,
      "pa": 531,
      "ment": 532,
      "er_": 533,
      "he": 534,
      "rom": 535,
      "quest": 536,
      "ig": 537,
      "excĠ": 538,
      "Val": 539,
      "config": 540,
      "y(": 541,
      "pr": 542,
      "lin": 543,
      "code": 544,
      "ent_": 545,
      "y,": 546,
      "ed": 547,
      "er.": 548,
      "bo": 549,
      ":raiseĠ": 550,
      "\\n": 551,
      "load": 552,
      "_s": 553,
      "item": 554,
      "our": 555,
      "ect": 556,
      "_ĠinĠ": 557,
      "[1": 558,
      "oin": 559,
      "Error('": 560,
      "||": 561,
      "logg": 562,
      "}}": 563,
      "star": 564,
      "com": 565,
      "_id": 566,
      "of": 567,
      "_['": 568,
      "join": 569,
      "{'": 570,
      "ile": 571,
      "from": 572,
      "'.format(": 573,
      "ĠasĠ": 574,
      "In": 575,
      "inde": 576,
      "ic": 577,
      "=.": 578,
      "end": 579,
      "k,": 580,
      "int(": 581,
      "model": 582,
      "=1": 583,
      "pre": 584,
      "put": 585,
      "ult": 586,
      "Value": 587,
      "isinstance(": 588,
      "[];": 589,
      "dict": 590,
      "os.path": 591,
      "ass": 592,
      ";>": 593,
      "son": 594,
      "],": 595,
      "var": 596,
      "user": 597,
      "0,": 598,
      "ource": 599,
      "ib": 600,
      "all": 601,
      "read": 602,
      "=True": 603,
      "atu": 604,
      "fin": 605,
      "dir": 606,
      "max": 607,
      "ht": 608,
      "se_": 609,
      "request": 610,
      "info": 611,
      "ĠifĠ": 612,
      "fiel": 613,
      "=False": 614,
      "ho": 615,
      "ca": 616,
      "isĠ": 617,
      "du": 618,
      "ate_": 619,
      "--": 620,
      "er(": 621,
      "fun": 622,
      ".se": 623,
      ".__": 624,
      "ER": 625,
      "json": 626,
      "Exception": 627,
      "_,": 628,
      ");_=": 629,
      "_[": 630,
      "**kwargs": 631,
      "os.path.": 632,
      "range": 633,
      "string": 634,
      ").": 635,
      "num": 636,
      "i=": 637,
      ".w": 638,
      "comm": 639,
      "la": 640,
      "plit": 641,
      "min": 642,
      "flo": 643,
      "error": 644,
      "'+": 645,
      "toĠ": 646,
      "tĠ": 647,
      "hape": 648,
      "valid": 649,
      "node": 650,
      "to_": 651,
      "es": 652,
      ",.": 653,
      "__": 654,
      "=='": 655,
      "update": 656,
      "index": 657,
      "(x": 658,
      "ces": 659,
      "text": 660,
      "size": 661,
      "yĠ": 662,
      ".de": 663,
      "i,": 664,
      "ust": 665,
      "roup": 666,
      "bug": 667,
      "add_": 668,
      "fil": 669,
      "pla": 670,
      "){k=": 671,
      "run": 672,
      "try:": 673,
      "}>": 674,
      ";forĠ": 675,
      "ition": 676,
      "(_,": 677,
      "w_": 678,
      "comp": 679,
      "ct_": 680,
      "cre": 681,
      "j=": 682,
      "defa": 683,
      "head": 684,
      "].": 685,
      "amp": 686,
      "start": 687,
      "':'": 688,
      "vice": 689,
      "(s": 690,
      "kĠinĠ": 691,
      "arra": 692,
      "Con": 693,
      "ctor": 694,
      "version": 695,
      "ev": 696,
      "wh": 697,
      "ument": 698,
      "lename": 699,
      "db": 700,
      "param": 701,
      "');ifĠ": 702,
      "float": 703,
      "[:": 704,
      "ence": 705,
      "[_": 706,
      "else{": 707,
      ");k=": 708,
      "ĠisĠ": 709,
      ")}>": 710,
      "aut": 711,
      "ĠĠĠĠĠĠĠĠ": 712,
      "tag": 713,
      ";_=": 714,
      "imp": 715,
      ".split": 716,
      "filename": 717,
      "back": 718,
      "ort": 719,
      "[i": 720,
      "sy": 721,
      "elseĠ": 722,
      "object": 723,
      "\\\\": 724,
      "py": 725,
      "im": 726,
      "Co": 727,
      "withĠ": 728,
      "])": 729,
      "(_)": 730,
      "xĠinĠ": 731,
      "+1": 732,
      "rap": 733,
      "sub": 734,
      "ref": 735,
      "is_": 736,
      "+'": 737,
      "has": 738,
      "pi": 739,
      "line": 740,
      "open": 741,
      "pon": 742,
      "coun": 743,
      "logger.": 744,
      "Type": 745,
      ");forĠ": 746,
      "ute": 747,
      "IN": 748,
      "sh": 749,
      "s)": 750,
      "ber": 751,
      "ON": 752,
      "ve_": 753,
      "group": 754,
      "gen": 755,
      "lab": 756,
      "pass": 757,
      "c_": 758,
      "field": 759,
      "ken": 760,
      "range(": 761,
      "filter": 762,
      "str(": 763,
      "ofĠ": 764,
      "call": 765,
      "join(": 766,
      "z,": 767,
      "ask": 768,
      "notĠinĠ": 769,
      "%s'%": 770,
      "ac": 771,
      "low": 772,
      "ssage": 773,
      "AT": 774,
      "}ifĠ": 775,
      "St": 776,
      "s:": 777,
      "add": 778,
      "ize": 779,
      ".0": 780,
      "a=": 781,
      "ator": 782,
      "ate(": 783,
      "+=": 784,
      "wor": 785,
      "word": 786,
      "'ĠinĠ": 787,
      "Name": 788,
      "st_": 789,
      "cur": 790,
      "ST": 791,
      "cli": 792,
      "p_": 793,
      "iĠinĠ": 794,
      "s']": 795,
      "rite": 796,
      "wn": 797,
      ".get('": 798,
      "Ġb": 799,
      "ut_": 800,
      "label": 801,
      "{_=": 802,
      "ĠelseĠ": 803,
      "RE": 804,
      "_type": 805,
      "name,": 806,
      "aĠ": 807,
      "ĠforĠ_ĠinĠ": 808,
      "Key": 809,
      "token": 810,
      "header": 811,
      "ure": 812,
      "ĠnotĠinĠ": 813,
      "print": 814,
      "!=": 815,
      "z.": 816,
      "{0": 817,
      "theĠ": 818,
      "scri": 819,
      "[k": 820,
      "ie": 821,
      "check": 822,
      "]);": 823,
      "default": 824,
      "quer": 825,
      "E_": 826,
      "ValueError('": 827,
      "option": 828,
      "tho": 829,
      "map": 830,
      "message": 831,
      "lock": 832,
      ";k=": 833,
      "?:": 834,
      "i.": 835,
      ");.": 836,
      "_file": 837,
      "):>": 838,
      "und": 839,
      "hand": 840,
      ",Ġ": 841,
      "asser": 842,
      "color": 843,
      "ans": 844,
      "c=": 845,
      "ial": 846,
      "place": 847,
      "];ifĠ": 848,
      "temp": 849,
      "ag": 850,
      "set_": 851,
      "ax": 852,
      "Data": 853,
      "conne": 854,
      "vel": 855,
      "statu": 856,
      "ssion": 857,
      "dule": 858,
      "arch": 859,
      "iter": 860,
      "strip": 861,
      "dis": 862,
      "respon": 863,
      "items(": 864,
      "_re": 865,
      "ive": 866,
      "=_": 867,
      "op": 868,
      "be": 869,
      "der": 870,
      "it_": 871,
      "metho": 872,
      ");ifĠnotĠ": 873,
      "l_": 874,
      "table": 875,
      "set(": 876,
      ")}ifĠ": 877,
      "(k,": 878,
      "clas": 879,
      "{0}": 880,
      "lement": 881,
      "data_": 882,
      "bug('": 883,
      "e.": 884,
      "arn": 885,
      "m.": 886,
      "(){": 887,
      "pos": 888,
      "(y": 889,
      "sig": 890,
      "(f": 891,
      "d('": 892,
      "dire": 893,
      "assertĠ": 894,
      "b=": 895,
      "ron": 896,
      "99": 897,
      "DE": 898,
      "print('": 899,
      "d.": 900,
      "event": 901,
      "auth": 902,
      "a,": 903,
      "10": 904,
      ");_.": 905,
      "){ifĠnotĠ": 906,
      "loc": 907,
      "iel": 908,
      "action": 909,
      "umn": 910,
      "ameter": 911,
      "match": 912,
      "by": 913,
      "we": 914,
      "De": 915,
      "ak": 916,
      "lat": 917,
      "args,": 918,
      "tar": 919,
      "ject": 920,
      "chan": 921,
      "mage": 922,
      ".read": 923,
      "%sĠ": 924,
      "[1]": 925,
      ".shape": 926,
      "inter": 927,
      "=None){": 928,
      "k['": 929,
      "OR": 930,
      ");excĠ": 931,
      "ang": 932,
      "Ġ'": 933,
      "app": 934,
      ");>_": 935,
      "put_": 936,
      "em": 937,
      "tit": 938,
      "n,": 939,
      "dtype": 940,
      ");x=": 941,
      "1,": 942,
      "'],": 943,
      "[];forĠ": 944,
      "cond": 945,
      "):raiseĠ": 946,
      "argument": 947,
      "column": 948,
      "Lo": 949,
      "{k=": 950,
      "info('": 951,
      "fromĠ": 952,
      "io": 953,
      "contin": 954,
      "nor": 955,
      "wa": 956,
      "ileĠ": 957,
      "state": 958,
      "(x,": 959,
      "=np.": 960,
      "source": 961,
      "'];": 962,
      "ep": 963,
      "exist": 964,
      "){forĠ": 965,
      "j,": 966,
      "pect": 967,
      "))}": 968,
      "bin": 969,
      "le_": 970,
      "iz": 971,
      "=0": 972,
      "from_": 973,
      "t.": 974,
      "content": 975,
      "da": 976,
      "lic": 977,
      "args.": 978,
      "fix": 979,
      "api": 980,
      "EN": 981,
      "trans": 982,
      "Id": 983,
      "input": 984,
      "n_": 985,
      "list(": 986,
      "ID": 987,
      "swith": 988,
      "ed_": 989,
      "module": 990,
      "func": 991,
      "hel": 992,
      "exception": 993,
      "logging": 994,
      "gth": 995,
      "{forĠ": 996,
      "();ifĠ": 997,
      ".get(": 998,
      "base": 999,
      "Se": 1000,
      "m_": 1001,
      "ĠtoĠ": 1002,
      "vari": 1003,
      "[0];": 1004,
      "continue": 1005,
      "al_": 1006,
      "act": 1007,
      "gin": 1008,
      "raph": 1009,
      ":_=": 1010,
      "plo": 1011,
      "qui": 1012,
      "work": 1013,
      ".split('": 1014,
      "s',": 1015,
      "Par": 1016,
      "ff": 1017,
      "must": 1018,
      "ok": 1019,
      "level": 1020,
      "ream": 1021,
      "row": 1022,
      "_.append(": 1023,
      "impĠ": 1024,
      "Un": 1025,
      "+=1": 1026,
      ";else:": 1027,
      "rame": 1028,
      "buil": 1029,
      ");else:": 1030,
      ".set_": 1031,
      "uple": 1032,
      "edĠ": 1033,
      "ibute": 1034,
      "b.": 1035,
      "_path": 1036,
      "response": 1037,
      "[x": 1038,
      "wid": 1039,
      "method": 1040,
      "lete": 1041,
      "pack": 1042,
      "pec": 1043,
      "count": 1044,
      ",s": 1045,
      "yĠinĠ": 1046,
      ">0": 1047,
      "yiel": 1048,
      "mode": 1049,
      "whileĠ": 1050,
      "us": 1051,
      ":.": 1052,
      "parameter": 1053,
      "max_": 1054,
      "No": 1055,
      "m=": 1056,
      "mar": 1057,
      "x)": 1058,
      "T_": 1059,
      "pop": 1060,
      "ec": 1061,
      ";.": 1062,
      "(c": 1063,
      ");._": 1064,
      "stor": 1065,
      "enum": 1066,
      "File": 1067,
      "sor": 1068,
      "sup": 1069,
      "image": 1070,
      "(._": 1071,
      "s['": 1072,
      "command": 1073,
      "port": 1074,
      "number": 1075,
      "=._": 1076,
      "==0": 1077,
      "ll": 1078,
      "title": 1079,
      "..": 1080,
      "curr": 1081,
      "(\"": 1082,
      "proces": 1083,
      "cache": 1084,
      "ext(": 1085,
      "get('": 1086,
      "ml": 1087,
      "AL": 1088,
      "ample": 1089,
      "yieldĠ": 1090,
      "AR": 1091,
      "ĠofĠ": 1092,
      "_)": 1093,
      "end(": 1094,
      "stream": 1095,
      "parse": 1096,
      "output": 1097,
      "s()": 1098,
      "host": 1099,
      "lose": 1100,
      "result": 1101,
      "(*": 1102,
      "){x=": 1103,
      "ting": 1104,
      "2,": 1105,
      "ast": 1106,
      "scription": 1107,
      "ValueError": 1108,
      "late": 1109,
      ".f": 1110,
      "uid": 1111,
      "try{": 1112,
      "getattr": 1113,
      "man": 1114,
      "+='": 1115,
      "load_": 1116,
      "cess": 1117,
      "'):": 1118,
      "tain": 1119,
      "lob": 1120,
      ";x=": 1121,
      "ero": 1122,
      "session": 1123,
      "ing_": 1124,
      "tra": 1125,
      "iv": 1126,
      "service": 1127,
      "-1]": 1128,
      "//": 1129,
      "block": 1130,
      "reak": 1131,
      ")}}": 1132,
      "reg": 1133,
      ");y=": 1134,
      "ĠbeĠ": 1135,
      "ES": 1136,
      "sys.": 1137,
      "t,": 1138,
      "tp": 1139,
      "!:": 1140,
      "tuple": 1141,
      "doc": 1142,
      "pace": 1143,
      ".append(": 1144,
      "(k)": 1145,
      "=False,": 1146,
      "meta": 1147,
      "mis": 1148,
      "->": 1149,
      "array(": 1150,
      ":raiseĠValueError('": 1151,
      "ude": 1152,
      "');>": 1153,
      "k[": 1154,
      "'Ġ": 1155,
      "point": 1156,
      "gener": 1157,
      "=None){ifĠ": 1158,
      "'{": 1159,
      "break": 1160,
      "cor": 1161,
      "stat": 1162,
      "n=": 1163,
      "rit": 1164,
      "help": 1165,
      "lim": 1166,
      "np": 1167,
      "length": 1168,
      "(z": 1169,
      "datetime": 1170,
      "_:": 1171,
      "lu": 1172,
      "swith('": 1173,
      "form": 1174,
      "(1": 1175,
      "Mo": 1176,
      "viron": 1177,
      "end_": 1178,
      "lon": 1179,
      "ant": 1180,
      "timeout": 1181,
      "ight": 1182,
      "(b": 1183,
      "ET": 1184,
      "ler": 1185,
      "in_": 1186,
      "En": 1187,
      "ature": 1188,
      "y)": 1189,
      "task": 1190,
      "move": 1191,
      "mak": 1192,
      "Th": 1193,
      "Set": 1194,
      ".write": 1195,
      "om": 1196,
      "mem": 1197,
      "are": 1198,
      "gr": 1199,
      "k)": 1200,
      "char": 1201,
      "exec": 1202,
      "oth": 1203,
      "yn": 1204,
      "cle": 1205,
      "Ġs": 1206,
      "(m": 1207,
      "erence": 1208,
      "adata": 1209,
      "const": 1210,
      "enumer": 1211,
      "resource": 1212,
      "chema": 1213,
      "(),": 1214,
      "ime": 1215,
      "byte": 1216,
      "get(": 1217,
      "tur": 1218,
      "arning": 1219,
      "k='": 1220,
      "tre": 1221,
      "g_": 1222,
      "(value": 1223,
      "lea": 1224,
      "context": 1225,
      "ly": 1226,
      "Di": 1227,
      "cod": 1228,
      "function": 1229,
      "zero": 1230,
      "s=None,": 1231,
      "width": 1232,
      "args,**kwargs": 1233,
      "_f": 1234,
      "Pro": 1235,
      "uni": 1236,
      "util": 1237,
      "environ": 1238,
      "off": 1239,
      "AN": 1240,
      "a.": 1241,
      "target": 1242,
      "root": 1243,
      "'}": 1244,
      "(i": 1245,
      "UR": 1246,
      "ity": 1247,
      "ew": 1248,
      "k:": 1249,
      "At": 1250,
      "mustĠbeĠ": 1251,
      "Num": 1252,
      "mot": 1253,
      "quire": 1254,
      "ect_": 1255,
      "nel": 1256,
      "space": 1257,
      ".cre": 1258,
      ")ĠforĠ": 1259,
      "Not": 1260,
      "ent.": 1261,
      "met": 1262,
      "List": 1263,
      "sign": 1264,
      "password": 1265,
      "parse_": 1266,
      ".value": 1267,
      "][": 1268,
      "post": 1269,
      ".Ġ": 1270,
      "SI": 1271,
      "andĠ": 1272,
      "s':": 1273,
      "_de": 1274,
      "e(": 1275,
      "r=": 1276,
      "s){": 1277,
      "write": 1278,
      "ind": 1279,
      "{}'.format(": 1280,
      "bool": 1281,
      "x_": 1282,
      "server": 1283,
      "c.": 1284,
      "emp": 1285,
      "Ġ{": 1286,
      "));ifĠ": 1287,
      "mon": 1288,
      "type(": 1289,
      "local": 1290,
      "PE": 1291,
      "contain": 1292,
      "55": 1293,
      "AS": 1294,
      ",_,": 1295,
      ".p": 1296,
      ")=": 1297,
      "setting": 1298,
      "c,": 1299,
      "order": 1300,
      "env": 1301,
      "new": 1302,
      "ock": 1303,
      "exp": 1304,
      "dif": 1305,
      "x:": 1306,
      "'.join(": 1307,
      "ci": 1308,
      "lection": 1309,
      "main": 1310,
      ";elifĠ": 1311,
      "LO": 1312,
      "axis": 1313,
      "metadata": 1314,
      "]['": 1315,
      "ou": 1316,
      ";y=": 1317,
      "face": 1318,
      "'){": 1319,
      "'));": 1320,
      "((": 1321,
      "director": 1322,
      "p=": 1323,
      "j.": 1324,
      "check_": 1325,
      "cho": 1326,
      "Ch": 1327,
      "]}": 1328,
      "open(": 1329,
      "'),": 1330,
      "orĠ": 1331,
      "extra": 1332,
      "._get_": 1333,
      "position": 1334,
      ";._": 1335,
      "b,": 1336,
      "su": 1337,
      ".format": 1338,
      "erĠ": 1339,
      "id_": 1340,
      "&&notĠ": 1341,
      "update(": 1342,
      "Ob": 1343,
      "uration": 1344,
      "s{": 1345,
      "']='": 1346,
      "keys(": 1347,
      "data,": 1348,
      "ild": 1349,
      "array": 1350,
      "zip": 1351,
      ");z=": 1352,
      "s','": 1353,
      "[0],": 1354,
      "());": 1355,
      ");ifĠ_": 1356,
      "Ar": 1357,
      "or_": 1358,
      "unit": 1359,
      "cord": 1360,
      "]+": 1361,
      "os.path.join(": 1362,
      "_C": 1363,
      "PI": 1364,
      "Me": 1365,
      "unk": 1366,
      "')}": 1367,
      "ms": 1368,
      "x['": 1369,
      "an_": 1370,
      "connection": 1371,
      "!{": 1372,
      "av": 1373,
      "queue": 1374,
      "condition": 1375,
      "page": 1376,
      "lower": 1377,
      "stru": 1378,
      "down": 1379,
      "s[i": 1380,
      "[2": 1381,
      "f.": 1382,
      "m,": 1383,
      "ave": 1384,
      "Exception('": 1385,
      "parser": 1386,
      "help='": 1387,
      "(_.": 1388,
      "http": 1389,
      "init": 1390,
      ".debug('": 1391,
      "LE": 1392,
      "_key": 1393,
      "';ifĠ": 1394,
      "FI": 1395,
      "logger.de": 1396,
      "nu": 1397,
      "search": 1398,
      "pth": 1399,
      "zĠinĠ": 1400,
      "addres": 1401,
      "Attr": 1402,
      "TI": 1403,
      "tern": 1404,
      "AM": 1405,
      "glob": 1406,
      "_id,": 1407,
      "=True,": 1408,
      "fir": 1409,
      ");elifĠ": 1410,
      "description": 1411,
      "');_=": 1412,
      "ĠasĠe": 1413,
      "variable": 1414,
      "ibut": 1415,
      "}'.format(": 1416,
      "resh": 1417,
      "let": 1418,
      "conver": 1419,
      "mul": 1420,
      "vis": 1421,
      "proper": 1422,
      "on_": 1423,
      "raw": 1424,
      "iĠinĠrange(": 1425,
      "change": 1426,
      "l=": 1427,
      "pha": 1428,
      "append('": 1429,
      "add_argument": 1430,
      "frame": 1431,
      "anal": 1432,
      "sist": 1433,
      "Invalid": 1434,
      "build_": 1435,
      "cop": 1436,
      "anĠ": 1437,
      "element": 1438,
      "_to_": 1439,
      "add_argument('": 1440,
      "por": 1441,
      "by_": 1442,
      "job": 1443,
      "Ġfile": 1444,
      "verbo": 1445,
      "dump": 1446,
      "AC": 1447,
      "and_": 1448,
      ".log": 1449,
      "Run": 1450,
      "cls,": 1451,
      "view": 1452,
      "=k": 1453,
      "%d": 1454,
      "old": 1455,
      "hasattr": 1456,
      "norm": 1457,
      "_size": 1458,
      "yle": 1459,
      "RO": 1460,
      "clude": 1461,
      ".info('": 1462,
      "\"%": 1463,
      "encod": 1464,
      ")*": 1465,
      "net": 1466,
      "kwargs.": 1467,
      "x[": 1468,
      ".sub": 1469,
      "f_": 1470,
      "connect": 1471,
      "est": 1472,
      "create_": 1473,
      "ĠisĠnotĠ": 1474,
      "To": 1475,
      "cat": 1476,
      "ath": 1477,
      "print(": 1478,
      "Error:": 1479,
      "----": 1480,
      ")),": 1481,
      "add(": 1482,
      ".name": 1483,
      "fe": 1484,
      "dex": 1485,
      "run_": 1486,
      "(){_=": 1487,
      "];>": 1488,
      "pay": 1489,
      "k.append(": 1490,
      "json.": 1491,
      "retur": 1492,
      "place('": 1493,
      "top": 1494,
      ",**kwargs": 1495,
      "),'": 1496,
      ",1": 1497,
      "ear": 1498,
      "ph": 1499,
      "s);": 1500,
      "uuid": 1501,
      "new_": 1502,
      "query": 1503,
      "beĠ": 1504,
      "require": 1505,
      ")}else:": 1506,
      "Time": 1507,
      "location": 1508,
      "extend(": 1509,
      "mail": 1510,
      "Res": 1511,
      "!='": 1512,
      "));>": 1513,
      "_data": 1514,
      "().": 1515,
      "[1:": 1516,
      "_value": 1517,
      "dict(": 1518,
      "shape": 1519,
      "ull": 1520,
      "for_": 1521,
      "32": 1522,
      "analy": 1523,
      "{}Ġ": 1524,
      "SE": 1525,
      "stamp": 1526,
      "start_": 1527,
      "startswith('": 1528,
      ".g": 1529,
      "ack": 1530,
      "\\nĠĠĠĠĠĠĠĠ": 1531,
      "update_": 1532,
      "md": 1533,
      "inst": 1534,
      "ext_": 1535,
      "np.s": 1536,
      "encode": 1537,
      "ary": 1538,
      "lag": 1539,
      "find_": 1540,
      "D_": 1541,
      "')ĠasĠ": 1542,
      "bod": 1543,
      "class": 1544,
      "style": 1545,
      "ific": 1546,
      "parent_": 1547,
      "len(_)": 1548,
      "(np.": 1549,
      "s/": 1550,
      "dest": 1551,
      "exists(": 1552,
      "verbose": 1553,
      "img": 1554,
      "lib": 1555,
      "str,": 1556,
      "Str": 1557,
      "cls": 1558,
      "quence": 1559,
      "template": 1560,
      "PO": 1561,
      "p,": 1562,
      "pri": 1563,
      "gra": 1564,
      "file_": 1565,
      "Attribute": 1566,
      "cr": 1567,
      "y:": 1568,
      "section": 1569,
      "name=": 1570,
      "parent": 1571,
      "utf": 1572,
      ";ifĠnotĠ": 1573,
      "channel": 1574,
      "struct": 1575,
      "path,": 1576,
      "An": 1577,
      "base_": 1578,
      "UN": 1579,
      "vĠinĠ": 1580,
      "err": 1581,
      ".');": 1582,
      "adi": 1583,
      "re.": 1584,
      "move_": 1585,
      "alpha": 1586,
      "jĠinĠ": 1587,
      "sum": 1588,
      "input_": 1589,
      "itĠ": 1590,
      "encoding": 1591,
      "TY": 1592,
      "zeros(": 1593,
      ")/": 1594,
      ".7": 1595,
      "MA": 1596,
      "'.join": 1597,
      "_name,": 1598,
      "enumerate(": 1599,
      "For": 1600,
      "plu": 1601,
      "payload": 1602,
      "==1": 1603,
      "alĠ": 1604,
      "make_": 1605,
      "output_": 1606,
      "ult_": 1607,
      "']['": 1608,
      ",k": 1609,
      "ies": 1610,
      "ation_": 1611,
      "lay": 1612,
      ".b": 1613,
      "client": 1614,
      "}elifĠ": 1615,
      "{ifĠnotĠ": 1616,
      "([": 1617,
      "inser": 1618,
      "4/": 1619,
      "rite_": 1620,
      "ty": 1621,
      "edge": 1622,
      "dbs": 1623,
      "gist": 1624,
      "graph": 1625,
      "win": 1626,
      "64": 1627,
      "delĠ": 1628,
      "mission": 1629,
      "ols.": 1630,
      ".cur": 1631,
      "Ġ%": 1632,
      "atch": 1633,
      "(y,": 1634,
      "-8": 1635,
      "0;": 1636,
      "DI": 1637,
      "t=": 1638,
      "int_": 1639,
      ")}elifĠ": 1640,
      "uldĠ": 1641,
      "sel": 1642,
      "q=": 1643,
      "expect": 1644,
      ".ser": 1645,
      "class_": 1646,
      "(:": 1647,
      "rando": 1648,
      "igh": 1649,
      "CO": 1650,
      "Cont": 1651,
      "logger.debug('": 1652,
      ".add_": 1653,
      "20": 1654,
      "prefix": 1655,
      "limit": 1656,
      "100": 1657,
      "_{": 1658,
      ")ĠifĠ": 1659,
      "cope": 1660,
      "use": 1661,
      "force": 1662,
      "**2": 1663,
      "pub": 1664,
      "ren": 1665,
      "spec": 1666,
      ")}excĠ": 1667,
      "'%s": 1668,
      "Po": 1669,
      "onent": 1670,
      "field_": 1671,
      "(n": 1672,
      "r,": 1673,
      "Ġ'+": 1674,
      "cls.": 1675,
      "sele": 1676,
      "\\t": 1677,
      "ted(": 1678,
      "_c": 1679,
      "mask": 1680,
      "data=": 1681,
      "offset": 1682,
      ".set": 1683,
      "it(": 1684,
      "ir": 1685,
      "nump": 1686,
      "ign": 1687,
      "S_": 1688,
      "x='": 1689,
      ".d": 1690,
      "handle": 1691,
      "URL": 1692,
      ";_['": 1693,
      "[.": 1694,
      "]*": 1695,
      ".create_": 1696,
      "ifi": 1697,
      "();forĠ": 1698,
      "link": 1699,
      "Graph": 1700,
      "o_": 1701,
      "ĠnotĠ": 1702,
      "lient": 1703,
      "Lif": 1704,
      "itor": 1705,
      "Object": 1706,
      ")->": 1707,
      "[]": 1708,
      "coord": 1709,
      "upper": 1710,
      "%s',": 1711,
      "er,": 1712,
      "{};forĠ": 1713,
      "raw_": 1714,
      "Ġ(": 1715,
      "id,": 1716,
      "(.,": 1717,
      "datetime.": 1718,
      "lang": 1719,
      "Comp": 1720,
      ")+": 1721,
      "UL": 1722,
      "');_.": 1723,
      "Config": 1724,
      "_+=": 1725,
      "close": 1726,
      "4/e": 1727,
      "html": 1728,
      "create": 1729,
      "device": 1730,
      "depth": 1731,
      "sample": 1732,
      "dim": 1733,
      "'%(": 1734,
      "child": 1735,
      "10.7": 1736,
      "554/e": 1737,
      "10.7554/e": 1738,
      "10.7554/eLif": 1739,
      "wrap": 1740,
      "User": 1741,
      "attribute": 1742,
      "(a": 1743,
      "entr": 1744,
      "(key": 1745,
      "tail": 1746,
      "r.": 1747,
      "multi": 1748,
      "ine": 1749,
      "stdo": 1750,
      "s{ifĠ": 1751,
      "reference": 1752,
      "ment_": 1753,
      "timestamp": 1754,
      "cess_": 1755,
      "IO": 1756,
      "seq": 1757,
      "1}": 1758,
      "{x=": 1759,
      "fast": 1760,
      "sp": 1761,
      "ocket": 1762,
      "dat": 1763,
      "copy": 1764,
      "None,": 1765,
      "d=": 1766,
      "orig": 1767,
      ".data": 1768,
      ">=": 1769,
      "df": 1770,
      "ension": 1771,
      "step": 1772,
      "){y=": 1773,
      "Request": 1774,
      "can": 1775,
      "y);": 1776,
      "CH": 1777,
      "Hand": 1778,
      "bit": 1779,
      "plugin": 1780,
      "all_": 1781,
      "d,": 1782,
      "split": 1783,
      "UT": 1784,
      ".__name": 1785,
      ";z=": 1786,
      "callback": 1787,
      "(j": 1788,
      ";_.": 1789,
      "s']=": 1790,
      "delete": 1791,
      "hash": 1792,
      ".r": 1793,
      "cha": 1794,
      "k,_": 1795,
      "tx": 1796,
      "config.": 1797,
      "[:,": 1798,
      "':>": 1799,
      "utf-8": 1800,
      "mean": 1801,
      "value,": 1802,
      "ING": 1803,
      "VER": 1804,
      "as_": 1805,
      "gre": 1806,
      "che_": 1807,
      "9999": 1808,
      "x);": 1809,
      "object_": 1810,
      "stdout": 1811,
      "stem": 1812,
      "();>": 1813,
      "_+='": 1814,
      "use_": 1815,
      "find('": 1816,
      "Dict": 1817,
      ")&&": 1818,
      "mb": 1819,
      ");ifĠk": 1820,
      "author": 1821,
      "dbsException": 1822,
      "sv": 1823,
      "status_": 1824,
      "_info": 1825,
      "lv": 1826,
      "found": 1827,
      "k(": 1828,
      "}else:": 1829,
      "ore": 1830,
      "']);": 1831,
      "====": 1832,
      "num_": 1833,
      "enc": 1834,
      "len(.": 1835,
      "();_=": 1836,
      "2.": 1837,
      "Ġ-": 1838,
      "){.": 1839,
      "');k=": 1840,
      "g.": 1841,
      "ard": 1842,
      "];forĠ": 1843,
      "}}>": 1844,
      ">1": 1845,
      "ase": 1846,
      "(re": 1847,
      "y='": 1848,
      "dist": 1849,
      "ange": 1850,
      "cĠinĠ": 1851,
      "=None){_=": 1852,
      "os.path.join": 1853,
      "package": 1854,
      "Arg": 1855,
      "warning": 1856,
      "2*": 1857,
      "200": 1858,
      "Path": 1859,
      "uage": 1860,
      "',None": 1861,
      "Ite": 1862,
      "(name": 1863,
      "<=": 1864,
      "uri": 1865,
      "value=": 1866,
      "normal": 1867,
      "*args,**kwargs": 1868,
      "Col": 1869,
      "year": 1870,
      "onĠ": 1871,
      "Do": 1872,
      "af": 1873,
      ":Ġ%s'%": 1874,
      "Ser": 1875,
      "os.path.exists(": 1876,
      "Node": 1877,
      "the": 1878,
      ",_)": 1879,
      "logger.info('": 1880,
      "ive_": 1881,
      "}excĠ": 1882,
      "Runtime": 1883,
      "indi": 1884,
      "conf": 1885,
      "db_": 1886,
      "exceptions.": 1887,
      "sho": 1888,
      "Index": 1889,
      "api_": 1890,
      "getattr(": 1891,
      "Group": 1892,
      "etch": 1893,
      "aĠinĠ": 1894,
      "ome": 1895,
      "sorted(": 1896,
      "[i]": 1897,
      "lication": 1898,
      "TheĠ": 1899,
      "access_": 1900,
      "ize_": 1901,
      "Get": 1902,
      ")||": 1903,
      "_S": 1904,
      ",'w": 1905,
      "chunk": 1906,
      "buff": 1907,
      "url,": 1908,
      "x(": 1909,
      "type=": 1910,
      "){ifĠisinstance(": 1911,
      "username": 1912,
      "pop('": 1913,
      "');forĠ": 1914,
      "email": 1915,
      ".close": 1916,
      "utils.": 1917,
      ".error": 1918,
      "las": 1919,
      ");>._": 1920,
      "tot": 1921,
      "ute_": 1922,
      "_P": 1923,
      "atĠ": 1924,
      "debug": 1925,
      "dataset": 1926,
      "time_": 1927,
      "ĠforĠxĠinĠ": 1928,
      "rc": 1929,
      "mark": 1930,
      "over": 1931,
      "decode": 1932,
      "'].": 1933,
      "k);": 1934,
      "nan": 1935,
      "matri": 1936,
      "day": 1937,
      "ger": 1938,
      "lation": 1939,
      "){ifĠ.": 1940,
      "displa": 1941,
      "schema": 1942,
      ".replace('": 1943,
      "_list": 1944,
      "ail": 1945,
      "esĠ": 1946,
      "fit": 1947,
      "[y": 1948,
      "));forĠ": 1949,
      "x.append(": 1950,
      "const.": 1951,
      "cent": 1952,
      "thread": 1953,
      "ip_": 1954,
      "nown": 1955,
      "-1,": 1956,
      "l.": 1957,
      "s.get(": 1958,
      ";>_": 1959,
      "wher": 1960,
      "_;": 1961,
      "height": 1962,
      "a_": 1963,
      "sing": 1964,
      "verse": 1965,
      "FA": 1966,
      "ten": 1967,
      "collection": 1968,
      "default_": 1969,
      "proto": 1970,
      "(filename": 1971,
      ",'r": 1972,
      "ill": 1973,
      "[_]": 1974,
      ")}>_": 1975,
      "HT": 1976,
      "s;": 1977,
      ":Ġ{": 1978,
      "user_": 1979,
      "ceive": 1980,
      ".curr": 1981,
      "!&&": 1982,
      "Imp": 1983,
      "q,": 1984,
      "LI": 1985,
      "stder": 1986,
      "qual": 1987,
      "dtype=": 1988,
      "(p": 1989,
      "ice": 1990,
      "ĠandĠ": 1991,
      "super(": 1992,
      "(request": 1993,
      "Ġ%sĠ": 1994,
      "cate": 1995,
      "\\\\s": 1996,
      "network": 1997,
      "10.7554/eLife.": 1998,
      "Item": 1999,
      "EX": 2000,
      "[z": 2001,
      "ignor": 2002,
      "lower()": 2003,
      "ical": 2004,
      "np.array(": 2005,
      "{};": 2006,
      "app.": 2007,
      "cache_": 2008,
      "content_": 2009,
      "ender": 2010,
      "Ver": 2011,
      "radi": 2012,
      "y['": 2013,
      "s.append(": 2014,
      "first": 2015,
      "dumps(": 2016,
      "cer": 2017,
      "mas": 2018,
      "ort_": 2019,
      "';_['": 2020,
      "month": 2021,
      "_);": 2022,
      "s[_": 2023,
      "node.": 2024,
      "client_": 2025,
      "weight": 2026,
      "unique": 2027,
      "Sub": 2028,
      "flag": 2029,
      "ish": 2030,
      "numpy.": 2031,
      "KE": 2032,
      "hy": 2033,
      "+'/": 2034,
      "Element": 2035,
      "ule": 2036,
      "ĠorĠ": 2037,
      "dow": 2038,
      "args['": 2039,
      "pix": 2040,
      "hist": 2041,
      "NoĠ": 2042,
      "status_code": 2043,
      ")]": 2044,
      "?:>": 2045,
      "Aut": 2046,
      "{y=": 2047,
      "'ĠnotĠinĠ": 2048,
      "flu": 2049,
      "pattern": 2050,
      "));_=": 2051,
      "store_": 2052,
      "roll": 2053,
      "strip()": 2054,
      "Qu": 2055,
      "stop": 2056,
      "now": 2057,
      "}}ifĠ": 2058,
      "language": 2059,
      "text(": 2060,
      "vent": 2061,
      "ERR": 2062,
      ".is": 2063,
      "AD": 2064,
      "veĠ": 2065,
      "ĠmustĠbeĠ": 2066,
      "secre": 2067,
      "{}'.format": 2068,
      "IP": 2069,
      "s,:": 2070,
      "last": 2071,
      "}>_": 2072,
      "KeyError": 2073,
      "git": 2074,
      "second": 2075,
      "try:>": 2076,
      "json_": 2077,
      ".is_": 2078,
      "Argument": 2079,
      "remove": 2080,
      "grid": 2081,
      "gor": 2082,
      "',help='": 2083,
      ".size": 2084,
      "log('": 2085,
      "obj,": 2086,
      "MO": 2087,
      "f,": 2088,
      "qr": 2089,
      "raise": 2090,
      "False,": 2091,
      "older": 2092,
      "find": 2093,
      "12": 2094,
      "dd": 2095,
      "){._": 2096,
      "ĠinĠ.": 2097,
      "Instance": 2098,
      ".search": 2099,
      "_.get('": 2100,
      "?{": 2101,
      "role": 2102,
      ")}else{": 2103,
      "list_": 2104,
      "try:_=": 2105,
      "ader": 2106,
      "np.zeros(": 2107,
      "current_": 2108,
      ":k=": 2109,
      "og": 2110,
      "Model": 2111,
      "e,": 2112,
      "mm": 2113,
      "test": 2114,
      "os.path.is": 2115,
      "ofĠtype": 2116,
      "web": 2117,
      "cub": 2118,
      "ping": 2119,
      "replace": 2120,
      "ar_": 2121,
      "s=[": 2122,
      "prox": 2123,
      "filter(": 2124,
      "sol": 2125,
      "('/": 2126,
      "model.": 2127,
      "ync": 2128,
      "settings.": 2129,
      "pres": 2130,
      "onl": 2131,
      "lef": 2132,
      "='',": 2133,
      "true": 2134,
      "):_=": 2135,
      "six.": 2136,
      "min_": 2137,
      "ound": 2138,
      "ual": 2139,
      "enable": 2140,
      "(_);": 2141,
      "query_": 2142,
      "msg": 2143,
      "(z,": 2144,
      "(cls,": 2145,
      "log_": 2146,
      "execute": 2147,
      "k;": 2148,
      "component": 2149,
      "ification": 2150,
      "%s.": 2151,
      ".n": 2152,
      "scip": 2153,
      "ay": 2154,
      "lan": 2155,
      "InvalidĠ": 2156,
      "ity_": 2157,
      "tools.": 2158,
      ");>.": 2159,
      "project": 2160,
      "river": 2161,
      "empt": 2162,
      "f=": 2163,
      "write_": 2164,
      "];_=": 2165,
      "clust": 2166,
      "isinstance(_,": 2167,
      "mag": 2168,
      "handle_": 2169,
      "process.": 2170,
      "String": 2171,
      "25": 2172,
      "s');": 2173,
      "(*args,**kwargs": 2174,
      ".time": 2175,
      "id=": 2176,
      "(kw": 2177,
      "KEY": 2178,
      "Ġ\"": 2179,
      "factor": 2180,
      ".e": 2181,
      "ference": 2182,
      "s}": 2183,
      "proj": 2184,
      "script": 2185,
      "He": 2186,
      "ld": 2187,
      "];k=": 2188,
      "LOG": 2189,
      "spect": 2190,
      "alle": 2191,
      "','--": 2192,
      "validate_": 2193,
      "(v": 2194,
      "(0,": 2195,
      "40": 2196,
      "AB": 2197,
      "IT": 2198,
      "Option": 2199,
      "bas": 2200,
      "ens": 2201,
      "sĠinĠ": 2202,
      "interval": 2203,
      "(i,": 2204,
      "+'.": 2205,
      "v=": 2206,
      "._s": 2207,
      "roun": 2208,
      "();k=": 2209,
      "warn": 2210,
      "Ġ%s'%": 2211,
      ");ifĠ'": 2212,
      "1.": 2213,
      "MP": 2214,
      "rig": 2215,
      "(t": 2216,
      ")==": 2217,
      "EC": 2218,
      "process": 2219,
      "children": 2220,
      "[-1": 2221,
      "mer": 2222,
      "parti": 2223,
      "(d": 2224,
      "s){_=": 2225,
      "auto": 2226,
      "):raiseĠValueError('": 2227,
      "ave_": 2228,
      "fg": 2229,
      "remot": 2230,
      "[0].": 2231,
      "member": 2232,
      "dp": 2233,
      "z='": 2234,
      "red": 2235,
      "ctype": 2236,
      "':.": 2237,
      "line_": 2238,
      "event_": 2239,
      "_dir": 2240,
      "lib.": 2241,
      "item_": 2242,
      "TP": 2243,
      "vo": 2244,
      "}else{": 2245,
      "enĠ": 2246,
      "abs(": 2247,
      "%s/": 2248,
      "Log": 2249,
      "()}": 2250,
      "(_,'": 2251,
      "';_=": 2252,
      "fre": 2253,
      "conn": 2254,
      "lice": 2255,
      "len(k)": 2256,
      "0000": 2257,
      "out_": 2258,
      "stack": 2259,
      "has_": 2260,
      "handler": 2261,
      "=0,": 2262,
      "NO": 2263,
      "ke": 2264,
      "(_['": 2265,
      "pu": 2266,
      "dict_": 2267,
      "]=='": 2268,
      "[];ifĠ": 2269,
      "withĠopen(": 2270,
      "State": 2271,
      "[k]=": 2272,
      "60": 2273,
      "[-1]": 2274,
      "gres": 2275,
      "ution": 2276,
      "manag": 2277,
      "Respon": 2278,
      "';_['10.7554/eLife.": 2279,
      "CON": 2280,
      "NAM": 2281,
      "TER": 2282,
      "(k.": 2283,
      "configuration": 2284,
      "process_": 2285,
      ",c": 2286,
      "attribut": 2287,
      "with_": 2288,
      "'+str(": 2289,
      "add_argument('-": 2290,
      "lvl=": 2291,
      ":_.": 2292,
      "Fa": 2293,
      "args=": 2294,
      "vide": 2295,
      "request.": 2296,
      "regist": 2297,
      "last_": 2298,
      "3,": 2299,
      "Or": 2300,
      "oper": 2301,
      "z)": 2302,
      ");i=": 2303,
      ");j=": 2304,
      "objects.": 2305,
      "TypeError('": 2306,
      ")Ġ": 2307,
      "DAT": 2308,
      "US": 2309,
      "na": 2310,
      "x;": 2311,
      "s(){": 2312,
      "tick": 2313,
      ".request": 2314,
      "properti": 2315,
      "sistype": 2316,
      "analysistype": 2317,
      "print_": 2318,
      "\\\\d": 2319,
      "gex": 2320,
      "();.": 2321,
      "node_": 2322,
      "TypeError": 2323,
      "lete_": 2324,
      "'\"": 2325,
      "24": 2326,
      "::": 2327,
      "UB": 2328,
      ".session": 2329,
      "DEFA": 2330,
      "application": 2331,
      "suppor": 2332,
      "DEFAUL": 2333,
      "record": 2334,
      ");ifĠ.": 2335,
      "':_": 2336,
      "data['": 2337,
      "));k=": 2338,
      "ql": 2339,
      "ic_": 2340,
      "bĠinĠ": 2341,
      "j]": 2342,
      "'])": 2343,
      "model_": 2344,
      "=False){": 2345,
      "TO": 2346,
      "awa": 2347,
      "mt": 2348,
      "yam": 2349,
      "unicode": 2350,
      "_(": 2351,
      "Ġì": 2352,
      "s=True": 2353,
      "dot": 2354,
      "pf": 2355,
      "ĠtheĠ": 2356,
      "By": 2357,
      "{.": 2358,
      "key,": 2359,
      "';>": 2360,
      "angle": 2361,
      "){forĠ_ĠinĠ": 2362,
      "(path": 2363,
      ".5": 2364,
      "Date": 2365,
      "Py": 2366,
      ");k.": 2367,
      ");>k": 2368,
      "noĠ": 2369,
      "gram": 2370,
      "sk": 2371,
      "log.debug('": 2372,
      "org": 2373,
      "serial": 2374,
      "data.": 2375,
      "').": 2376,
      "Valid": 2377,
      "Code": 2378,
      "action='": 2379,
      "logging.": 2380,
      "feature": 2381,
      "json.dumps(": 2382,
      "16": 2383,
      "=Ġ": 2384,
      "do_": 2385,
      "domain": 2386,
      "endpoint": 2387,
      "disable": 2388,
      "origin": 2389,
      "Auth": 2390,
      "AG": 2391,
      "full": 2392,
      "sequence": 2393,
      "'];ifĠ": 2394,
      "ident": 2395,
      "[k]": 2396,
      "environment": 2397,
      "modif": 2398,
      "Format": 2399,
      "ĠwithĠ": 2400,
      "medi": 2401,
      "Error:pass": 2402,
      ":._": 2403,
      "API": 2404,
      "GET": 2405,
      "pk": 2406,
      "_=='": 2407,
      "log.info('": 2408,
      "chain": 2409,
      "giv": 2410,
      "cast": 2411,
      "ouĠ": 2412,
      "protocol": 2413,
      "ted": 2414,
      "ies(": 2415,
      "Can": 2416,
      "hour": 2417,
      "POST": 2418,
      "-2": 2419,
      "3_": 2420,
      "ml_": 2421,
      "include": 2422,
      "ult(": 2423,
      "tree": 2424,
      "Content": 2425,
      "ali": 2426,
      "and(": 2427,
      "thresh": 2428,
      "resol": 2429,
      "list,": 2430,
      "start(": 2431,
      "plot_": 2432,
      ",._": 2433,
      "ener": 2434,
      "iter_": 2435,
      "){assertĠ": 2436,
      "diction": 2437,
      ":>False": 2438,
      "y.append(": 2439,
      "_[k": 2440,
      "(e": 2441,
      "istr": 2442,
      "vid": 2443,
      "idd": 2444,
      "'\"%": 2445,
      "L_": 2446,
      "entic": 2447,
      ".__class_": 2448,
      "click": 2449,
      "active": 2450,
      "mĠinĠ": 2451,
      "('utf-8": 2452,
      "expr": 2453,
      "reshape": 2454,
      "Read": 2455,
      "read_": 2456,
      "subprocess.": 2457,
      "endswith('": 2458,
      "params": 2459,
      "uldĠnotĠ": 2460,
      "Response": 2461,
      "key=": 2462,
      "runn": 2463,
      "Conne": 2464,
      "astype": 2465,
      "RuntimeError('": 2466,
      "z['": 2467,
      "Ġre": 2468,
      "part": 2469,
      "cale": 2470,
      "[1],": 2471,
      "trace": 2472,
      "(text": 2473,
      "Fun": 2474,
      "ix": 2475,
      "ename": 2476,
      "allow": 2477,
      "kwargs['": 2478,
      "ExceptionĠasĠe": 2479,
      "%r": 2480,
      "(){ifĠ": 2481,
      "hasĠ": 2482,
      "async": 2483,
      "name']": 2484,
      "();_.": 2485,
      "index=": 2486,
      "other": 2487,
      "Che": 2488,
      "IC": 2489,
      "Per": 2490,
      "ber_": 2491,
      "thon": 2492,
      "delta": 2493,
      "{0}'.format(": 2494,
      "plot": 2495,
      "(\\": 2496,
      "Event": 2497,
      "[_.": 2498,
      "defin": 2499,
      "];x=": 2500,
      "return": 2501,
      ".__name__": 2502,
      "stderr": 2503,
      "invalid": 2504,
      "permission": 2505,
      "handl": 2506,
      "beta": 2507,
      "Handler": 2508,
      "(-": 2509,
      ")));": 2510,
      "Out": 2511,
      "fetch": 2512,
      "pĠinĠ": 2513,
      "x]": 2514,
      "ĠimpĠ": 2515,
      ");raiseĠ": 2516,
      "commit": 2517,
      "scipy.": 2518,
      "sg": 2519,
      "exc(": 2520,
      "((\\": 2521,
      "rf": 2522,
      "s,'": 2523,
      "zone": 2524,
      "distance": 2525,
      "ĠelseĠ'": 2526,
      "ceivedĠ": 2527,
      "(data": 2528,
      "sep": 2529,
      "s.get('": 2530,
      "options": 2531,
      "TS": 2532,
      "Var": 2533,
      "type,": 2534,
      "dĠtoĠ": 2535,
      "s[k": 2536,
      "params=": 2537,
      "');ifĠnotĠ": 2538,
      "class(": 2539,
      "SION": 2540,
      "TYP": 2541,
      "cmd": 2542,
      "k{": 2543,
      "xml": 2544,
      "}Ġ": 2545,
      "ant_": 2546,
      "',default": 2547,
      "api.": 2548,
      "poly": 2549,
      "fail": 2550,
      "initial": 2551,
      "select": 2552,
      "2_": 2553,
      "entence": 2554,
      "comment": 2555,
      "of_": 2556,
      "copy(": 2557,
      "(file": 2558,
      "=None;": 2559,
      ";ifĠ.": 2560,
      ");excĠValueError": 2561,
      "0;forĠ": 2562,
      "DO": 2563,
      "Id(": 2564,
      "i_": 2565,
      "v,": 2566,
      "compile": 2567,
      "ctypes.": 2568,
      ":pass": 2569,
      "Client": 2570,
      "Statu": 2571,
      ")ĠforĠ_ĠinĠ": 2572,
      "ble": 2573,
      "tingĠ": 2574,
      "len(_": 2575,
      "%s\"": 2576,
      "withĠopen": 2577,
      "rol": 2578,
      "':{'": 2579,
      "doesĠ": 2580,
      "items(){ifĠ": 2581,
      "lease": 2582,
      "[c": 2583,
      "login": 2584,
      "');x=": 2585,
      "flow": 2586,
      "<0": 2587,
      "IS": 2588,
      "Version": 2589,
      "'&&": 2590,
      "TR": 2591,
      "ed(": 2592,
      "flat": 2593,
      "_==": 2594,
      "appl": 2595,
      "://": 2596,
      "y;": 2597,
      "look": 2598,
      "filter_": 2599,
      "convert_": 2600,
      "self": 2601,
      "au": 2602,
      "k_": 2603,
      "nĠinĠ": 2604,
      "opt": 2605,
      "singĠ": 2606,
      "undĠ": 2607,
      "vals[i": 2608,
      "current": 2609,
      "areĠ": 2610,
      ",name": 2611,
      "ccess": 2612,
      "driver": 2613,
      "ERROR": 2614,
      ",b": 2615,
      "=_.": 2616,
      ".write('": 2617,
      "'tĠ": 2618,
      "nap": 2619,
      "){z=": 2620,
      "math": 2621,
      "calc": 2622,
      ".un": 2623,
      "CPE": 2624,
      "else{ifĠ": 2625,
      "pare": 2626,
      "headers=": 2627,
      "document": 2628,
      "Check": 2629,
      ":%": 2630,
      "n.": 2631,
      "non": 2632,
      "index,": 2633,
      "readData": 2634,
      "_[i": 2635,
      ".log('": 2636,
      "){_=._": 2637,
      "imum": 2638,
      "signal": 2639,
      "readDataInstance": 2640,
      ":continue": 2641,
      "JS": 2642,
      "ĠaĠ": 2643,
      "exclude": 2644,
      "plat": 2645,
      "faile": 2646,
      "fieldĠ": 2647,
      "count(": 2648,
      "return_": 2649,
      "window": 2650,
      "};": 2651,
      ".cle": 2652,
      "'){ifĠ": 2653,
      "S.": 2654,
      "){_=.": 2655,
      "quot": 2656,
      "body": 2657,
      "display_": 2658,
      "'ĠifĠ": 2659,
      "x-": 2660,
      "arti": 2661,
      "rout": 2662,
      ");ifĠx": 2663,
      "verif": 2664,
      "os.environ": 2665,
      "Inter": 2666,
      "generate_": 2667,
      "Sh": 2668,
      "TE": 2669,
      "s('": 2670,
      "s='": 2671,
      "k,vĠinĠ": 2672,
      "VAL": 2673,
      "ache": 2674,
      "next(": 2675,
      "ract": 2676,
      "up_": 2677,
      "target_": 2678,
      "NAME": 2679,
      "tion": 2680,
      "case": 2681,
      "enumerate": 2682,
      "doesĠnotĠ": 2683,
      "0);": 2684,
      "Frame": 2685,
      "gt": 2686,
      "lish": 2687,
      "text_": 2688,
      "ĠRe": 2689,
      ");>_.": 2690,
      "prec": 2691,
      "_[:": 2692,
      "Size": 2693,
      "_get_": 2694,
      "ëĭ": 2695,
      "','-": 2696,
      "patch": 2697,
      "known": 2698,
      "ason": 2699,
      "pend": 2700,
      ")))": 2701,
      "ustom": 2702,
      "[m": 2703,
      "_RE": 2704,
      "acce": 2705,
      "_dict": 2706,
      "Ġvalue": 2707,
      ";ifĠlen(": 2708,
      "raiseĠValueError('": 2709,
      "lines(": 2710,
      "avail": 2711,
      "From": 2712,
      "fn": 2713,
      "o.": 2714,
      "exit": 2715,
      ".save": 2716,
      "try{ifĠ": 2717,
      "ĠelseĠNone": 2718,
      "bytes(": 2719,
      "_string": 2720,
      "fer": 2721,
      "ffix": 2722,
      "pool": 2723,
      "perio": 2724,
      "[i]=": 2725,
      "ole": 2726,
      "repo": 2727,
      "bound": 2728,
      "=[": 2729,
      "Cor": 2730,
      "none": 2731,
      "'],'": 2732,
      "prepare": 2733,
      "ization": 2734,
      "coordin": 2735,
      "'{ifĠ": 2736,
      "(len(": 2737,
      "Cl": 2738,
      "EL": 2739,
      "es(": 2740,
      "z);": 2741,
      "ĠinĠin": 2742,
      "ranch": 2743,
      "word(": 2744,
      "3]": 2745,
      "ton": 2746,
      "{z=": 2747,
      "init_": 2748,
      "loop": 2749,
      "ression": 2750,
      "ient": 2751,
      ":Ġ'%s": 2752,
      "haveĠ": 2753,
      "!=0": 2754,
      "pixel": 2755,
      "merge": 2756,
      "Ġ{}Ġ": 2757,
      "ell": 2758,
      "extension": 2759,
      "store": 2760,
      "json.load": 2761,
      ".')": 2762,
      "));else:": 2763,
      "set('": 2764,
      "func_": 2765,
      "ard_": 2766,
      "round": 2767,
      "str(.": 2768,
      "tach": 2769,
      "HTTP": 2770,
      "02": 2771,
      "ML": 2772,
      "On": 2773,
      "cy": 2774,
      "Ġ%s": 2775,
      "fore": 2776,
      ")}}>": 2777,
      "direct": 2778,
      "kwargs.get('": 2779,
      "k,_ĠinĠ": 2780,
      "2]": 2781,
      "36": 2782,
      "Base": 2783,
      "Pre": 2784,
      "cv": 2785,
      "hit": 2786,
      "q.": 2787,
      "s:Ġ": 2788,
      "er=": 2789,
      "file,": 2790,
      ";ifĠ_": 2791,
      "cls._": 2792,
      "(a,": 2793,
      "[n": 2794,
      "(.,'": 2795,
      "buck": 2796,
      "choice": 2797,
      "download": 2798,
      "awaitĠ": 2799,
      "given": 2800,
      "Vari": 2801,
      "[a": 2802,
      "){try:": 2803,
      "(k);": 2804,
      "Parameter": 2805,
      "insert(": 2806,
      "total": 2807,
      "2.0": 2808,
      "tedĠ": 2809,
      "whileĠTrue": 2810,
      "propert": 2811,
      ".',": 2812,
      "ME": 2813,
      "own": 2814,
      "sha": 2815,
      "w=": 2816,
      "produ": 2817,
      "ER_": 2818,
      "mapping": 2819,
      "templ": 2820,
      "right": 2821,
      "(name,": 2822,
      ")];": 2823,
      "nd": 2824,
      "ded": 2825,
      "cos(": 2826,
      "lower(": 2827,
      ")-": 2828,
      "4,": 2829,
      "slice": 2830,
      "reverse": 2831,
      "alog": 2832,
      "config['": 2833,
      "available": 2834,
      ".id": 2835,
      "Job": 2836,
      "cw": 2837,
      "at_": 2838,
      "repr": 2839,
      "no_": 2840,
      ".warning": 2841,
      "base_url": 2842,
      "l,": 2843,
      "ength": 2844,
      "--------": 2845,
      "?||": 2846,
      "Table": 2847,
      "Tag": 2848,
      "s')": 2849,
      "time.time": 2850,
      "setattr": 2851,
      "[_]=": 2852,
      "txt": 2853,
      "r_": 2854,
      "{1}": 2855,
      ")}forĠ": 2856,
      "version_": 2857,
      "\\\\d+": 2858,
      "(obj": 2859,
      "ration": 2860,
      "ystem": 2861,
      "ĢĠì": 2862,
      ");a=": 2863,
      ".regist": 2864,
      "manif": 2865,
      "search_": 2866,
      "_b": 2867,
      "vol": 2868,
      "']:": 2869,
      "score": 2870,
      "2:": 2871,
      "Up": 2872,
      "unit_": 2873,
      "):yieldĠ": 2874,
      "range(0,": 2875,
      "END": 2876,
      "Message": 2877,
      "global": 2878,
      "(**": 2879,
      "5,": 2880,
      ";i=": 2881,
      "AP": 2882,
      "ick": 2883,
      "w.": 2884,
      "atom": 2885,
      "stri": 2886,
      "progres": 2887,
      "complete": 2888,
      "response_": 2889,
      "edĠtoĠ": 2890,
      "directory": 2891,
      "ont": 2892,
      "Number": 2893,
      ";j=": 2894,
      "dro": 2895,
      "s]": 2896,
      "000": 2897,
      "indent": 2898,
      "ifier": 2899,
      ".run": 2900,
      "[j": 2901,
      "socket": 2902,
      "ort(": 2903,
      "lect": 2904,
      "',False": 2905,
      ")}}}": 2906,
      "date_": 2907,
      "']=='": 2908,
      "[1];": 2909,
      "backend": 2910,
      "parser.": 2911,
      "AttributeError": 2912,
      "\\\\s+": 2913,
      "JSON": 2914,
      "(url": 2915,
      "?:raiseĠ": 2916,
      "Ed": 2917,
      "useĠ": 2918,
      "relation": 2919,
      "',Ġ": 2920,
      "asci": 2921,
      "':_=": 2922,
      "'ĠmustĠbeĠ": 2923,
      "qrt(": 2924,
      "*np.": 2925,
      "dt": 2926,
      "eb": 2927,
      "eval": 2928,
      "i+=1": 2929,
      "k+=": 2930,
      "sĠforĠ": 2931,
      "{._": 2932,
      "',_": 2933,
      "())": 2934,
      "configure": 2935,
      "##": 2936,
      ".t": 2937,
      "_index": 2938,
      "b'": 2939,
      "g,": 2940,
      "gate": 2941,
      "s);ifĠ": 2942,
      "Ġname": 2943,
      "dec": 2944,
      "(k,_": 2945,
      "_source": 2946,
      "||'": 2947,
      "float(": 2948,
      "syn": 2949,
      "transform": 2950,
      "threshold": 2951,
      ":Ġ'%s'\"%": 2952,
      "[_ĠforĠ_ĠinĠ": 2953,
      ">0:": 2954,
      "project_": 2955,
      "ker": 2956,
      ")}>k": 2957,
      "')ĠasĠf": 2958,
      ".add": 2959,
      ";else{": 2960,
      "Fiel": 2961,
      "',action='": 2962,
      "s();": 2963,
      "_sub": 2964,
      "].append(": 2965,
      ":]": 2966,
      "MM": 2967,
      "PY": 2968,
      "amo": 2969,
      "sb": 2970,
      "name':": 2971,
      "();x=": 2972,
      "sĠtoĠ": 2973,
      "leaseĠ": 2974,
      "partial": 2975,
      "</": 2976,
      "DB": 2977,
      "dĠinĠ": 2978,
      "duration": 2979,
      "cell": 2980,
      "vector": 2981,
      "add_argument('--": 2982,
      "topic": 2983,
      "=x": 2984,
      "Temp": 2985,
      "spath": 2986,
      "w,": 2987,
      "s.items(": 2988,
      "order_": 2989,
      "box": 2990,
      "pick": 2991,
      "Star": 2992,
      "Parser": 2993,
      "==0:": 2994,
      "long": 2995,
      "container": 2996,
      "random.": 2997,
      "50": 2998,
      "ece": 2999,
      "}forĠ": 3000,
      "metr": 3001,
      "matche": 3002,
      "[0];ifĠ": 3003,
      "dirname": 3004,
      "error('": 3005,
      ".decode": 3006,
      ".shape[0]": 3007,
      "Load": 3008,
      "manifest": 3009,
      ":str": 3010,
      "OS": 3011,
      "gment": 3012,
      "'.format(.": 3013,
      "per_": 3014,
      "url('": 3015,
      "buffer": 3016,
      "(j,": 3017,
      ",0": 3018,
      ",n": 3019,
      "/v": 3020,
      "BU": 3021,
      "s-": 3022,
      "u=": 3023,
      "low_": 3024,
      "',.": 3025,
      "vision": 3026,
      "coordinate": 3027,
      "LE_": 3028,
      "ng": 3029,
      "std": 3030,
      "all(": 3031,
      "dtype=np.": 3032,
      "span": 3033,
      "18": 3034,
      "go": 3035,
      "s):": 3036,
      "x{": 3037,
      "sive": 3038,
      "index.": 3039,
      "){ifĠnotĠisinstance(": 3040,
      "util.": 3041,
      "categor": 3042,
      ")):": 3043,
      "QU": 3044,
      "y]": 3045,
      "sto": 3046,
      "remove_": 3047,
      "ravel": 3048,
      ".sum": 3049,
      ".send_": 3050,
      "values(": 3051,
      "verti": 3052,
      "file=": 3053,
      ":Ġ%s',": 3054,
      ");forĠkĠinĠ": 3055,
      "NotF": 3056,
      "wit": 3057,
      "y{": 3058,
      "arange": 3059,
      "['id": 3060,
      "generate": 3061,
      "db_session": 3062,
      "30": 3063,
      "HE": 3064,
      "ot_": 3065,
      "samp": 3066,
      "Ġinput": 3067,
      "ulate": 3068,
      "obj['": 3069,
      "command(": 3070,
      "access": 3071,
      "z.append(": 3072,
      "direction": 3073,
      "TION": 3074,
      "after": 3075,
      "1.0": 3076,
      "CD": 3077,
      "\\x": 3078,
      "kind": 3079,
      "separ": 3080,
      "Error(\"": 3081,
      "ationĠ": 3082,
      ":Ġ{}'.format(": 3083,
      ".client": 3084,
      "etre": 3085,
      "=1,": 3086,
      "requests.": 3087,
      "ExceptionĠasĠ": 3088,
      "logging.info('": 3089,
      "np.sum": 3090,
      "dest='": 3091,
      "hex": 3092,
      "erature": 3093,
      "asure": 3094,
      "ing(": 3095,
      "');.": 3096,
      "fault": 3097,
      "len(x)": 3098,
      "k,_=": 3099,
      "fill": 3100,
      "backg": 3101,
      "plot(": 3102,
      "access_token": 3103,
      "Corp": 3104,
      "_set": 3105,
      "dr": 3106,
      "d['": 3107,
      "g=": 3108,
      "ise": 3109,
      "p__": 3110,
      "utton": 3111,
      ");ifĠisinstance(": 3112,
      "(k,'": 3113,
      ".remove": 3114,
      "attrib": 3115,
      "(x)": 3116,
      "s://": 3117,
      "region": 3118,
      "ofĠtypeĠ'": 3119,
      ";a=": 3120,
      "Iter": 3121,
      "Image": 3122,
      "Wor": 3123,
      "replace('": 3124,
      "='+": 3125,
      "thisĠ": 3126,
      "int,": 3127,
      "analysistype].": 3128,
      "DEFAULT_": 3129,
      "ĠReceivedĠ": 3130,
      "(r": 3131,
      "ck=": 3132,
      "pas": 3133,
      "ĠfromĠ": 3134,
      "']'.": 3135,
      "type:Ġ'%s'\"%": 3136,
      "dock": 3137,
      ".cli": 3138,
      "ous_": 3139,
      ")),\"": 3140,
      ".__class__": 3141,
      "'ĠmustĠbeĠofĠtypeĠ'": 3142,
      "ĠReceivedĠtype:Ġ'%s'\"%": 3143,
      "']'.ĠReceivedĠtype:Ġ'%s'\"%": 3144,
      "'ĠmustĠbeĠofĠtypeĠ'['": 3145,
      "cap": 3146,
      "d}": 3147,
      "high": 3148,
      "tt": 3149,
      "term": 3150,
      "True;": 3151,
      "make": 3152,
      "layer": 3153,
      "PRO": 3154,
      "v_": 3155,
      "',:": 3156,
      "entri": 3157,
      "];y=": 3158,
      "s[:": 3159,
      "locator": 3160,
      "command('": 3161,
      "parse(": 3162,
      "kwargs.pop('": 3163,
      "expectedĠ": 3164,
      "pfp__": 3165,
      "Add": 3166,
      "Ht": 3167,
      "Mgt": 3168,
      "s){ifĠ": 3169,
      "u.": 3170,
      "mast": 3171,
      "s=['": 3172,
      "=False){ifĠ": 3173,
      ".delete": 3174,
      "}>k": 3175,
      "system": 3176,
      "ast.": 3177,
      "https://": 3178,
      "secret": 3179,
      "platform": 3180,
      "A,": 3181,
      "lam": 3182,
      "tex": 3183,
      "sĠifĠ": 3184,
      "perm": 3185,
      "group(": 3186,
      "GraphVal": 3187,
      "%m": 3188,
      "IL": 3189,
      "_token": 3190,
      "Ġw": 3191,
      "ĺì": 3192,
      "alread": 3193,
      "leep": 3194,
      "root_": 3195,
      "namespace": 3196,
      "format_": 3197,
      "Comm": 3198,
      "+1,": 3199,
      "(f\"": 3200,
      ".format(": 3201,
      "cublas": 3202,
      "CorpNum": 3203,
      "Al": 3204,
      "Cre": 3205,
      "rt": 3206,
      "max(": 3207,
      "logger.exception": 3208,
      "%s'%(": 3209,
      "MgtKey": 3210,
      "s(_": 3211,
      "try{_=": 3212,
      "[2]": 3213,
      "CannotĠ": 3214,
      "hi": 3215,
      "stribut": 3216,
      "type='": 3217,
      "else:_=": 3218,
      ");forĠ_ĠinĠ": 3219,
      "interface": 3220,
      "dbsException-": 3221,
      "readDataInstance.read": 3222,
      "%Y": 3223,
      "'||": 3224,
      "-z": 3225,
      "OP": 3226,
      "pd.": 3227,
      "abspath": 3228,
      "path.": 3229,
      "logical": 3230,
      "ted_": 3231,
      ";ifĠ'": 3232,
      "ĠĠĠĠĠĠĠĠĠĠĠĠĠĠĠĠ": 3233,
      "}ifĠnotĠ": 3234,
      "mode='": 3235,
      "upper()": 3236,
      "Connection": 3237,
      "CT": 3238,
      "UP": 3239,
      "_F": 3240,
      "lig": 3241,
      "data(": 3242,
      "False;": 3243,
      "string_type": 3244,
      "'+'": 3245,
      ",.).": 3246,
      "Header": 3247,
      ",(": 3248,
      "Ġdata": 3249,
      "unt": 3250,
      "cls(": 3251,
      "promp": 3252,
      "_id=": 3253,
      "[x]": 3254,
      "hasattr(": 3255,
      "attributes": 3256,
      "IG": 3257,
      "_+": 3258,
      "her": 3259,
      "lex": 3260,
      "ash": 3261,
      "ableĠtoĠ": 3262,
      "storage": 3263,
      "motif": 3264,
      ".x": 3265,
      "so": 3266,
      "old_": 3267,
      "'))": 3268,
      "CouldĠnotĠ": 3269,
      "[1:]": 3270,
      "14": 3271,
      "TH": 3272,
      "abil": 3273,
      "Trans": 3274,
      "_su": 3275,
      "(source": 3276,
      "activ": 3277,
      "os.path.isfile": 3278,
      "etree.": 3279,
      ";excĠ": 3280,
      "_url": 3281,
      "s);>": 3282,
      "{try:": 3283,
      "._build_": 3284,
      ");ifĠ_.": 3285,
      "verage": 3286,
      "');y=": 3287,
      "siz": 3288,
      "authentic": 3289,
      "transaction": 3290,
      "CPEComp": 3291,
      "(x.": 3292,
      ",x,": 3293,
      "15": 3294,
      "OK": 3295,
      "semb": 3296,
      "s,Ġ": 3297,
      "post_": 3298,
      "=None,**kwargs": 3299,
      "]=_": 3300,
      "(){k=": 3301,
      ".file": 3302,
      "csv": 3303,
      "e=": 3304,
      "scope": 3305,
      "idf": 3306,
      "y=True": 3307,
      "';forĠ": 3308,
      "os.path.split": 3309,
      "refresh": 3310,
      "method='": 3311,
      "pack('": 3312,
      "split('": 3313,
      ",re": 3314,
      "-9": 3315,
      "1_": 3316,
      "Call": 3317,
      "om_": 3318,
      "x+": 3319,
      "y[": 3320,
      "iter(": 3321,
      "sim": 3322,
      "();._": 3323,
      "needĠtoĠ": 3324,
      "Stat": 3325,
      "STR": 3326,
      "========": 3327,
      ".');ifĠ": 3328,
      "Gener": 3329,
      "gest": 3330,
      "expi": 3331,
      "sĠimpĠ": 3332,
      "Input": 3333,
      "start,": 3334,
      "indice": 3335,
      ".error('": 3336,
      "As": 3337,
      "sentence": 3338,
      "ume": 3339,
      "z:": 3340,
      "Ġ=Ġ": 3341,
      "ctx": 3342,
      "s.shape": 3343,
      "dir(": 3344,
      "_,k=": 3345,
      "size=": 3346,
      "cannotĠ": 3347,
      ".warning('": 3348,
      "X,": 3349,
      "equ": 3350,
      "k+": 3351,
      "os": 3352,
      "rule": 3353,
      "()=": 3354,
      "provide": 3355,
      "config_": 3356,
      "dict();": 3357,
      "validĠ": 3358,
      "status=": 3359,
      "classe": 3360,
      "track": 3361,
      "Validation": 3362,
      "TYPE_": 3363,
      "Page": 3364,
      "eff": 3365,
      "s':'": 3366,
      "tĠinĠ": 3367,
      "tab": 3368,
      "}\"": 3369,
      "Ġ`": 3370,
      "rect": 3371,
      "s(){_=": 3372,
      "ential": 3373,
      "s_to_": 3374,
      "logger": 3375,
      "hook": 3376,
      ".write_": 3377,
      "processe": 3378,
      "expression": 3379,
      "Ac": 3380,
      "HO": 3381,
      "b_": 3382,
      ");else{": 3383,
      "ĠforĠiĠinĠ": 3384,
      "_name=": 3385,
      "ĠasĠ_": 3386,
      "how": 3387,
      "command_": 3388,
      "temperature": 3389,
      "axis=0": 3390,
      ".service": 3391,
      "empty(": 3392,
      ".model": 3393,
      "Api": 3394,
      "dn": 3395,
      "ps": 3396,
      "s[0]": 3397,
      "Ġinst": 3398,
      "':raiseĠ": 3399,
      "upload": 3400,
      ".debug": 3401,
      "asurement": 3402,
      ",**": 3403,
      "_B": 3404,
      "rend": 3405,
      "ify(": 3406,
      "ErrorĠasĠe": 3407,
      "));x=": 3408,
      "s[1": 3409,
      "Unknown": 3410,
      "remote_": 3411,
      "metric": 3412,
      "%dĠ": 3413,
      "1)": 3414,
      "Map": 3415,
      "Text": 3416,
      "gl": 3417,
      "engin": 3418,
      "response.": 3419,
      "...": 3420,
      "ĠisĠnotĠaĠ": 3421,
      "Order": 3422,
      "CR": 3423,
      "Ro": 3424,
      "ape": 3425,
      "ffi": 3426,
      "lst": 3427,
      ");_": 3428,
      "ĠinĠ('": 3429,
      "til": 3430,
      "{}\"": 3431,
      "'),'": 3432,
      "]=k": 3433,
      "keys()": 3434,
      ":Ġ'+": 3435,
      "+'Ġ": 3436,
      "shot": 3437,
      "Module": 3438,
      "extra_": 3439,
      "round(": 3440,
      "!{ifĠ": 3441,
      "Man": 3442,
      "ative": 3443,
      "cto": 3444,
      "cook": 3445,
      "),('": 3446,
      "[0:": 3447,
      "(_)ĠforĠ_ĠinĠ": 3448,
      "options.": 3449,
      "diff": 3450,
      "extract_": 3451,
      "::2,": 3452,
      "Block": 3453,
      "EST": 3454,
      "FO": 3455,
      ");try:": 3456,
      "uplic": 3457,
      "scape": 3458,
      "import_": 3459,
      "strict": 3460,
      "'{}": 3461,
      ":_.append(": 3462,
      "save": 3463,
      "tmp": 3464,
      "eno": 3465,
      "ite_": 3466,
      "',dest='": 3467,
      "path=": 3468,
      "np.wher": 3469,
      "[1])": 3470,
      "Info": 3471,
      ".sequence": 3472,
      "startswith": 3473,
      "\\nĠĠĠĠĠĠĠĠĠĠĠĠ": 3474,
      ".server": 3475,
      "normalize": 3476,
      "ftime": 3477,
      "s:>": 3478,
      "}.": 3479,
      "s(.": 3480,
      "div": 3481,
      "strftime": 3482,
      "Error(": 3483,
      "len(._": 3484,
      "text=": 3485,
      "iterable": 3486,
      "parse.": 3487,
      "ignore": 3488,
      "cator": 3489,
      "only": 3490,
      "atingĠ": 3491,
      "ory": 3492,
      "form_": 3493,
      "thanĠ": 3494,
      "type_": 3495,
      "isinstance(k,": 3496,
      "dir,": 3497,
      "ATI": 3498,
      "iteritems(": 3499,
      "*.": 3500,
      "2)": 3501,
      "i='": 3502,
      "ary_": 3503,
      "itie": 3504,
      "entity_": 3505,
      "ision": 3506,
      "s=False": 3507,
      "ular": 3508,
      "raise_": 3509,
      "htt": 3510,
      "json()": 3511,
      "validate": 3512,
      "compres": 3513,
      "re.match": 3514,
      "yaml": 3515,
      "protocol.": 3516,
      ".load": 3517,
      ":print('": 3518,
      "et_": 3519,
      "sort": 3520,
      "obj.": 3521,
      "error_": 3522,
      "DEL": 3523,
      "variant": 3524,
      "dbsExceptionHandler": 3525,
      "GraphVal('": 3526,
      ":',": 3527,
      "f.read": 3528,
      "pad": 3529,
      "Error,": 3530,
      "ull_": 3531,
      "';elifĠ": 3532,
      "query(": 3533,
      "method,": 3534,
      "cry": 3535,
      "json.loads(": 3536,
      "NotFound": 3537,
      "stribution": 3538,
      "'){_=": 3539,
      "(node": 3540,
      ".0,": 3541,
      "_map": 3542,
      "bot": 3543,
      "ss_": 3544,
      "desc": 3545,
      "){i=": 3546,
      "k=='": 3547,
      "params(": 3548,
      "Stor": 3549,
      "lemented": 3550,
      ".in": 3551,
      "Source": 3552,
      "[b": 3553,
      "gc": 3554,
      "next": 3555,
      "sr": 3556,
      "smo": 3557,
      "chron": 3558,
      "iss": 3559,
      ".sample": 3560,
      "keyword": 3561,
      "positor": 3562,
      "Local": 3563,
      "execute_": 3564,
      "download_": 3565,
      "VERSION": 3566,
      "Import": 3567,
      "ascii": 3568,
      "'):>": 3569,
      ",x": 3570,
      "branch": 3571,
      "i);": 3572,
      "z;": 3573,
      "ĠinĠ['": 3574,
      "));.": 3575,
      "allĠ": 3576,
      "ĠifĠ_": 3577,
      ");_=._": 3578,
      "float32": 3579,
      "Search": 3580,
      "generator": 3581,
      "Meta": 3582,
      "cluster_": 3583,
      "SS": 3584,
      "Y_": 3585,
      "]{": 3586,
      "eĠinĠ": 3587,
      "ys": 3588,
      "Ġtype": 3589,
      "utable": 3590,
      "None;ifĠ": 3591,
      "ErrorĠasĠ": 3592,
      "python": 3593,
      "wait": 3594,
      "build": 3595,
      "break}}": 3596,
      "required": 3597,
      "encoding='": 3598,
      "random": 3599,
      "publish": 3600,
      "flux": 3601,
      "Quer": 3602,
      "manager": 3603,
      ")<": 3604,
      ",f": 3605,
      "wal": 3606,
      ")}}ifĠ": 3607,
      "');._": 3608,
      "profile": 3609,
      "ĠforĠfieldĠ": 3610,
      ",_ĠinĠ": 3611,
      "event.": 3612,
      "lookup": 3613,
      "%(": 3614,
      "():": 3615,
      "cip": 3616,
      "dl": 3617,
      "detail": 3618,
      "')&&": 3619,
      ".replace": 3620,
      "pair": 3621,
      "excĠKeyError": 3622,
      "imal": 3623,
      "byref": 3624,
      "Session": 3625,
      ">0{": 3626,
      "self.": 3627,
      "Down": 3628,
      "Server": 3629,
      "Ap": 3630,
      "ination": 3631,
      "arr": 3632,
      "mesh": 3633,
      "._meta": 3634,
      "termin": 3635,
      "s=.": 3636,
      "ollow": 3637,
      "Review": 3638,
      "string(": 3639,
      "Set(": 3640,
      "+=1;": 3641,
      "clean": 3642,
      "matrix": 3643,
      "basename": 3644,
      "apply_": 3645,
      "alreadyĠ": 3646,
      "*(": 3647,
      "folder": 3648,
      ");b=": 3649,
      "if_": 3650,
      "forw": 3651,
      "tool": 3652,
      "find(": 3653,
      "request_": 3654,
      "os.path.dirname": 3655,
      ",.)": 3656,
      ":raiseĠValueError('value": 3657,
      "axis=1": 3658,
      ".__name_": 3659,
      "napshot": 3660,
      "prepare_": 3661,
      "template_": 3662,
      "ĠforĠfieldĠ`": 3663,
      "3:": 3664,
      "LAS": 3665,
      "_from_": 3666,
      "gran": 3667,
      "iver": 3668,
      "u,": 3669,
      "notation": 3670,
      ".remove_": 3671,
      "os.path.abspath": 3672,
      "article": 3673,
      ",_.": 3674,
      ".m": 3675,
      "_:>": 3676,
      "eature": 3677,
      "ich": 3678,
      "n(": 3679,
      ");assertĠ": 3680,
      "re.search": 3681,
      "any(": 3682,
      "id':": 3683,
      ".syn": 3684,
      "file_path": 3685,
      "%s)": 3686,
      "provid": 3687,
      "predi": 3688,
      "sudo": 3689,
      "Editor": 3690,
      "ctools.": 3691,
      ".match": 3692,
      "2(": 3693,
      ";Ġ": 3694,
      "DS": 3695,
      "batch": 3696,
      "i['": 3697,
      "tw": 3698,
      "attach": 3699,
      "def": 3700,
      "asarray(": 3701,
      "sĠasĠ": 3702,
      "Resource": 3703,
      ";forĠkĠinĠ": 3704,
      "pipe": 3705,
      "{0}Ġ": 3706,
      "Id,": 3707,
      "http://": 3708,
      "show": 3709,
      "Faile": 3710,
      "=2": 3711,
      "Bu": 3712,
      "ele": 3713,
      "rat": 3714,
      "{print('": 3715,
      "inspect": 3716,
      ");c=": 3717,
      "app_": 3718,
      "','.": 3719,
      "Record": 3720,
      "count_": 3721,
      "ORM": 3722,
      "UnableĠtoĠ": 3723,
      ".sub('": 3724,
      "\\nĠĠĠĠĠĠĠĠĠĠĠĠĠĠĠĠ": 3725,
      "struct.": 3726,
      "multip": 3727,
      "bucket": 3728,
      ",value": 3729,
      "Lin": 3730,
      "bill": 3731,
      "cp": 3732,
      "s),": 3733,
      "retr": 3734,
      "args(": 3735,
      "type=='": 3736,
      "\\n\\n": 3737,
      "request(": 3738,
      "functools.": 3739,
      "index(": 3740,
      "{forĠ_ĠinĠ": 3741,
      "DIR": 3742,
      "Color": 3743,
      ".current_": 3744,
      "left": 3745,
      "%s_": 3746,
      "_[0]": 3747,
      "rate": 3748,
      "u_": 3749,
      "x),": 3750,
      "chil": 3751,
      "calib": 3752,
      "ingĠtoĠ": 3753,
      "camp": 3754,
      "re.compile": 3755,
      "CorpNum,": 3756,
      ")ĠasĠ": 3757,
      ".S": 3758,
      "29": 3759,
      "_M": 3760,
      "dap": 3761,
      "k);ifĠ": 3762,
      "k,'": 3763,
      "wer": 3764,
      "itude": 3765,
      "admin": 3766,
      "];z=": 3767,
      "thatĠ": 3768,
      "UserID": 3769,
      "store_true": 3770,
      "background": 3771,
      "PleaseĠ": 3772,
      "UM": 3773,
      "byĠ": 3774,
      "sat": 3775,
      "spe": 3776,
      "sur": 3777,
      "obser": 3778,
      "']={'": 3779,
      "callable": 3780,
      ".read_": 3781,
      "mary_": 3782,
      "Command": 3783,
      "-=1": 3784,
      ".to_": 3785,
      "bor": 3786,
      "o=": 3787,
      "pan": 3788,
      "uint": 3789,
      "ishe": 3790,
      "None;": 3791,
      "){ifĠlen(": 3792,
      "));_.append(": 3793,
      "neigh": 3794,
      "Reference": 3795,
      "prefi": 3796,
      "play": 3797,
      ")}ifĠnotĠ": 3798,
      "[];forĠkĠinĠ": 3799,
      "mary": 3800,
      "expand": 3801,
      "-.": 3802,
      "c(": 3803,
      "escape": 3804,
      "gb": 3805,
      "le(": 3806,
      "('dbsException-": 3807,
      ");ifĠlen(": 3808,
      "];else:": 3809,
      "ulti": 3810,
      "asyncĠ": 3811,
      "dbsExceptionHandler('dbsException-": 3812,
      ":_": 3813,
      ":x=": 3814,
      "=_,": 3815,
      "_{ifĠ": 3816,
      "dct": 3817,
      "equal": 3818,
      "ga": 3819,
      "._pfp__": 3820,
      "ument_": 3821,
      "lines": 3822,
      ".__dict_": 3823,
      "evel": 3824,
      "intern": 3825,
      "Param": 3826,
      "mustĠ": 3827,
      "cho('": 3828,
      "copy_": 3829,
      "');_.add_argument('-": 3830,
      "ReviewingĠ": 3831,
      "Level": 3832,
      "aw": 3833,
      "sec": 3834,
      "allow_": 3835,
      "));y=": 3836,
      "){_='": 3837,
      "ure_": 3838,
      "catalog": 3839,
      "Http": 3840,
      "ReviewingĠEditor": 3841,
      ",*args,**kwargs": 3842,
      "Bo": 3843,
      "dj": 3844,
      "sd": 3845,
      "sin": 3846,
      "assist": 3847,
      "entity": 3848,
      "lik": 3849,
      "Ext": 3850,
      "boole": 3851,
      "**kwargs)": 3852,
      "index_": 3853,
      "+'_": 3854,
      "logger.warning": 3855,
      "fields": 3856,
      "map(": 3857,
      "Default": 3858,
      "lug": 3859,
      "selector": 3860,
      "dimension": 3861,
      "ArgumentĠ'": 3862,
      "<<": 3863,
      "_FI": 3864,
      "mor": 3865,
      "z{": 3866,
      "})": 3867,
      "ing.": 3868,
      "_.name": 3869,
      "']=.": 3870,
      "filename,": 3871,
      ".split(','": 3872,
      "warnings.": 3873,
      "Service": 3874,
      ")),\"ArgumentĠ'": 3875,
      "!:>": 3876,
      "PAR": 3877,
      "ek": 3878,
      "('.": 3879,
      "ped": 3880,
      "ated": 3881,
      "concat": 3882,
      "basestring": 3883,
      ";else:_=": 3884,
      "tuple(": 3885,
      "']='ReviewingĠEditor": 3886,
      "edge_": 3887,
      "properties": 3888,
      "issue": 3889,
      ")>": 3890,
      ".update(": 3891,
      ".execute": 3892,
      "EM": 3893,
      "]]": 3894,
      "es,": 3895,
      "k{ifĠ": 3896,
      "rm": 3897,
      "src": 3898,
      "y+": 3899,
      "._re": 3900,
      "key_": 3901,
      "s[x]": 3902,
      "k,x=": 3903,
      "module_": 3904,
      "onlyĠ": 3905,
      "click.e": 3906,
      "Function": 3907,
      "ATION": 3908,
      ",*": 3909,
      ".items(": 3910,
      "K_": 3911,
      "}_=": 3912,
      "){fromĠ": 3913,
      "lou": 3914,
      "');z=": 3915,
      "){ifĠ'": 3916,
      ".set(": 3917,
      "counter": 3918,
      "ATH": 3919,
      "STAT": 3920,
      "Ġ'%s": 3921,
      "logging.debug('": 3922,
      "sys.exit": 3923,
      "prior": 3924,
      "Point": 3925,
      "11": 3926,
      "Of": 3927,
      "fĠinĠ": 3928,
      "oĠ": 3929,
      "ĠhasĠ": 3930,
      "ert": 3931,
      "adj": 3932,
      "{};ifĠ": 3933,
      "=True);": 3934,
      "home": 3935,
      "widget": 3936,
      "cached_": 3937,
      "tree_": 3938,
      "np.sqrt(": 3939,
      "MAX": 3940,
      "stop_": 3941,
      "(0": 3942,
      ".from_": 3943,
      ".load_": 3944,
      "custom": 3945,
      "s))": 3946,
      "s?:": 3947,
      "y,:": 3948,
      "cour": 3949,
      "idx": 3950,
      "distribution": 3951,
      "=None;else:": 3952,
      "();y=": 3953,
      ".getLog": 3954,
      "=True;": 3955,
      "ValueError(\"": 3956,
      "Implemented": 3957,
      "ldap": 3958,
      "freq": 3959,
      "application/": 3960,
      "needĠtoĠbeĠ": 3961,
      "']='ReviewingĠEditor';_['10.7554/eLife.": 3962,
      "Mis": 3963,
      "T,": 3964,
      "_count": 3965,
      "done": 3966,
      "es.": 3967,
      "et(": 3968,
      "ans(": 3969,
      "forĠ_ĠinĠ": 3970,
      ".sh": 3971,
      "len(k": 3972,
      "(_))": 3973,
      "np.arange": 3974,
      "logger.error('": 3975,
      "group(1": 3976,
      "NotImplemented": 3977,
      "Field": 3978,
      ">=0": 3979,
      "MS": 3980,
      "YouĠ": 3981,
      "bl": 3982,
      "diag": 3983,
      "x=='": 3984,
      "np.is": 3985,
      ":Ġ%s": 3986,
      "(sub": 3987,
      "_CO": 3988,
      "alias": 3989,
      "product": 3990,
      "BUG": 3991,
      "Line": 3992,
      "Max": 3993,
      "Vie": 3994,
      "[._": 3995,
      "]:": 3996,
      "j='": 3997,
      "._to_": 3998,
      "tom": 3999,
      ");>True": 4000,
      "compare": 4001,
      "header_": 4002,
      "==0:>": 4003,
      "registr": 4004,
      "priv": 4005,
      "fits.": 4006,
      "C.": 4007,
      "gg": 4008,
      "game": 4009,
      "youĠ": 4010,
      "orm": 4011,
      "recur": 4012,
      "ities": 4013,
      "digest": 4014,
      "tim": 4015,
      "):k=": 4016,
      "x=.": 4017,
      "sĠofĠ": 4018,
      "\\n';": 4019,
      "helper": 4020,
      "logging.getLog": 4021,
      "current.": 4022,
      ".write(": 4023,
      "environment_": 4024,
      "PIPE": 4025,
      "mbol": 4026,
      "Variant": 4027,
      "255": 4028,
      "cation": 4029,
      "oc": 4030,
      "pip": 4031,
      "s=None){": 4032,
      "){try{": 4033,
      "k==": 4034,
      "path_": 4035,
      "));elifĠ": 4036,
      "np.nan": 4037,
      ";ifĠisinstance(": 4038,
      "else:raiseĠ": 4039,
      ".ref": 4040,
      "'ĠinĠkwargs": 4041,
      "SIZ": 4042,
      "TYPE": 4043,
      "operator": 4044,
      "org/": 4045,
      "();ifĠnotĠ": 4046,
      ".update_": 4047,
      "Web": 4048,
      "i;": 4049,
      "o,": 4050,
      "tor": 4051,
      "state_": 4052,
      "ree": 4053,
      "lec": 4054,
      "argv": 4055,
      "exc_info": 4056,
      "html_": 4057,
      "overwrite": 4058,
      "){assertĠisinstance(": 4059,
      "CC": 4060,
      "Net": 4061,
      "Pop": 4062,
      "href": 4063,
      "pw": 4064,
      "s.keys(": 4065,
      ";ifĠk": 4066,
      "****": 4067,
      "which": 4068,
      "lat_": 4069,
      "logger.debug": 4070,
      "404": 4071,
      "running": 4072,
      "VALU": 4073,
      ".to": 4074,
      ".keys(": 4075,
      "Lib": 4076,
      "pd": 4077,
      "rv": 4078,
      "']{": 4079,
      "np.dot": 4080,
      "timedelta": 4081,
      "calc_": 4082,
      "varNum": 4083,
      "DEBUG": 4084,
      "ESS": 4085,
      "first_": 4086,
      "entry": 4087,
      "modifi": 4088,
      ".synchron": 4089,
      "'}}": 4090,
      "(message": 4091,
      ",k,": 4092,
      ">>": 4093,
      "CS": 4094,
      "ED": 4095,
      "FL": 4096,
      "_g": 4097,
      "k]": 4098,
      "sche": 4099,
      "x*": 4100,
      "',type=": 4101,
      "name_": 4102,
      "':._": 4103,
      "ilter": 4104,
      "ipv": 4105,
      "vie": 4106,
      "],[": 4107,
      "common": 4108,
      "auto_": 4109,
      "Com": 4110,
      "DataFrame": 4111,
      "direct_": 4112,
      "emb": 4113,
      "unknown": 4114,
      "theta": 4115,
      "separator": 4116,
      "({'": 4117,
      "Tuple": 4118,
      "Warning": 4119,
      "h5": 4120,
      "mig": 4121,
      "y),": 4122,
      "tax": 4123,
      "contract": 4124,
      "foundĠ": 4125,
      "url_": 4126,
      "sys.stdout": 4127,
      "LOGG": 4128,
      "(config": 4129,
      "?&&": 4130,
      "nt": 4131,
      "s||": 4132,
      "s(_,": 4133,
      "s_by_": 4134,
      "fileĠ": 4135,
      "y=False": 4136,
      "Regex": 4137,
      "_spec": 4138,
      "preser": 4139,
      "0,0,": 4140,
      "number_": 4141,
      "min(": 4142,
      "strip('": 4143,
      "insert": 4144,
      "Ġ%r": 4145,
      "ignore_": 4146,
      "warn('": 4147,
      "_[k]=": 4148,
      "._build_url('": 4149,
      "/%s/": 4150,
      "=x,": 4151,
      "?{ifĠ": 4152,
      "A-": 4153,
      "OF": 4154,
      "i)": 4155,
      "j)": 4156,
      "stit": 4157,
      "oneĠ": 4158,
      ");>x": 4159,
      "));_.": 4160,
      "side": 4161,
      "(),'": 4162,
      "try{k=": 4163,
      "';y=": 4164,
      "genome": 4165,
      "source.": 4166,
      "show_": 4167,
      "content_type": 4168,
      "%H": 4169,
      ".add(": 4170,
      "3.": 4171,
      "Filter": 4172,
      "_in": 4173,
      "cf": 4174,
      "deep": 4175,
      "cons": 4176,
      "digit": 4177,
      "(_),": 4178,
      "));excĠ": 4179,
      "test_": 4180,
      "string,": 4181,
      "compute_": 4182,
      "default(": 4183,
      "import": 4184,
      "\\\\.": 4185,
      "Detail": 4186,
      "args,**": 4187,
      "Handl": 4188,
      "(kwargs['": 4189,
      "Optional": 4190,
      "uplicate": 4191,
      "1;": 4192,
      "=k.": 4193,
      "en_": 4194,
      "delete_": 4195,
      "database": 4196,
      "y=='": 4197,
      "istic": 4198,
      "findĠ": 4199,
      "(b,": 4200,
      "global_": 4201,
      "afe_": 4202,
      "ensit": 4203,
      "*_": 4204,
      "All": 4205,
      "fra": 4206,
      "kip": 4207,
      "tk.": 4208,
      "ww": 4209,
      "y-": 4210,
      "z]": 4211,
      "regex": 4212,
      "re.sub('": 4213,
      "name)": 4214,
      "];i+=1": 4215,
      ".source": 4216,
      ".send(": 4217,
      "upload_": 4218,
      "patter": 4219,
      "s=False,": 4220,
      "text,": 4221,
      ";forĠ_ĠinĠ": 4222,
      ");forĠxĠinĠ": 4223,
      "constra": 4224,
      "older_": 4225,
      "ified": 4226,
      "partition": 4227,
      "Stop": 4228,
      "gistr": 4229,
      "x{ifĠ": 4230,
      "x[0]": 4231,
      "},": 4232,
      "req": 4233,
      "alt": 4234,
      "){j=": 4235,
      "name,'": 4236,
      "=None){ifĠnotĠ": 4237,
      "):_.": 4238,
      "plan": 4239,
      ");else:_=": 4240,
      "host,": 4241,
      "sys.stderr": 4242,
      "globalĠ": 4243,
      "Token": 4244,
      "expected_": 4245,
      "flatten": 4246,
      "19": 4247,
      "Multi": 4248,
      "sn": 4249,
      "=None){k=": 4250,
      "scen": 4251,
      "username,": 4252,
      "_,kĠinĠ": 4253,
      "transition": 4254,
      "active_": 4255,
      "ploy": 4256,
      "level=": 4257,
      "End": 4258,
      "green": 4259,
      "traceback": 4260,
      "failed": 4261,
      "neighbor": 4262,
      "(instance": 4263,
      "(event": 4264,
      ".\"": 4265,
      "=k,": 4266,
      "CP": 4267,
      "Pri": 4268,
      "Que": 4269,
      "a)": 4270,
      "rl": 4271,
      "seed": 4272,
      "ifie": 4273,
      "align": 4274,
      "vertex": 4275,
      "){ifĠ._": 4276,
      "plt.": 4277,
      ".getData": 4278,
      "dir,'": 4279,
      ".wid": 4280,
      "call_": 4281,
      "data_item": 4282,
      "service_id,": 4283,
      "metavar": 4284,
      "omial": 4285,
      "encode('utf-8": 4286,
      "(model": 4287,
      "=z": 4288,
      "j);": 4289,
      "next_": 4290,
      "pc": 4291,
      "red_": 4292,
      "s.get_": 4293,
      "ErrorĠ": 4294,
      "doub": 4295,
      "-1];": 4296,
      "control": 4297,
      ":raiseĠRuntimeError('": 4298,
      "node(": 4299,
      "ORD": 4300,
      "ware": 4301,
      "=np.zeros(": 4302,
      "continue}": 4303,
      "worker": 4304,
      "analys": 4305,
      "View": 4306,
      "Bad": 4307,
      "`'.format(": 4308,
      "ade": 4309,
      "ax.": 4310,
      "es_": 4311,
      "rĠinĠ": 4312,
      "your": 4313,
      "ift": 4314,
      "name);": 4315,
      "ĠĠĠ": 4316,
      "_[x": 4317,
      "range(.": 4318,
      "Ġbe": 4319,
      ");_.append(": 4320,
      "ARN": 4321,
      "99999999": 4322,
      "witch": 4323,
      "1}'.format(": 4324,
      "Dis": 4325,
      "Mem": 4326,
      "Pr": 4327,
      "[str": 4328,
      "average": 4329,
      "es=": 4330,
      "h,": 4331,
      "imat": 4332,
      "j;": 4333,
      "y,'": 4334,
      "atter": 4335,
      "'];k=": 4336,
      "[];_=": 4337,
      "dirs(": 4338,
      ".delete_": 4339,
      "_regist": 4340,
      "{forĠkĠinĠ": 4341,
      "Change": 4342,
      "!{try:": 4343,
      "256": 4344,
      ".'.format(": 4345,
      "13": 4346,
      "lyĠ": 4347,
      "ous": 4348,
      "']);ifĠ": 4349,
      ")}k=": 4350,
      "prop": 4351,
      "{})": 4352,
      "os.path.basename": 4353,
      "fields(": 4354,
      "random_": 4355,
      "KEYS.": 4356,
      "view_": 4357,
      ":_['": 4358,
      "j['": 4359,
      ");>}": 4360,
      "):.": 4361,
      "file_name": 4362,
      "{ifĠisinstance(": 4363,
      "edDict": 4364,
      "usingĠ": 4365,
      "destination": 4366,
      "os.path.join(.": 4367,
      "scriptor": 4368,
      "vals[i])": 4369,
      "vals[i];i+=1": 4370,
      "precision": 4371,
      ";ifĠlen(vals[i])": 4372,
      "Popbill": 4373,
      "(func": 4374,
      "-input": 4375,
      "P<": 4376,
      "g.c": 4377,
      "i:": 4378,
      "k.get('": 4379,
      "s){k=": 4380,
      "enu": 4381,
      "repe": 4382,
      "rot": 4383,
      ");ifĠy": 4384,
      ".sleep": 4385,
      "s=1": 4386,
      "s=_": 4387,
      "==2": 4388,
      "negate": 4389,
      "00,": 4390,
      "Name=None,": 4391,
      "clear": 4392,
      "resource_": 4393,
      "zip(": 4394,
      "cluster": 4395,
      "operation": 4396,
      "calcul": 4397,
      "CPEComponent": 4398,
      "PopbillException": 4399,
      "\"Ġ": 4400,
      ")Ċ": 4401,
      "2','": 4402,
      "?P<": 4403,
      "[t": 4404,
      "bar": 4405,
      "etag": 4406,
      "sql": 4407,
      "scale": 4408,
      "v.": 4409,
      "measurement": 4410,
      "Ġindex": 4411,
      "name='": 4412,
      "),:": 4413,
      "nest": 4414,
      "back=": 4415,
      "scan_": 4416,
      "try:k=": 4417,
      ";forĠxĠinĠ": 4418,
      "RES": 4419,
      "Device": 4420,
      ",scope": 4421,
      "->None": 4422,
      "success": 4423,
      "Timeout": 4424,
      "fastaccess": 4425,
      "total_": 4426,
      "findall": 4427,
      "pickle": 4428,
      "OrderedDict": 4429,
      "campa": 4430,
      "lecule": 4431,
      "(data,": 4432,
      ",str": 4433,
      ".list": 4434,
      "AY": 4435,
      "Schema": 4436,
      "[3": 4437,
      "[str,": 4438,
      "bib": 4439,
      "follow": 4440,
      "j]=": 4441,
      "save_": 4442,
      "leĠ": 4443,
      "ctx.": 4444,
      "['type": 4445,
      "name]=": 4446,
      "mod": 4447,
      "));._": 4448,
      "pose": 4449,
      "os.get": 4450,
      "ithub": 4451,
      "';k=": 4452,
      "[1].": 4453,
      ")}}elifĠ": 4454,
      "Ġsho": 4455,
      "cert": 4456,
      "status_code==": 4457,
      "Permission": 4458,
      "(-99999999": 4459,
      "',action='store_true": 4460,
      "logger.warning('": 4461,
      "._to_str(.": 4462,
      "PopbillException(-99999999": 4463,
      ".update": 4464,
      "lgc": 4465,
      "sl": 4466,
      "Īëĭ": 4467,
      "ceiver": 4468,
      "')||": 4469,
      ")).": 4470,
      "-1;": 4471,
      "';else:": 4472,
      ";>k": 4473,
      "request('": 4474,
      "field(": 4475,
      ".wa": 4476,
      "cred": 4477,
      "INFO": 4478,
      "){forĠkĠinĠ": 4479,
      "ĠofĠtheĠ": 4480,
      "radians(": 4481,
      "Formatter": 4482,
      "ëĭĪëĭ": 4483,
      ".synchronous_": 4484,
      "PopbillException(-99999999,'": 4485,
      "ëĭĪëĭ¤": 4486,
      "\"%s\"": 4487,
      "(q": 4488,
      ",i": 4489,
      "0,'": 4490,
      "?ĠelseĠ": 4491,
      "Json": 4492,
      "_or_": 4493,
      "site": 4494,
      "s&&": 4495,
      "ater": 4496,
      "',Ġ'": 4497,
      "ones(": 4498,
      ",'__": 4499,
      "ustom_": 4500,
      "Ġbut": 4501,
      "_type,": 4502,
      "default('": 4503,
      "?:_=": 4504,
      "):raiseĠTypeError('": 4505,
      "correct": 4506,
      "[:,0": 4507,
      "Collection": 4508,
      "ofĠtypeĠ": 4509,
      "Content-": 4510,
      "volume": 4511,
      "strftime('": 4512,
      "observ": 4513,
      "LOGGER": 4514,
      "\\r": 4515,
      "_var": 4516,
      "a='": 4517,
      "h=": 4518,
      "same": 4519,
      "};ifĠ": 4520,
      "µëĭĪëĭ¤": 4521,
      "ĬµëĭĪëĭ¤": 4522,
      "inc": 4523,
      "dev": 4524,
      "',._": 4525,
      "=None;ifĠ": 4526,
      "s_list": 4527,
      "doc_": 4528,
      ";>._": 4529,
      "block_name": 4530,
      "member_": 4531,
      ".create(": 4532,
      "ĠfileĠ": 4533,
      "(filename,": 4534,
      "mask,": 4535,
      "(**kwargs": 4536,
      "/'+": 4537,
      ":break": 4538,
      "_:raiseĠ": 4539,
      "s!": 4540,
      "degre": 4541,
      "('^": 4542,
      "name.": 4543,
      "type':'": 4544,
      "):._": 4545,
      "[0]=='": 4546,
      "listRegex": 4547,
      "=True)": 4548,
      "=True){": 4549,
      "commdct": 4550,
      "Store": 4551,
      "client.": 4552,
      "ENT": 4553,
      "Arra": 4554,
      ".setGraphVal('": 4555,
      "wrapper": 4556,
      "SubElement": 4557,
      "list,tuple": 4558,
      "version_number": 4559,
      "os.path.splitext(": 4560,
      "ratio": 4561,
      ".synchronous_command('": 4562,
      "80": 4563,
      "=y": 4564,
      "==None": 4565,
      "GI": 4566,
      "NA": 4567,
      "ep_": 4568,
      "kin": 4569,
      "ndim": 4570,
      "s'ĠinĠ": 4571,
      "x,'": 4572,
      "§ĢĠì": 4573,
      "ard(": 4574,
      "geo": 4575,
      "));z=": 4576,
      "Type.": 4577,
      "word_": 4578,
      "quiet": 4579,
      "other.": 4580,
      ".format_": 4581,
      "install": 4582,
      "structure": 4583,
      ".current.": 4584,
      "register": 4585,
      ".clear": 4586,
      "owner": 4587,
      "']'.ĠReceivedĠtype:Ġ'%s'\"%type(": 4588,
      "Generator": 4589,
      "boolean": 4590,
      "'{_=": 4591,
      "+.": 4592,
      "Be": 4593,
      "Win": 4594,
      "]-": 4595,
      "ach": 4596,
      "gon": 4597,
      "pid": 4598,
      "vip": 4599,
      "y.s": 4600,
      "Ĭì": 4601,
      "ķĬì": 4602,
      ");x.": 4603,
      "stro": 4604,
      "ce_": 4605,
      "._handle_": 4606,
      "):continue": 4607,
      "np.lin": 4608,
      "formation": 4609,
      ",_C": 4610,
      ";>.": 4611,
      "atures": 4612,
      "float,": 4613,
      "Location": 4614,
      "wraps(": 4615,
      "(request,": 4616,
      "invalid-input": 4617,
      "lamb": 4618,
      "Manag": 4619,
      "metavar='": 4620,
      "§ĢĠìķĬì": 4621,
      "(id": 4622,
      "3/": 4623,
      "Fast": 4624,
      "Min": 4625,
      "Mon": 4626,
      "dst": 4627,
      "fmt": 4628,
      "i+": 4629,
      "p(": 4630,
      "one_": 4631,
      "&&'": 4632,
      "combin": 4633,
      "user_id": 4634,
      "[::": 4635,
      ".split(": 4636,
      "sigma": 4637,
      "[x]=": 4638,
      ".value=": 4639,
      "round_": 4640,
      "serialize": 4641,
      "`'.format(value": 4642,
      "vals[i];i+=1;ifĠlen(vals[i])": 4643,
      "-%m": 4644,
      "Cur": 4645,
      "VM": 4646,
      "k);>": 4647,
      "k[0]": 4648,
      "s{_=": 4649,
      "wi": 4650,
      "x+=": 4651,
      "z[": 4652,
      "{i=": 4653,
      "('-": 4654,
      "fire": 4655,
      "cover": 4656,
      "exchange": 4657,
      "row_": 4658,
      "utc": 4659,
      "),(": 4660,
      "file.": 4661,
      "();excĠ": 4662,
      "virt": 4663,
      ":>_": 4664,
      ":>True": 4665,
      "}>x": 4666,
      "[];forĠxĠinĠ": 4667,
      "inputs.": 4668,
      "missing": 4669,
      "task_": 4670,
      "resource_id": 4671,
      "force_": 4672,
      "DATA": 4673,
      "doesĠnotĠexist": 4674,
      "')}ifĠ": 4675,
      ".meta": 4676,
      "BO": 4677,
      "a;": 4678,
      "cm": 4679,
      "cu": 4680,
      "fl": 4681,
      "m(": 4682,
      "y]=": 4683,
      "decl": 4684,
      "s(_)": 4685,
      "None,'": 4686,
      "file(": 4687,
      "[0,": 4688,
      "rand": 4689,
      "Exist": 4690,
      "\\nĠĠĠĠ": 4691,
      "[];k=": 4692,
      "Stream": 4693,
      "_file_name": 4694,
      "deriv": 4695,
      "(c,": 4696,
      "Dire": 4697,
      "Obj": 4698,
      "_CON": 4699,
      "rename": 4700,
      "definition": 4701,
      "ctypes.c_": 4702,
      "kernel": 4703,
      "));_.append(._to_str(.": 4704,
      "SIZE": 4705,
      "service_id,version_number": 4706,
      "+_": 4707,
      "/2": 4708,
      ":str,": 4709,
      "Cache": 4710,
      "EP": 4711,
      "[[": 4712,
      "oci": 4713,
      "ĠS": 4714,
      ");print('": 4715,
      "ifyĠ": 4716,
      "peak": 4717,
      "issub": 4718,
      "trun": 4719,
      "sible": 4720,
      "()-": 4721,
      "ssh": 4722,
      ":>'": 4723,
      ",_);": 4724,
      "||notĠ": 4725,
      "params,": 4726,
      "{0:": 4727,
      "placeh": 4728,
      "uldĠbeĠ": 4729,
      "COMM": 4730,
      "mask=": 4731,
      "supportedĠ": 4732,
      "Func": 4733,
      "Query": 4734,
      "-%m-": 4735,
      "!=1": 4736,
      ")ĠelseĠ": 4737,
      ".pop": 4738,
      "Task": 4739,
      "Wid": 4740,
      "mime": 4741,
      "oup": 4742,
      "ences": 4743,
      "'];_=": 4744,
      "dataset_": 4745,
      "(k['": 4746,
      "simul": 4747,
      "ĠforĠk,_ĠinĠ": 4748,
      ".warn": 4749,
      "subj": 4750,
      "piece": 4751,
      "ATE": 4752,
      "auth_": 4753,
      "lat,": 4754,
      "_path,": 4755,
      "document_": 4756,
      "Pos": 4757,
      "center": 4758,
      "astype(": 4759,
      ":%M": 4760,
      "accept": 4761,
      "JobF": 4762,
      "equip": 4763,
      "UnknownĠ": 4764,
      "preserve_": 4765,
      "\"{}\"": 4766,
      ")[0]": 4767,
      ".find_": 4768,
      ">Ġ": 4769,
      "ht_": 4770,
      "oundĠ": 4771,
      "ity(": 4772,
      "',1": 4773,
      ");ifĠ._": 4774,
      ")}_=": 4775,
      "value!{try:": 4776,
      "ter_": 4777,
      "np.empty(": 4778,
      "k.name": 4779,
      "setĠ": 4780,
      "{ifĠ'": 4781,
      "Expect": 4782,
      "\\n'.format(": 4783,
      "subject": 4784,
      ");forĠiĠinĠrange(": 4785,
      "):>False": 4786,
      "class.": 4787,
      "(x,y,": 4788,
      "train": 4789,
      "ThisĠ": 4790,
      "AND": 4791,
      ".create": 4792,
      "write(": 4793,
      "style.": 4794,
      ");excĠValueError:raiseĠValueError('value": 4795,
      "ctypes.byref": 4796,
      "math.": 4797,
      "Ġ{}ĠneedĠtoĠbeĠ": 4798,
      "\\\\d+)": 4799,
      "render_": 4800,
      "dbsExceptionHandler('dbsException-invalid-input": 4801,
      "timedelta(": 4802,
      "value!{try:value=": 4803,
      ");excĠValueError:raiseĠValueError('valueĠ{}ĠneedĠtoĠbeĠ": 4804,
      ")=.": 4805,
      "Ho": 4806,
      "],'": 4807,
      "i(": 4808,
      "tup": 4809,
      "ħë": 4810,
      "inte": 4811,
      "any": 4812,
      "',x": 4813,
      "rack": 4814,
      "iso": 4815,
      "contr": 4816,
      "value.": 4817,
      "sil": 4818,
      "scre": 4819,
      "}>False": 4820,
      "\\\\w": 4821,
      "hasGraph": 4822,
      "account": 4823,
      "adding": 4824,
      "color=": 4825,
      "connect_": 4826,
      ".split('/": 4827,
      "image_": 4828,
      "stream_": 4829,
      "context.": 4830,
      "URI": 4831,
      "Child": 4832,
      "astype(np.": 4833,
      "cookie": 4834,
      ".sequences.": 4835,
      "C_": 4836,
      "Prf": 4837,
      "_lib": 4838,
      "ding": 4839,
      "ide": 4840,
      "jd": 4841,
      "k+=1": 4842,
      "mk": 4843,
      "s;ifĠ": 4844,
      "s'%": 4845,
      "ê°": 4846,
      "ins": 4847,
      "Ġinter": 4848,
      "ĠforĠkĠinĠ": 4849,
      ":raiseĠexceptions.": 4850,
      "[1]);": 4851,
      "com/": 4852,
      "ĠifĠnotĠ": 4853,
      "addr": 4854,
      "chain_": 4855,
      "hyper": 4856,
      "proxy.": 4857,
      ".py": 4858,
      "6,": 4859,
      "font": 4860,
      "greg": 4861,
      "k),": 4862,
      "selection": 4863,
      "segment": 4864,
      "uest": 4865,
      "Ġinstance": 4866,
      "exit(": 4867,
      "s(){k=": 4868,
      ".sy": 4869,
      "s_from_": 4870,
      "dĠforĠ": 4871,
      "x,y,": 4872,
      "instance.": 4873,
      "\\n');": 4874,
      "read(": 4875,
      "errors.": 4876,
      "callsign": 4877,
      "izer": 4878,
      "dail": 4879,
      "hostname": 4880,
      "signature": 4881,
      "'.join([": 4882,
      "TIME": 4883,
      "Result": 4884,
      "layout": 4885,
      "present": 4886,
      "property_": 4887,
      "np.where(": 4888,
      "App": 4889,
      ")[0];": 4890,
      "0)": 4891,
      "_&&": 4892,
      "a);": 4893,
      "k*": 4894,
      "mut": 4895,
      "simp": 4896,
      "x,:": 4897,
      "lineĠ": 4898,
      "_schema": 4899,
      "previ": 4900,
      "fill_": 4901,
      "cursor": 4902,
      ".shape[1]": 4903,
      "wait_": 4904,
      "empty": 4905,
      "np.sin": 4906,
      "ip_addres": 4907,
      ",'rb": 4908,
      "rollback": 4909,
      "enabled": 4910,
      "Ġ\"%s\"": 4911,
      "Byte": 4912,
      "Output": 4913,
      "Addres": 4914,
      "encoding='utf-8": 4915,
      "struct.pack('": 4916,
      "concaten": 4917,
      ")!=": 4918,
      "-3": 4919,
      "1/": 4920,
      ":y=": 4921,
      ":k.": 4922,
      ";k.": 4923,
      "GE": 4924,
      "_label": 4925,
      "cs": 4926,
      "y*": 4927,
      "att": 4928,
      "lot": 4929,
      "point_": 4930,
      "clu": 4931,
      "ned": 4932,
      "s[x": 4933,
      "valid_": 4934,
      ");forĠiĠinĠ": 4935,
      "_type=": 4936,
      "ID,": 4937,
      "Enable": 4938,
      "copy.": 4939,
      "fasta": 4940,
      ".close();": 4941,
      "aliase": 4942,
      "vertice": 4943,
      "HEAD": 4944,
      "%Y-%m-": 4945,
      "http_": 4946,
      ".json": 4947,
      ".connect": 4948,
      "Ne": 4949,
      "fname": 4950,
      "pt_": 4951,
      "writ": 4952,
      "},'": 4953,
      "',{'": 4954,
      "x==": 4955,
      "pol": 4956,
      "[0]=": 4957,
      "tect": 4958,
      "{}/": 4959,
      ".cache": 4960,
      "maximum": 4961,
      ".device": 4962,
      "params['": 4963,
      "ĠisĠTrue": 4964,
      "objecttools.": 4965,
      "Copy": 4966,
      "options['": 4967,
      "status": 4968,
      "strip();": 4969,
      "[];forĠ_ĠinĠ": 4970,
      "io_": 4971,
      "lush": 4972,
      "clean_": 4973,
      "SIG": 4974,
      "ACK": 4975,
      "radiu": 4976,
      "webdriver": 4977,
      "MPL": 4978,
      "key=(\\": 4979,
      "Dword(": 4980,
      "Length": 4981,
      "Off": 4982,
      "Sign": 4983,
      "rel": 4984,
      "molecule": 4985,
      "prob": 4986,
      "append_": 4987,
      ":raiseĠException('": 4988,
      "prediction": 4989,
      ")}>x": 4990,
      "s']['": 4991,
      "velength": 4992,
      "status(": 4993,
      ");._set('": 4994,
      ",**kwargs)": 4995,
      "start_time": 4996,
      "fastq": 4997,
      "super(Api": 4998,
      "Factor": 4999,
      "FailedĠtoĠ": 5000,
      "silent": 5001,
      ".index": 5002,
      "0;ifĠ": 5003,
      "CF": 5004,
      "Feature": 5005,
      "send_": 5006,
      "}x=": 5007,
      "Ġ{}": 5008,
      "Ġ{0}": 5009,
      "eric": 5010,
      "decor": 5011,
      "',_,": 5012,
      "');k.": 5013,
      "time.sleep": 5014,
      "not_": 5015,
      ":raiseĠTypeError('": 5016,
      "token_": 5017,
      "parameters.": 5018,
      "(value,": 5019,
      "update({'": 5020,
      "(key,": 5021,
      "chunk_size": 5022,
      "pipel": 5023,
      "Handler(": 5024,
      "ê°ĢĠì": 5025,
      "(N": 5026,
      "(g": 5027,
      "(n,": 5028,
      "28": 5029,
      "2f": 5030,
      ";assertĠ": 5031,
      "Guest": 5032,
      "[key": 5033,
      "cut": 5034,
      "dul": 5035,
      "lĠinĠ": 5036,
      "Ġformat": 5037,
      "led": 5038,
      "leg": 5039,
      "){@": 5040,
      "){a=": 5041,
      "extern": 5042,
      "];elifĠ": 5043,
      "value('": 5044,
      "log.": 5045,
      "setup": 5046,
      "kwd": 5047,
      "os.remove": 5048,
      ",_['": 5049,
      "create(": 5050,
      "array_": 5051,
      "range(len(": 5052,
      "];ifĠnotĠ": 5053,
      "charact": 5054,
      "monomial": 5055,
      "copy();": 5056,
      "magic": 5057,
      "skip": 5058,
      "Work": 5059,
      "prompt": 5060,
      ".value=readDataInstance.read": 5061,
      ")==1": 5062,
      "2}": 5063,
      "=int(": 5064,
      "Match": 5065,
      "va": 5066,
      "stract": 5067,
      "',0": 5068,
      "exe": 5069,
      "']==": 5070,
      ");ifĠi": 5071,
      "paralle": 5072,
      "(k),": 5073,
      "y=.": 5074,
      "able_": 5075,
      "group_": 5076,
      "begin": 5077,
      ">0&&": 5078,
      "turn": 5079,
      "tree(": 5080,
      "server_": 5081,
      "LOC": 5082,
      ".serial": 5083,
      "public": 5084,
      "median": 5085,
      "!r": 5086,
      "(word": 5087,
      "-_": 5088,
      "Met": 5089,
      "OB": 5090,
      "cab": 5091,
      "draw": 5092,
      "gu": 5093,
      "jct_": 5094,
      "ense": 5095,
      "anch": 5096,
      "s(:": 5097,
      "unic": 5098,
      "vices": 5099,
      "models_": 5100,
      "minimum": 5101,
      "(x,'": 5102,
      "sign_": 5103,
      "d.Ġ": 5104,
      "{forĠxĠinĠ": 5105,
      ":_='": 5106,
      "[xĠforĠxĠinĠ": 5107,
      "iveĠ": 5108,
      "body=": 5109,
      "indicator": 5110,
      ".current": 5111,
      "(kwargs": 5112,
      "Director": 5113,
      "concatenate(": 5114,
      ",var": 5115,
      ".objects.": 5116,
      "33": 5117,
      "System": 5118,
      "_('": 5119,
      "bam": 5120,
      "liter": 5121,
      "relat": 5122,
      "otype": 5123,
      "entĠ": 5124,
      "strPath": 5125,
      ");>'": 5126,
      "Error{": 5127,
      "outfile": 5128,
      "url=": 5129,
      "(x);": 5130,
      "Coun": 5131,
      "method_": 5132,
      "columns": 5133,
      "api/v": 5134,
      "ĠnotĠfound": 5135,
      "client_id": 5136,
      "six.string_type": 5137,
      "push": 5138,
      "Iteration": 5139,
      "Root": 5140,
      "Download": 5141,
      "djang": 5142,
      ");excĠValueError:raiseĠValueError('valueĠ{}ĠneedĠtoĠbeĠofĠtypeĠ": 5143,
      "GuestLib": 5144,
      ")%": 5145,
      ":yieldĠ": 5146,
      "<1": 5147,
      "={'": 5148,
      "[4": 5149,
      "_ĠnotĠinĠ": 5150,
      "_color": 5151,
      "`Ġ": 5152,
      "bg": 5153,
      "cn": 5154,
      "i=.": 5155,
      "j.append(": 5156,
      "s).": 5157,
      "{:": 5158,
      ");try{": 5159,
      "delim": 5160,
      "_.append('": 5161,
      "];.": 5162,
      "dataĠ": 5163,
      "ve(": 5164,
      "ride": 5165,
      "len(y)": 5166,
      "os.make": 5167,
      "requests.get(": 5168,
      "sym": 5169,
      ".0/": 5170,
      "query,": 5171,
      "getattr(.,'": 5172,
      "ETE": 5173,
      "port_": 5174,
      "grade": 5175,
      "ShEx": 5176,
      "yourĠ": 5177,
      "(){ifĠ.": 5178,
      ",k.": 5179,
      ".');>": 5180,
      ".check_": 5181,
      ":k": 5182,
      ";b=": 5183,
      "AĠ": 5184,
      "FileĠ": 5185,
      "a.append(": 5186,
      "ber(": 5187,
      "{k:": 5188,
      "release": 5189,
      "debug('": 5190,
      "coer": 5191,
      "_.get": 5192,
      "d_read": 5193,
      "uplo": 5194,
      "s_dict": 5195,
      "x,y": 5196,
      "ssl_": 5197,
      "scan": 5198,
      "config_file": 5199,
      "minute": 5200,
      ".subm": 5201,
      "None,None": 5202,
      "Quant": 5203,
      "os.path.isdir": 5204,
      "dictionar": 5205,
      "Clust": 5206,
      ")]=": 5207,
      "-b": 5208,
      ";whileĠ": 5209,
      "GU": 5210,
      "LIN": 5211,
      "Mdl": 5212,
      "WARN": 5213,
      "_t": 5214,
      "ection": 5215,
      "qĠinĠ": 5216,
      "xpath": 5217,
      "x+='": 5218,
      "ify": 5219,
      ".sim": 5220,
      "value)": 5221,
      "parseĠ": 5222,
      "need": 5223,
      "){_={'": 5224,
      "delay": 5225,
      "';x=": 5226,
      "size,": 5227,
      "float(value": 5228,
      "[:-1]": 5229,
      "!=-1": 5230,
      ")}ifĠ.": 5231,
      "{0}/": 5232,
      "==0:.": 5233,
      "Entry": 5234,
      "Dir": 5235,
      "ASE": 5236,
      "iĠinĠrange(len(": 5237,
      "datas": 5238,
      "reshape(": 5239,
      "master_": 5240,
      "JobFn(": 5241,
      "Metadata": 5242,
      "ShExJ": 5243,
      "(?P<": 5244,
      "67": 5245,
      "=i": 5246,
      "PUT": 5247,
      "afe": 5248,
      "bon": 5249,
      "full_": 5250,
      "riter": 5251,
      "sm": 5252,
      "vlan": 5253,
      "y));": 5254,
      "}k=": 5255,
      "endĠ": 5256,
      "season": 5257,
      "._parse_": 5258,
      "strp": 5259,
      "polic": 5260,
      "itherĠ": 5261,
      "boot": 5262,
      "[:,1": 5263,
      "[i],": 5264,
      "disconnect": 5265,
      "dispatch": 5266,
      "workflow": 5267,
      "block_": 5268,
      "memor": 5269,
      "executable": 5270,
      "local_": 5271,
      "job.file": 5272,
      "1000": 5273,
      "stdout=": 5274,
      "EXT": 5275,
      ".request.": 5276,
      "start,end": 5277,
      ".__name__,": 5278,
      "ORMAT": 5279,
      "recursive": 5280,
      "Fastly": 5281,
      ":\\n": 5282,
      "Action": 5283,
      "Lay": 5284,
      "VI": 5285,
      "]),": 5286,
      "got": 5287,
      "ture": 5288,
      "y{ifĠ": 5289,
      "Ġ[": 5290,
      "ĠinĠtheĠ": 5291,
      ")}.": 5292,
      "format='": 5293,
      "();z=": 5294,
      "program": 5295,
      "er_id": 5296,
      "_id':": 5297,
      "func=": 5298,
      ");forĠyĠinĠ": 5299,
      "scribe": 5300,
      "method=='": 5301,
      "ussi": 5302,
      ".flush": 5303,
      "Ġspec": 5304,
      "Proper": 5305,
      "job,": 5306,
      "entry_": 5307,
      "histor": 5308,
      "ravel()": 5309,
      "issubclass(": 5310,
      "(url,": 5311,
      "1,'": 5312,
      ";_": 5313,
      ";try:": 5314,
      "DR": 5315,
      "PATH": 5316,
      "SER": 5317,
      "s');ifĠ": 5318,
      "td": 5319,
      "y.get('": 5320,
      "âķ": 5321,
      "s.Ġ": 5322,
      "_.get_": 5323,
      "series(": 5324,
      "values": 5325,
      "faces": 5326,
      "[0]+": 5327,
      ".getId(": 5328,
      "box_": 5329,
      "Name,": 5330,
      "numberĠofĠ": 5331,
      "=._api": 5332,
      "mote_": 5333,
      "page_": 5334,
      "visib": 5335,
      "MAG": 5336,
      ")->None": 5337,
      "marker": 5338,
      "sys.exit(1": 5339,
      "%H:%M": 5340,
      ",scope,": 5341,
      "credential": 5342,
      "strptime": 5343,
      "FoundĠ": 5344,
      "Lab": 5345,
      "P','": 5346,
      "PER": 5347,
      "Rat": 5348,
      "dyn": 5349,
      "echo": 5350,
      "null": 5351,
      "){k='": 5352,
      "form.": 5353,
      "coeff": 5354,
      "aspect": 5355,
      "rop": 5356,
      ",'_": 5357,
      "','')": 5358,
      "logy": 5359,
      "vec": 5360,
      "persist": 5361,
      "lineno": 5362,
      "isinstance(x,": 5363,
      ".defa": 5364,
      "[_].": 5365,
      "method(": 5366,
      "ENT_": 5367,
      "variant_": 5368,
      "Parent": 5369,
      "root.": 5370,
      ")ĠforĠxĠinĠ": 5371,
      "suffix": 5372,
      "UBLAS": 5373,
      "Authentic": 5374,
      "period_": 5375,
      "base_url=._api": 5376,
      "Create": 5377,
      ",_CUBLAS": 5378,
      "'){k=": 5379,
      ".iter_": 5380,
      "=['": 5381,
      "EE": 5382,
      "SC": 5383,
      "_p": 5384,
      "fall": 5385,
      "gh": 5386,
      "Ġ'.join(": 5387,
      "ķĺì": 5388,
      "ŀħë": 5389,
      "ł¥": 5390,
      "atype": 5391,
      "depend": 5392,
      "loan": 5393,
      "',k": 5394,
      "nameĠinĠ": 5395,
      ");ifĠz": 5396,
      "];j=": 5397,
      "':_.": 5398,
      "),.": 5399,
      "s=._": 5400,
      "dom": 5401,
      "x,y=": 5402,
      "\\n'%": 5403,
      ";>False": 5404,
      "lack": 5405,
      "backup": 5406,
      "[i+1": 5407,
      "Dataset": 5408,
      "=None){ifĠvalue!{try:value=": 5409,
      "other_": 5410,
      "directory,": 5411,
      "api_url": 5412,
      "np.array([": 5413,
      "naQuant": 5414,
      "s=True,": 5415,
      "ecef_": 5416,
      "functools.partial": 5417,
      "constraint": 5418,
      "§ĢĠìķĬìķĺì": 5419,
      "ŀħëł¥": 5420,
      "§ĢĠìķĬìķĺìĬµëĭĪëĭ¤": 5421,
      ".'%": 5422,
      "=m": 5423,
      "={": 5424,
      "=value": 5425,
      "Button": 5426,
      "DU": 5427,
      "G_": 5428,
      "Hel": 5429,
      "be_": 5430,
      "f\"": 5431,
      "pingĠ": 5432,
      "rad": 5433,
      "s2": 5434,
      "uch": 5435,
      "z+=": 5436,
      "ëĲ": 5437,
      "orient": 5438,
      "stand": 5439,
      "state(": 5440,
      "sed": 5441,
      "_.split('": 5442,
      "argparse.": 5443,
      ".save_": 5444,
      "value(": 5445,
      "values()": 5446,
      "np.nd": 5447,
      "x,k=": 5448,
      "urllib": 5449,
      "config(": 5450,
      ";>True": 5451,
      ");_=.": 5452,
      "[_],": 5453,
      "rowser": 5454,
      "%d/": 5455,
      "requirement": 5456,
      "access_key": 5457,
      "{}'.format(.": 5458,
      "solver": 5459,
      "(){ifĠ._": 5460,
      "whileĠTrue{": 5461,
      "entries": 5462,
      "ĺì§ĢĠìķĬìķĺìĬµëĭĪëĭ¤": 5463,
      "pository": 5464,
      "logging.getLogger": 5465,
      "Window": 5466,
      "models_proxy.": 5467,
      "ŀħëł¥ëĲ": 5468,
      "ŀħëł¥ëĲĺì§ĢĠìķĬìķĺìĬµëĭĪëĭ¤": 5469,
      ")+'": 5470,
      ".h": 5471,
      "=4": 5472,
      "New": 5473,
      "UCC": 5474,
      "k}": 5475,
      "send": 5476,
      "uc": 5477,
      "inal": 5478,
      "station": 5479,
      "stage": 5480,
      "itter": 5481,
      "ity,": 5482,
      "']}": 5483,
      "_.shape": 5484,
      "dic": 5485,
      ".sche": 5486,
      "','/": 5487,
      "(_);>": 5488,
      "ancel": 5489,
      "_sy": 5490,
      "model_name": 5491,
      "ERS": 5492,
      "filename=": 5493,
      "beenĠ": 5494,
      "Id=None,": 5495,
      "manage": 5496,
      "lon_": 5497,
      "lease_": 5498,
      "target,": 5499,
      "hasattr(.,'": 5500,
      "datetime.datetime.": 5501,
      "indices": 5502,
      "json_content": 5503,
      "hasGraph('": 5504,
      "(tag": 5505,
      ")ĠinĠ": 5506,
      "-c": 5507,
      "-type": 5508,
      "Over": 5509,
      "gz": 5510,
      "glo": 5511,
      "Ġerror": 5512,
      ");_['": 5513,
      "np.log": 5514,
      ";ifĠ_.": 5515,
      "x,_": 5516,
      "scr": 5517,
      "**kwargs){": 5518,
      "Context": 5519,
      "Ġ'{}": 5520,
      "apping": 5521,
      "_.append(('": 5522,
      "subprocess.PIPE": 5523,
      "quote": 5524,
      ".client.": 5525,
      "warnings.warn('": 5526,
      "click.echo('": 5527,
      "-x": 5528,
      "Msg": 5529,
      "_str": 5530,
      "e.0": 5531,
      "fp.": 5532,
      "k&&": 5533,
      "x}": 5534,
      "inf": 5535,
      "art": 5536,
      "val,": 5537,
      "];excĠKeyError": 5538,
      "');print('": 5539,
      "s,.": 5540,
      "ĠforĠcĠinĠ": 5541,
      "x,k": 5542,
      "scatter": 5543,
      "Exec": 5544,
      "models.": 5545,
      "ship": 5546,
      "base64": 5547,
      "Section": 5548,
      "parsed_": 5549,
      "List[": 5550,
      "inst['": 5551,
      "utf8": 5552,
      "field_name": 5553,
      "10.7554/eLife.0": 5554,
      "decode('utf-8": 5555,
      ".register_": 5556,
      "ĠwasĠ": 5557,
      "engine": 5558,
      "Optional[": 5559,
      "Queue": 5560,
      "lambda": 5561,
      "ExpectedĠ": 5562,
      ",z": 5563,
      ".put": 5564,
      "AV": 5565,
      "B_": 5566,
      "Cli": 5567,
      "MET": 5568,
      "W_": 5569,
      "[None": 5570,
      "_<": 5571,
      "a:": 5572,
      "c);": 5573,
      "ogram": 5574,
      "ration_": 5575,
      "s:raiseĠ": 5576,
      "lect_": 5577,
      "geome": 5578,
      "maj": 5579,
      "dĠwithĠ": 5580,
      "');excĠ": 5581,
      "timeĠ": 5582,
      ":>.": 5583,
      "'.format(_": 5584,
      "percent": 5585,
      "Repo": 5586,
      "scor": 5587,
      "etwe": 5588,
      "\\n'.join": 5589,
      "_sample": 5590,
      "{'name':": 5591,
      ";_=._": 5592,
      "line(": 5593,
      "call(": 5594,
      "(fname": 5595,
      "source_": 5596,
      "usage": 5597,
      ")}}excĠ": 5598,
      "Process": 5599,
      "MAP": 5600,
      "();forĠkĠinĠ": 5601,
      "';_='": 5602,
      "drop": 5603,
      "cannotĠbeĠ": 5604,
      "assistant": 5605,
      "WARNING": 5606,
      "(h": 5607,
      "-4": 5608,
      ".l": 5609,
      ".trans": 5610,
      ".analysistype].": 5611,
      "2);": 5612,
      "90": 5613,
      "=get_": 5614,
      "OA": 5615,
      "_._": 5616,
      "cen": 5617,
      "i*": 5618,
      "Ġobject": 5619,
      ");exc": 5620,
      "s(){ifĠ": 5621,
      "ategor": 5622,
      ");ifĠm": 5623,
      "trim": 5624,
      ")}x=": 5625,
      "sĠfromĠ": 5626,
      "=False){_=": 5627,
      ".split()": 5628,
      "fields.": 5629,
      "ĠnotĠinĠ._": 5630,
      "=np.array(": 5631,
      "quires": 5632,
      "general": 5633,
      "Ġ{1}": 5634,
      "[2:": 5635,
      "address": 5636,
      "(){_=.": 5637,
      "insert_": 5638,
      "os.path.join(_,'": 5639,
      ",'w')ĠasĠ": 5640,
      "collections.": 5641,
      "dtype=int": 5642,
      "dtype=float": 5643,
      "####": 5644,
      "np.isnan": 5645,
      "screen": 5646,
      "(str(": 5647,
      ".db": 5648,
      ".find('": 5649,
      "JEC": 5650,
      "blan": 5651,
      "ger(": 5652,
      "ner": 5653,
      "sal": 5654,
      "sure": 5655,
      "Ġargument": 5656,
      "Ġ{}'.format(": 5657,
      "){withĠ": 5658,
      "cosmo": 5659,
      "unch": 5660,
      "Error:raiseĠ": 5661,
      "');else:": 5662,
      ":Ġ{}'.format": 5663,
      ".getLocal": 5664,
      "flow_": 5665,
      "substit": 5666,
      "IN_": 5667,
      "ized": 5668,
      "wordĠ": 5669,
      "clip": 5670,
      "s'],": 5671,
      "KeyError:pass": 5672,
      "E_URL": 5673,
      "))}._": 5674,
      "[0];>": 5675,
      "Parse": 5676,
      "number=": 5677,
      "_:_.": 5678,
      "timeout=": 5679,
      "charge": 5680,
      "_fn": 5681,
      "Control": 5682,
      ",'wb": 5683,
      "s[_]": 5684,
      "secret_": 5685,
      "media": 5686,
      "ctxt,": 5687,
      "application/json": 5688,
      "_register_": 5689,
      ".default_": 5690,
      "(l": 5691,
      ")ĠisĠ": 5692,
      "+b": 5693,
      ".name,": 5694,
      "1','": 5695,
      "Send": 5696,
      "Tar": 5697,
      "[p": 5698,
      "_R": 5699,
      "padding": 5700,
      "sock": 5701,
      "watch": 5702,
      "Ġ--": 5703,
      "era": 5704,
      "redirect": 5705,
      "('ascii": 5706,
      "str(x": 5707,
      "=None)=": 5708,
      "tour": 5709,
      "log.warn": 5710,
      "filepath": 5711,
      "();k.": 5712,
      "dow_": 5713,
      "quan": 5714,
      "outĠ": 5715,
      "=True){ifĠ": 5716,
      "=False;": 5717,
      "json(": 5718,
      "STAR": 5719,
      "best": 5720,
      "emon": 5721,
      "){forĠxĠinĠ": 5722,
      "bind('": 5723,
      "fixed_": 5724,
      "UnexpectedĠ": 5725,
      "tree.": 5726,
      "queryset": 5727,
      "close()": 5728,
      "pkg": 5729,
      "ExceptionĠasĠe{": 5730,
      "evalu": 5731,
      "Start": 5732,
      "'ĠmustĠbeĠofĠtypeĠ'['str": 5733,
      "pd.DataFrame": 5734,
      "logical_file_name": 5735,
      "sizeĠ": 5736,
      "NotImplementedError('": 5737,
      "campaign": 5738,
      "(2*": 5739,
      ",y": 5740,
      ",None": 5741,
      ".has_": 5742,
      "1:": 5743,
      "500": 5744,
      "<=0": 5745,
      "Oper": 5746,
      "custom_": 5747,
      "i==": 5748,
      "lap": 5749,
      "inĠ": 5750,
      "relate": 5751,
      "unif": 5752,
      "tran": 5753,
      "':_['": 5754,
      ".send": 5755,
      "result(": 5756,
      "point(": 5757,
      "ĠforĠk,vĠinĠ": 5758,
      "ĠasĠk": 5759,
      "dict[": 5760,
      "[i].": 5761,
      "(){.": 5762,
      "(){._": 5763,
      "Description": 5764,
      "wavelength": 5765,
      "super": 5766,
      "newĠ": 5767,
      "handle,": 5768,
      "stderr=": 5769,
      "._send_": 5770,
      "meshcode": 5771,
      "exec_": 5772,
      "os.makedirs(": 5773,
      ".submit(": 5774,
      "ctxt,stream": 5775,
      "');>_": 5776,
      ",key": 5777,
      "-0": 5778,
      ".post": 5779,
      ".startswith('": 5780,
      ";raiseĠ": 5781,
      "=vals[i];i+=1;ifĠlen(vals[i])": 5782,
      "?:raiseĠValueError('": 5783,
      "LAN": 5784,
      "SUB": 5785,
      "_col": 5786,
      "b);": 5787,
      "false": 5788,
      "fron": 5789,
      "mĠ": 5790,
      "op.": 5791,
      "pt(": 5792,
      "scal": 5793,
      "._get": 5794,
      "',kwargs": 5795,
      "name':'": 5796,
      "ĠasĠ_;": 5797,
      "prett": 5798,
      "user,": 5799,
      "implement": 5800,
      "open_": 5801,
      "itertools.": 5802,
      "Sequence": 5803,
      "ALL": 5804,
      "width=": 5805,
      "container_": 5806,
      "features": 5807,
      "parent_class.": 5808,
      "alpha,": 5809,
      "hydp": 5810,
      "identifier": 5811,
      "expire": 5812,
      "A-Z": 5813,
      "repeat": 5814,
      "scan_parameter": 5815,
      "$',": 5816,
      "1d(": 5817,
      "Pass": 5818,
      "SO": 5819,
      "Sy": 5820,
      "_]": 5821,
      "_version": 5822,
      "actor": 5823,
      "bro": 5824,
      "i{": 5825,
      "n:": 5826,
      "os_": 5827,
      "pot": 5828,
      "q_": 5829,
      "vl": 5830,
      "z(": 5831,
      "íĺ": 5832,
      "ĠF": 5833,
      "Ġ',": 5834,
      "attemp": 5835,
      "asic": 5836,
      "s(k": 5837,
      "uture": 5838,
      "':k=": 5839,
      "th_": 5840,
      "parent.": 5841,
      "));i=": 5842,
      "y==": 5843,
      ";ifĠx": 5844,
      "kwargs=": 5845,
      "quare": 5846,
      "json(._": 5847,
      "_,k": 5848,
      "numeric": 5849,
      "}>True": 5850,
      "ampl": 5851,
      "pygame": 5852,
      "shel": 5853,
      "shell": 5854,
      "ize(": 5855,
      "label='": 5856,
      "REC": 5857,
      "):>True": 5858,
      "agent": 5859,
      "aggreg": 5860,
      "archive": 5861,
      "iterator": 5862,
      "table_": 5863,
      "class=": 5864,
      "rong": 5865,
      "day_": 5866,
      "llable": 5867,
      "Proto": 5868,
      ".pub": 5869,
      "extract": 5870,
      "ROM": 5871,
      "And": 5872,
      "app.config['": 5873,
      "manager.": 5874,
      ":%S": 5875,
      "Class": 5876,
      "stdin": 5877,
      "d_reads[x]": 5878,
      ")',": 5879,
      ".connection": 5880,
      "Emp": 5881,
      "FF": 5882,
      "[r": 5883,
      "_code": 5884,
      "cfg": 5885,
      "ian": 5886,
      "xy": 5887,
      "z]=": 5888,
      ");y.": 5889,
      "ityĠ": 5890,
      "){try:>": 5891,
      "._KEYS.": 5892,
      "',n": 5893,
      "tri": 5894,
      "=None:": 5895,
      ".sha": 5896,
      "ament": 5897,
      ":Ġ',": 5898,
      "\\n')": 5899,
      "startĠ": 5900,
      "_[-1": 5901,
      "map_": 5902,
      "best_": 5903,
      ".shape[0],": 5904,
      "iosample": 5905,
      "sort_": 5906,
      "directoryĠ": 5907,
      "Ġ'+str(": 5908,
      ".rend": 5909,
      "ĠmustĠbeĠaĠ": 5910,
      "DBS": 5911,
      "\\x00": 5912,
      "Storage": 5913,
      "attachment": 5914,
      "==None||": 5915,
      "Label": 5916,
      "bind('<": 5917,
      "\".format": 5918,
      "(s,": 5919,
      ".i": 5920,
      ".text": 5921,
      "17": 5922,
      "400": 5923,
      "Mar": 5924,
      "RI": 5925,
      "Tree": 5926,
      "Util": 5927,
      "[name": 5928,
      "a[": 5929,
      "cle_": 5930,
      "duplicate": 5931,
      "f('": 5932,
      "hum": 5933,
      "i+1": 5934,
      "py.": 5935,
      "itial": 5936,
      "cept": 5937,
      "chrom": 5938,
      "serie": 5939,
      "thonĠ": 5940,
      "notĠfound": 5941,
      "pow": 5942,
      "False}": 5943,
      "date,": 5944,
      "config.get('": 5945,
      "}}}": 5946,
      "isinstance(value,": 5947,
      "request,": 5948,
      "communic": 5949,
      "imple": 5950,
      "label('": 5951,
      "befor": 5952,
      "==0{": 5953,
      ".fetch": 5954,
      "//2": 5955,
      "(m,": 5956,
      "SELE": 5957,
      "expected": 5958,
      "COL": 5959,
      "raw_parser.": 5960,
      "orig_": 5961,
      "Ġ-Ġ": 5962,
      "os.path.exists(_": 5963,
      "organ": 5964,
      "handler(": 5965,
      "period": 5966,
      "predix.": 5967,
      "!:_=": 5968,
      "%i": 5969,
      "'*": 5970,
      "(item": 5971,
      ")-1": 5972,
      "35": 5973,
      "=a": 5974,
      "Act": 5975,
      "Url": 5976,
      "_model": 5977,
      "_Name": 5978,
      "cc": 5979,
      "cri": 5980,
      "j:": 5981,
      "k.get_": 5982,
      "k+='": 5983,
      "s3": 5984,
      "s';": 5985,
      "s{k=": 5986,
      "x/": 5987,
      "ify_": 5988,
      "determin": 5989,
      "){impĠ": 5990,
      "._data": 5991,
      "']+": 5992,
      ".sign": 5993,
      "abstract": 5994,
      "');i=": 5995,
      "setLevel": 5996,
      "x,kĠinĠ": 5997,
      "context_": 5998,
      "=True){_=": 5999,
      "duce": 6000,
      "compat": 6001,
      ".splitlines(": 6002,
      "_file(": 6003,
      "io.": 6004,
      "ioc_": 6005,
      "))}elifĠ": 6006,
      "Ident": 6007,
      "process(": 6008,
      "aster": 6009,
      "service,": 6010,
      "(msg": 6011,
      "constant": 6012,
      "Configuration": 6013,
      "normalize_": 6014,
      "LIST": 6015,
      "MODE": 6016,
      "Author": 6017,
      "fetch('/": 6018,
      "os.path.abspath(": 6019,
      "expanduser": 6020,
      "embed": 6021,
      "deepcopy(": 6022,
      "StopIteration": 6023,
      "!ĠelseĠ": 6024,
      "(y.": 6025,
      "1*": 6026,
      "27": 6027,
      "2];": 6028,
      "3*": 6029,
      "C,": 6030,
      "EW": 6031,
      "Mapping": 6032,
      "SH": 6033,
      "S['": 6034,
      "Sender": 6035,
      "c['": 6036,
      "i<": 6037,
      "mil": 6038,
      "pin": 6039,
      "war": 6040,
      "wĠinĠ": 6041,
      "yes": 6042,
      "report": 6043,
      "least": 6044,
      "dest_": 6045,
      "ity=": 6046,
      "ceil": 6047,
      "',lvl=": 6048,
      "name=None,": 6049,
      "=None;._": 6050,
      "ulation": 6051,
      "%s]": 6052,
      "olver": 6053,
      "model,": 6054,
      "[];x=": 6055,
      "=='':raiseĠ": 6056,
      "crement": 6057,
      "float(_": 6058,
      "tag=='": 6059,
      "strip();ifĠ": 6060,
      ".split(':": 6061,
      "Union": 6062,
      "title='": 6063,
      "converter": 6064,
      "Pool": 6065,
      "override": 6066,
      "log_level": 6067,
      "prefix,": 6068,
      "Ġ'%s'Ġ": 6069,
      "`'.format(value))}._": 6070,
      "virtual": 6071,
      "ê°ĢĠìŀħëł¥ëĲĺì§ĢĠìķĬìķĺìĬµëĭĪëĭ¤": 6072,
      "naQuantification": 6073,
      "%02": 6074,
      "(int(": 6075,
      "*2": 6076,
      "*args": 6077,
      "+k": 6078,
      "+z": 6079,
      ".org/": 6080,
      "49": 6081,
      "Ad": 6082,
      "EVER": 6083,
      "]ĠifĠ": 6084,
      "_IN": 6085,
      "c/": 6086,
      "github": 6087,
      "hidd": 6088,
      "marg": 6089,
      "nc": 6090,
      "ql_": 6091,
      "rgb": 6092,
      "wasĠ": 6093,
      "y}": 6094,
      "z,_,": 6095,
      "ereĠ": 6096,
      "peting": 6097,
      "assign": 6098,
      "name=='": 6099,
      "urface": 6100,
      ");>.synchronous_command('": 6101,
      "path,'": 6102,
      "append": 6103,
      "&&.": 6104,
      "date':'": 6105,
      "controll": 6106,
      ":Ġ%r": 6107,
      "_shape": 6108,
      "competing": 6109,
      "readGroup": 6110,
      ".wor": 6111,
      "(sy": 6112,
      "[:-1": 6113,
      "labels(": 6114,
      "{_='": 6115,
      "header['": 6116,
      "table_name": 6117,
      "(){x=": 6118,
      "File(": 6119,
      "static": 6120,
      "statistic": 6121,
      "Char": 6122,
      "init__": 6123,
      "primary_": 6124,
      "Any": 6125,
      "datatype": 6126,
      "[y]": 6127,
      "ABLE": 6128,
      "':{'date':'": 6129,
      "']'.ĠReceivedĠtype:Ġ'%s'\"%type": 6130,
      "size_": 6131,
      "semble": 6132,
      "dict();_['": 6133,
      "\\nĠĠĠĠĠĠĠĠĠĠĠĠĠĠĠĠĠĠĠĠ": 6134,
      "number_of_": 6135,
      "hydpy.": 6136,
      ")**2": 6137,
      "1);": 6138,
      "=\"": 6139,
      "Back": 6140,
      "bit_": 6141,
      "canĠ": 6142,
      "e),": 6143,
      "m['": 6144,
      "n'tĠ": 6145,
      "ts.": 6146,
      "v1": 6147,
      "y/": 6148,
      "revision": 6149,
      "annotation": 6150,
      "trie": 6151,
      ".spec": 6152,
      "clsĠ": 6153,
      "==.": 6154,
      "{},Ġ": 6155,
      "quad": 6156,
      "sĠareĠ": 6157,
      "os.list": 6158,
      ":Ġ%sĠ": 6159,
      "baseĠ": 6160,
      "||.": 6161,
      "}}else{": 6162,
      "finishe": 6163,
      "text/": 6164,
      "){k=._": 6165,
      "(_,k": 6166,
      "[:]=": 6167,
      "shutil.": 6168,
      "gene_": 6169,
      "label_": 6170,
      "_files(": 6171,
      "))}else:": 6172,
      "b.append(": 6173,
      "enums.": 6174,
      "...');": 6175,
      "currenc": 6176,
      ")}}else{": 6177,
      "sys.exit(": 6178,
      "struct.un": 6179,
      "used": 6180,
      "left(": 6181,
      "'{k=": 6182,
      ")){": 6183,
      ")&&notĠ": 6184,
      "-Ġ": 6185,
      "0;_=": 6186,
      "Custom": 6187,
      "Open": 6188,
      "VE": 6189,
      "button": 6190,
      "nm": 6191,
      "ual_": 6192,
      "vstack": 6193,
      "Ġversion": 6194,
      "s.add(": 6195,
      "ram": 6196,
      "mod_": 6197,
      "(k,_)": 6198,
      "{},": 6199,
      "instance['id": 6200,
      "_name='": 6201,
      "edit": 6202,
      "book": 6203,
      "=10": 6204,
      "isĠnotĠ": 6205,
      "header(": 6206,
      "float64": 6207,
      "floatĠforĠfieldĠ`": 6208,
      "[i])": 6209,
      "strip());": 6210,
      "=_)": 6211,
      "service_": 6212,
      "s[i]": 6213,
      "convert": 6214,
      "convert(": 6215,
      "AttributeError:pass": 6216,
      "Does": 6217,
      "HTML": 6218,
      "flags=": 6219,
      "register_": 6220,
      "DOM": 6221,
      "quote(": 6222,
      "given_": 6223,
      "sdp.": 6224,
      "MissingĠ": 6225,
      "Content-Type": 6226,
      "lat,lon": 6227,
      "delimiter": 6228,
      "cript": 6229,
      "EVEREST": 6230,
      "(1,": 6231,
      ")>0": 6232,
      ".make_": 6233,
      "0),": 6234,
      ">.": 6235,
      "Email": 6236,
      "J_": 6237,
      "LEN": 6238,
      "SP": 6239,
      "WH": 6240,
      "_time": 6241,
      "cd": 6242,
      "gy": 6243,
      "kĠnotĠinĠ": 6244,
      "k[x": 6245,
      "slug": 6246,
      "x);ifĠ": 6247,
      "ĠB": 6248,
      "Ġ'.join": 6249,
      "raf": 6250,
      "));raiseĠ": 6251,
      "ilar": 6252,
      "True,": 6253,
      "neg": 6254,
      "date.": 6255,
      "\\n'.join(": 6256,
      "=100": 6257,
      "validate(": 6258,
      ";forĠyĠinĠ": 6259,
      "tokenize": 6260,
      "map((\\": 6261,
      "assert_": 6262,
      "disk": 6263,
      "k:k.": 6264,
      "job.add": 6265,
      "estimat": 6266,
      "created": 6267,
      "}}>_": 6268,
      "Column": 6269,
      "handler.": 6270,
      "TYPES": 6271,
      "os.environ['": 6272,
      "cv2.": 6273,
      "Parser(": 6274,
      "calibration": 6275,
      "internal": 6276,
      "anchor": 6277,
      "UCCESS": 6278,
      "(obj,": 6279,
      "(list,tuple": 6280,
      "))}>": 6281,
      "));ifĠnotĠ": 6282,
      "-name": 6283,
      "Ab": 6284,
      "C','": 6285,
      "Save": 6286,
      "[{'": 6287,
      "a['": 6288,
      "bg_": 6289,
      "s=None){ifĠ": 6290,
      "y+=": 6291,
      "encry": 6292,
      "rege": 6293,
      "];a=": 6294,
      "stringĠ": 6295,
      ",'-": 6296,
      "();elifĠ": 6297,
      "False;ifĠ": 6298,
      "list):": 6299,
      "x,_=": 6300,
      "{ifĠ.": 6301,
      "sĠelseĠ": 6302,
      "fin:": 6303,
      "dir=": 6304,
      "try:x=": 6305,
      "+1:": 6306,
      ");forĠzĠinĠ": 6307,
      ".read(": 6308,
      "[];forĠyĠinĠ": 6309,
      "difference": 6310,
      "Chn": 6311,
      "SECON": 6312,
      "md5": 6313,
      "err_": 6314,
      "\\t\\t": 6315,
      "flux_": 6316,
      "gitude": 6317,
      "processor": 6318,
      "2_3_": 6319,
      "Template": 6320,
      "DELETE": 6321,
      "','.join(": 6322,
      "']={'bib": 6323,
      ".refresh": 6324,
      "ployment": 6325,
      "character": 6326,
      "=='':raiseĠPopbillException(-99999999,'": 6327,
      "%.": 6328,
      "*','": 6329,
      ".key": 6330,
      ".endswith('": 6331,
      ":'": 6332,
      "GR": 6333,
      "Tax": 6334,
      "_);>": 6335,
      "bad": 6336,
      "ek(": 6337,
      "i]": 6338,
      "mtime": 6339,
      "ord(": 6340,
      "real": 6341,
      "coder": 6342,
      "['-": 6343,
      "'];>": 6344,
      "'],.": 6345,
      "str(k": 6346,
      "':0,'": 6347,
      ".socket": 6348,
      "True}": 6349,
      "extent": 6350,
      "sĠmustĠbeĠ": 6351,
      "buf": 6352,
      "prev": 6353,
      "add_parser": 6354,
      "version_info": 6355,
      ");forĠi,": 6356,
      "ATOR": 6357,
      "label,": 6358,
      "(year": 6359,
      "'];x=": 6360,
      "getattr(.": 6361,
      "char_": 6362,
      "description=": 6363,
      "letter": 6364,
      "libr": 6365,
      "Annotation": 6366,
      "non-": 6367,
      "text_type": 6368,
      "provider": 6369,
      "MAX_": 6370,
      "ctx.obj['": 6371,
      "observation": 6372,
      "preserve_case": 6373,
      "%Y-%m-%d": 6374,
      "(){ifĠnotĠ": 6375,
      ".type": 6376,
      ".lower()": 6377,
      "1=": 6378,
      ">',": 6379,
      "DC": 6380,
      "TX": 6381,
      "]));": 6382,
      "_with_": 6383,
      "cas": 6384,
      "folder_": 6385,
      "hf": 6386,
      "hdu": 6387,
      "ii": 6388,
      "k:raiseĠ": 6389,
      "render": 6390,
      "uct": 6391,
      "vingĠ": 6392,
      "{_": 6393,
      "{_.": 6394,
      ");whileĠ": 6395,
      "ative_": 6396,
      "oriz": 6397,
      "ift_": 6398,
      "){print('": 6399,
      "._set_": 6400,
      "exper": 6401,
      "forĠkĠinĠ": 6402,
      "confir": 6403,
      "try_": 6404,
      "dist_": 6405,
      ".sock": 6406,
      "sertion": 6407,
      "(_);ifĠ": 6408,
      "(_)}": 6409,
      "),int(": 6410,
      "log(": 6411,
      ";ifĠ._": 6412,
      "cls=": 6413,
      "]=np.": 6414,
      "&&len(": 6415,
      "amb": 6416,
      "[0]*": 6417,
      "sĠare": 6418,
      ":Ġ{0}": 6419,
      ":Ġ{0}'.format(": 6420,
      "pac": 6421,
      "Indi": 6422,
      "_[-1]": 6423,
      "array.": 6424,
      "array,": 6425,
      "group_id": 6426,
      "field,": 6427,
      "_file,": 6428,
      "table(": 6429,
      "input['": 6430,
      "port,": 6431,
      "codon": 6432,
      "'};": 6433,
      "FIX": 6434,
      "port(": 6435,
      "',None);": 6436,
      "Doc": 6437,
      "supported": 6438,
      "cwl": 6439,
      "sbjct_": 6440,
      "Network": 6441,
      "migration": 6442,
      "ensitive": 6443,
      "Print": 6444,
      ",scope,ctxt,stream": 6445,
      "SELECT": 6446,
      ",d": 6447,
      ".C": 6448,
      ".url": 6449,
      "85": 6450,
      "=len(": 6451,
      "=bool": 6452,
      "DE_": 6453,
      "FĠ": 6454,
      "TOR": 6455,
      "VL": 6456,
      "XML": 6457,
      "[]}": 6458,
      "_')": 6459,
      "clou": 6460,
      "ef": 6461,
      "j=.": 6462,
      "mc": 6463,
      "sender": 6464,
      "xdo": 6465,
      "y=None,": 6466,
      "y[0]": 6467,
      "Ġ=": 6468,
      "Ġd": 6469,
      "inv": 6470,
      "rem_": 6471,
      "){_": 6472,
      "',_)": 6473,
      "None)": 6474,
      "ural": 6475,
      "top_": 6476,
      "data[": 6477,
      "value_": 6478,
      "absol": 6479,
      "s=s.": 6480,
      "pointer": 6481,
      "();else:": 6482,
      "args[0]": 6483,
      "x,yĠinĠ": 6484,
      ")),'": 6485,
      "_ĠinĠ.": 6486,
      "updated": 6487,
      "params.": 6488,
      "[_]['": 6489,
      "ĠisĠFalse": 6490,
      "impor": 6491,
      "group('": 6492,
      "range(1,": 6493,
      "]);x=": 6494,
      "items():": 6495,
      "beam": 6496,
      "(fn": 6497,
      "clear_": 6498,
      "(value=None){ifĠvalue!{try:value=": 6499,
      "NotExist": 6500,
      ")),int(": 6501,
      "str,)),\"ArgumentĠ'": 6502,
      ".cursor": 6503,
      "empty_": 6504,
      "original": 6505,
      "attrib['": 6506,
      "raise_for_": 6507,
      "CorpNum,UserID": 6508,
      "Position": 6509,
      "job.fileStore": 6510,
      "%H:%M:%S": 6511,
      "hydpy.pub": 6512,
      "'):raiseĠ": 6513,
      "'){x=": 6514,
      "(img": 6515,
      ".list_": 6516,
      "0-9": 6517,
      "Glob": 6518,
      "If": 6519,
      "Mask": 6520,
      "b='": 6521,
      "f.write": 6522,
      "iment": 6523,
      "k:>": 6524,
      "vhost": 6525,
      "wsg": 6526,
      "ĠM": 6527,
      "Ġ')": 6528,
      "ĠonĠ": 6529,
      ");x": 6530,
      "strap": 6531,
      "alg.": 6532,
      "',{}": 6533,
      "ingĠforĠ": 6534,
      "uri,": 6535,
      "];i=": 6536,
      "(_,.": 6537,
      "pars.": 6538,
      "');elifĠ": 6539,
      "clone": 6540,
      "cls_": 6541,
      "doi": 6542,
      "setdefault(": 6543,
      "'.format(k": 6544,
      "Regist": 6545,
      "_system": 6546,
      "_[j]": 6547,
      "cess(": 6548,
      "');ifĠ_": 6549,
      "password(": 6550,
      "callback=": 6551,
      "color='": 6552,
      "continu": 6553,
      "continue}ifĠ": 6554,
      ";else:k=": 6555,
      "stats(": 6556,
      "(1.0": 6557,
      "vironment": 6558,
      "Environment": 6559,
      "directory_": 6560,
      "'),('": 6561,
      "k.append(_": 6562,
      "datap": 6563,
      "great": 6564,
      "reversed(": 6565,
      "hide": 6566,
      "_suffix": 6567,
      "'}};_['": 6568,
      "traceback.format_": 6569,
      "Manager": 6570,
      "Target": 6571,
      "DoesNotExist": 6572,
      "(app": 6573,
      ".header": 6574,
      ".check": 6575,
      ":z=": 6576,
      ":bool": 6577,
      "LU": 6578,
      "Pol": 6579,
      "Zone": 6580,
      "[i,": 6581,
      "ds_": 6582,
      "go_": 6583,
      "hfo": 6584,
      "rent": 6585,
      "s*": 6586,
      "s){x=": 6587,
      "ĠT": 6588,
      "ctx,": 6589,
      "']);ifĠ'": 6590,
      "tries": 6591,
      "':k,'": 6592,
      ".sol": 6593,
      "):_.append(": 6594,
      "log.warning('": 6595,
      "()->": 6596,
      "ĠforĠiĠinĠrange(": 6597,
      "nedĠ": 6598,
      "quenc": 6599,
      "';assertĠ": 6600,
      "endswith": 6601,
      "fin{ifĠ": 6602,
      ".select": 6603,
      "commandĠ": 6604,
      "es=None,": 6605,
      ";forĠiĠinĠ": 6606,
      "latitude": 6607,
      "func,": 6608,
      "core": 6609,
      "cord(": 6610,
      "leaf": 6611,
      ";elifĠisinstance(": 6612,
      "struct_": 6613,
      "phy": 6614,
      "UNI": 6615,
      "window_": 6616,
      "\\\\s*": 6617,
      "StringIO": 6618,
      "verify_": 6619,
      "private": 6620,
      "utcnow": 6621,
      "Dword();_.": 6622,
      "parallel": 6623,
      "!{_=": 6624,
      "));>_": 6625,
      "IB": 6626,
      "OUT": 6627,
      "Pe": 6628,
      "Pub": 6629,
      "V_": 6630,
      "a(": 6631,
      "gent": 6632,
      "gpu": 6633,
      "icon": 6634,
      "s'.format(": 6635,
      "uffix": 6636,
      "x))": 6637,
      "z*": 6638,
      "alig": 6639,
      "_.extend(": 6640,
      "main_": 6641,
      "s__": 6642,
      "format(": 6643,
      "list(.": 6644,
      "ssl": 6645,
      "dela": 6646,
      "004": 6647,
      "finite": 6648,
      ");_=np.": 6649,
      ".wrap": 6650,
      "Contain": 6651,
      "+'\"": 6652,
      "color,": 6653,
      "(k,x)": 6654,
      "sys.exc_info": 6655,
      "meta_": 6656,
      "erĠthanĠ": 6657,
      "addresse": 6658,
      "property": 6659,
      "Runn": 6660,
      "run_num": 6661,
      "required_": 6662,
      "client_secret": 6663,
      "ABLE_": 6664,
      "resolution": 6665,
      "configure(": 6666,
      "sampl": 6667,
      "pds.": 6668,
      "ĠbutĠ": 6669,
      "')}>": 6670,
      "))}ifĠ": 6671,
      "22": 6672,
      "37": 6673,
      "=(": 6674,
      "=y,": 6675,
      "A=": 6676,
      "A_": 6677,
      "AST": 6678,
      "B,": 6679,
      "KEN": 6680,
      "Ori": 6681,
      "PRE": 6682,
      "Qt": 6683,
      "Rel": 6684,
      "Wa": 6685,
      "[],": 6686,
      "]==": 6687,
      "cro": 6688,
      "fm": 6689,
      "gion": 6690,
      "j{": 6691,
      "kg": 6692,
      "kĠifĠ": 6693,
      "s+": 6694,
      "s));": 6695,
      "uv": 6696,
      "});": 6697,
      "Ġkey": 6698,
      "ĠatĠ": 6699,
      "less": 6700,
      "){b=": 6701,
      "Ġinte": 6702,
      "ĠinĠ._": 6703,
      "enter": 6704,
      ");ifĠlen(_)": 6705,
      "_.startswith('": 6706,
      "tier": 6707,
      "(k);>": 6708,
      "context(": 6709,
      "_sing": 6710,
      "compute": 6711,
      "Const": 6712,
      "+1;": 6713,
      "curve": 6714,
      "KeyError:": 6715,
      "1024": 6716,
      ".shape[0];": 6717,
      "Uni": 6718,
      "+=1;ifĠ": 6719,
      "mode=='": 6720,
      "command,": 6721,
      "title,": 6722,
      "install_": 6723,
      "{};forĠkĠinĠ": 6724,
      ");>._section": 6725,
      "matrix(": 6726,
      "projection": 6727,
      "Head": 6728,
      "enumerate(.": 6729,
      "cwd(": 6730,
      "decimal": 6731,
      "vertices": 6732,
      "================": 6733,
      "re.match('": 6734,
      "modified": 6735,
      "LOGGER.debug('": 6736,
      "ociation": 6737,
      "Document": 6738,
      "+)": 6739,
      "-k": 6740,
      "34": 6741,
      ";c=": 6742,
      "=-1": 6743,
      "CE": 6744,
      "DN": 6745,
      "Hy": 6746,
      "Popen(": 6747,
      "Raw": 6748,
      "URE": 6749,
      "UsingĠ": 6750,
      "br": 6751,
      "hal": 6752,
      "rup": 6753,
      "s'):": 6754,
      "{j=": 6755,
      "Ġfound": 6756,
      "atche": 6757,
      "ensor": 6758,
      "enotype": 6759,
      "ste": 6760,
      "sedĠ": 6761,
      "deg": 6762,
      "forme": 6763,
      "elist": 6764,
      "._is_": 6765,
      "',True": 6766,
      "exit_": 6767,
      "s())": 6768,
      "consum": 6769,
      "contour": 6770,
      "unpack": 6771,
      "str(_": 6772,
      "to_s": 6773,
      "[0-9": 6774,
      "time.": 6775,
      "k.append('": 6776,
      "instance,": 6777,
      "velo": 6778,
      ".real": 6779,
      "'%_": 6780,
      "len(z": 6781,
      "question": 6782,
      "config,": 6783,
      ";>_.": 6784,
      "cao": 6785,
      "){k=.": 6786,
      "objects.get(": 6787,
      "[];forĠiĠinĠ": 6788,
      "way": 6789,
      "base.": 6790,
      "actual": 6791,
      ".split('.')": 6792,
      "break}}ifĠ": 6793,
      "Mode": 6794,
      "_depth": 6795,
      "';ifĠnotĠ": 6796,
      "];>_": 6797,
      "errno": 6798,
      "datetime.strptime": 6799,
      "_SUCCESS": 6800,
      ".close()": 6801,
      "utils.get_": 6802,
      "voice": 6803,
      "DATE": 6804,
      "'\".format": 6805,
      "TOKEN": 6806,
      "POST','": 6807,
      "resolve_": 6808,
      "Interval": 6809,
      ".register": 6810,
      "',Ġ'.join(": 6811,
      "similar": 6812,
      "Assertion": 6813,
      "::2,1": 6814,
      "child_": 6815,
      "course": 6816,
      "double": 6817,
      "np.linspace": 6818,
      ".work": 6819,
      "-a": 6820,
      "Wh": 6821,
      "[j]": 6822,
      "_for_": 6823,
      "gn": 6824,
      "py_": 6825,
      ");n=": 6826,
      "secur": 6827,
      "rever": 6828,
      "',y": 6829,
      "s.cublas": 6830,
      "['name']": 6831,
      "isĠin": 6832,
      "name(": 6833,
      "dian": 6834,
      "setdefault('": 6835,
      "']=id_": 6836,
      "configobj['": 6837,
      "}}else:": 6838,
      "Inte": 6839,
      "[];y=": 6840,
      "final": 6841,
      "os.path.expanduser": 6842,
      "las.cublas": 6843,
      "floor": 6844,
      "+1)*": 6845,
      "country": 6846,
      "]);else:": 6847,
      "week": 6848,
      "width,": 6849,
      "encode(": 6850,
      "imgur": 6851,
      "Struct": 6852,
      "cls.__": 6853,
      "Ġ%dĠ": 6854,
      "0;whileĠ": 6855,
      "[.analysistype].": 6856,
      "cublas.cublas": 6857,
      ":_.append('": 6858,
      "':_,'": 6859,
      "disabled": 6860,
      "reshape((": 6861,
      "opts['": 6862,
      "CheckStatu": 6863,
      "lower();ifĠ": 6864,
      "Update": 6865,
      "',Ġ'.join": 6866,
      "OPTION": 6867,
      "::2,0": 6868,
      "'ĠinĠkwargs:": 6869,
      "ipv6": 6870,
      "bootstrap": 6871,
      "uniform": 6872,
      ")){ifĠ": 6873,
      ".queue": 6874,
      ";m=": 6875,
      "AUT": 6876,
      "Gtk.": 6877,
      "MB": 6878,
      "S,": 6879,
      "Spec": 6880,
      "Vol": 6881,
      "Vect": 6882,
      "clo": 6883,
      "is.": 6884,
      "i,_ĠinĠ": 6885,
      "menu": 6886,
      "ow": 6887,
      "pur": 6888,
      "ss(": 6889,
      "ush": 6890,
      "vas": 6891,
      "x.get('": 6892,
      "¬ë": 6893,
      ");m=": 6894,
      "altern": 6895,
      "mean_": 6896,
      "){try:_=": 6897,
      "._check_": 6898,
      "valu": 6899,
      "d_at": 6900,
      "data':": 6901,
      "):x=": 6902,
      "poch": 6903,
      "sical": 6904,
      "plt": 6905,
      "k.startswith('": 6906,
      "{};_=": 6907,
      "list=": 6908,
      "]=x": 6909,
      ".reference": 6910,
      "}}elifĠ": 6911,
      "precate": 6912,
      "finish": 6913,
      "ĠnotĠinĠ.": 6914,
      "(y)": 6915,
      "Select": 6916,
      "build(": 6917,
      "grid_": 6918,
      "parse_args(": 6919,
      "facet": 6920,
      "description='": 6921,
      "re.findall": 6922,
      "close();": 6923,
      "Dict[str,": 6924,
      "single": 6925,
      "event_number": 6926,
      "allowed": 6927,
      "ĠinĠinstance": 6928,
      "sampler": 6929,
      "idfobject": 6930,
      "startswith(": 6931,
      "gaussi": 6932,
      "round_temperature": 6933,
      "Authentication": 6934,
      "scrip": 6935,
      "\")": 6936,
      "();>_": 6937,
      ")&": 6938,
      "0.": 6939,
      ":{": 6940,
      ":_+=": 6941,
      ":raise": 6942,
      "Clas": 6943,
      "HDU": 6944,
      "Must": 6945,
      "NC.": 6946,
      "Pix": 6947,
      "SET": 6948,
      "[x.": 6949,
      "air": 6950,
      "cb": 6951,
      "car": 6952,
      "png": 6953,
      "s);_=": 6954,
      "z+": 6955,
      "Ġ|": 6956,
      "Ġrequest": 6957,
      "descriptor": 6958,
      "colo": 6959,
      ")}._": 6960,
      "notification": 6961,
      "toy": 6962,
      "serve": 6963,
      "moment": 6964,
      "max=": 6965,
      "):pass": 6966,
      "code_": 6967,
      "y,x=": 6968,
      "icro": 6969,
      "k,x": 6970,
      "vars(": 6971,
      "indexes": 6972,
      "version=": 6973,
      "Count": 6974,
      "query.": 6975,
      "iteration": 6976,
      "strip().": 6977,
      "existing": 6978,
      "locale": 6979,
      "']='TheĠ": 6980,
      "lower().": 6981,
      "FIL": 6982,
      "use_cache": 6983,
      "enable_": 6984,
      "display_item": 6985,
      "APP": 6986,
      "sync": 6987,
      "etree.SubElement": 6988,
      "internal_": 6989,
      "moreĠ": 6990,
      "VMGuestLib": 6991,
      "trunc": 6992,
      "Host": 6993,
      "decorator": 6994,
      "fallback": 6995,
      "log.warn('": 6996,
      "fetch('/service": 6997,
      "Register": 6998,
      "!=.": 6999,
      "'}ifĠ": 7000,
      "(row": 7001,
      "2/": 7002,
      "44": 7003,
      "5*": 7004,
      "CRE": 7005,
      "PC": 7006,
      "WIL": 7007,
      "but": 7008,
      "dar": 7009,
      "just": 7010,
      "nick": 7011,
      "switch": 7012,
      "z,'": 7013,
      "Ġlist": 7014,
      "infile": 7015,
      "_='": 7016,
      "assemb": 7017,
      "consu": 7018,
      "max,": 7019,
      "log.error('": 7020,
      "s=[];": 7021,
      "amma": 7022,
      ":>;": 7023,
      "cade": 7024,
      "cach": 7025,
      "ERE": 7026,
      "what": 7027,
      "[:,:": 7028,
      "\\\\S": 7029,
      "+'\\n": 7030,
      "tokens.": 7031,
      "query=": 7032,
      "message_": 7033,
      "strip_": 7034,
      "items()ĠifĠ": 7035,
      "=_functools.partial": 7036,
      "optim": 7037,
      "tity": 7038,
      "content,": 7039,
      "response(": 7040,
      "differ": 7041,
      ")}else:raiseĠ": 7042,
      "identifi": 7043,
      "resolve": 7044,
      "s[k]": 7045,
      "failure": 7046,
      "global_register_": 7047,
      "smooth": 7048,
      "._meta.": 7049,
      "alreadyĠexist": 7050,
      "multipli": 7051,
      "priority": 7052,
      "os.getcwd(": 7053,
      ".wait_": 7054,
      "argparse.Argument": 7055,
      "geometry": 7056,
      "(3,": 7057,
      "(%s)": 7058,
      ")==0": 7059,
      "-i": 7060,
      ".item": 7061,
      ".parse": 7062,
      ".items(){ifĠ": 7063,
      "Gen": 7064,
      "WN": 7065,
      "[int(": 7066,
      "ache_": 7067,
      "c:": 7068,
      "d','": 7069,
      "pli": 7070,
      "tpl": 7071,
      "w3": 7072,
      "loade": 7073,
      "ated_": 7074,
      "like": 7075,
      "k=.": 7076,
      "':j": 7077,
      "=None)->": 7078,
      ");>y": 7079,
      "mod(": 7080,
      "mouse_": 7081,
      "Error:>": 7082,
      "');j=": 7083,
      "np.random.": 7084,
      "()+": 7085,
      "figure": 7086,
      "\\n','": 7087,
      "Inst": 7088,
      "dict,": 7089,
      "dict();forĠ": 7090,
      "user,.": 7091,
      "refer": 7092,
      "_type='": 7093,
      "options=": 7094,
      "set_id": 7095,
      "binary": 7096,
      "continue;": 7097,
      "using": 7098,
      "stats.": 7099,
      "end_time": 7100,
      "Notification": 7101,
      "LOW": 7102,
      "'));_.append(('": 7103,
      "raw(": 7104,
      "%d'%": 7105,
      ".gz": 7106,
      "encode_": 7107,
      "specified": 7108,
      "select_": 7109,
      "');_.add_argument('--": 7110,
      "closed": 7111,
      "ING_": 7112,
      "where": 7113,
      "proxy_": 7114,
      "math.s": 7115,
      ".clean": 7116,
      "Interface": 7117,
      "insert(0,": 7118,
      "template(": 7119,
      ":str)->": 7120,
      "dtype=np.float32": 7121,
      "CreatingĠ": 7122,
      "Link": 7123,
      "calculate_": 7124,
      ".split('/')": 7125,
      "glob.": 7126,
      "'ĠelseĠ": 7127,
      ".node": 7128,
      ".handle_": 7129,
      ".start(": 7130,
      ".query(": 7131,
      "Range": 7132,
      "_))": 7133,
      "_URL": 7134,
      "a+": 7135,
      "b:": 7136,
      "fla": 7137,
      "my": 7138,
      "mit": 7139,
      "ru": 7140,
      "s];": 7141,
      "s);k=": 7142,
      "safe_": 7143,
      "z{ifĠ": 7144,
      "Ġparameter": 7145,
      ");.__": 7146,
      "onent_": 7147,
      "){c=": 7148,
      "('%s": 7149,
      "loc=": 7150,
      "._create_": 7151,
      "name']=": 7152,
      "trig": 7153,
      "tip_": 7154,
      "dĠbyĠ": 7155,
      "np.pi": 7156,
      "np.asarray(": 7157,
      "ted.": 7158,
      "ĠforĠ_,kĠinĠ": 7159,
      "obj_": 7160,
      "exc:pass": 7161,
      "-1],": 7162,
      "ĠasĠk;": 7163,
      "info_": 7164,
      "laz": 7165,
      "nodes.": 7166,
      "header.": 7167,
      "arrayĠ": 7168,
      "sub_": 7169,
      "INT": 7170,
      "INTER": 7171,
      "match_": 7172,
      "state='": 7173,
      "ization_": 7174,
      ";else:raiseĠ": 7175,
      "!:_['": 7176,
      "longitude": 7177,
      "Thread": 7178,
      "_frame": 7179,
      "mote": 7180,
      "phase": 7181,
      "link_": 7182,
      "decode_": 7183,
      "histogram": 7184,
      "logging.DEBUG": 7185,
      "(text,": 7186,
      "02d}": 7187,
      "progressb": 7188,
      "')ĠasĠf:": 7189,
      "uint8": 7190,
      "placeholder": 7191,
      "equipament": 7192,
      "pipeline": 7193,
      "Protocol": 7194,
      "Global": 7195,
      ".parse_": 7196,
      ".execute_": 7197,
      "4*": 7198,
      "GEX": 7199,
      "Hist": 7200,
      "One": 7201,
      "]{ifĠ": 7202,
      "_and_": 7203,
      "a{": 7204,
      "bi": 7205,
      "hot": 7206,
      "k,_,": 7207,
      "non_": 7208,
      "uccess": 7209,
      "ĠyouĠ": 7210,
      "in(": 7211,
      ");m": 7212,
      "remo": 7213,
      "redirect_": 7214,
      "let_": 7215,
      "']));": 7216,
      "'].append(": 7217,
      ");>False": 7218,
      "type==": 7219,
      "s_run": 7220,
      "(k))": 7221,
      "calar": 7222,
      "getĠ": 7223,
      ":Ġ{}": 7224,
      "urllib.": 7225,
      "Expr": 7226,
      "_sup": 7227,
      "hoo": 7228,
      "when": 7229,
      "param_": 7230,
      "ref_": 7231,
      "Types.": 7232,
      "genus": 7233,
      "}ifĠ'": 7234,
      "i.append(": 7235,
      "_file__": 7236,
      "Dec": 7237,
      "list(set(": 7238,
      "{forĠyĠinĠ": 7239,
      ")}}else:": 7240,
      "Chil": 7241,
      "aveĠ": 7242,
      "FIG": 7243,
      "hasattr(_,'": 7244,
      "aryFunc": 7245,
      "skip_": 7246,
      "include_": 7247,
      "os.environ.get('": 7248,
      "forecast": 7249,
      "amount": 7250,
      "normalized_": 7251,
      "re.compile('": 7252,
      "randint(": 7253,
      "clusive": 7254,
      "Origin": 7255,
      "colour": 7256,
      "progressbar": 7257,
      "aryFuncChn": 7258,
      "(id_": 7259,
      "(path,": 7260,
      "+alpha": 7261,
      ".process_": 7262,
      "/%d/": 7263,
      "010": 7264,
      "2,'": 7265,
      ";k['": 7266,
      "Fi": 7267,
      "Syn": 7268,
      "Test": 7269,
      "Wrong": 7270,
      "[^": 7271,
      "a=.": 7272,
      "c='": 7273,
      "dash": 7274,
      "gue": 7275,
      "n*": 7276,
      "sing_": 7277,
      "v2(": 7278,
      "x=None": 7279,
      "xĠnotĠinĠ": 7280,
      "}Ġ{": 7281,
      "²Ī": 7282,
      "endian": 7283,
      "seen": 7284,
      "alth": 7285,
      "aryĠ": 7286,
      "el_": 7287,
      "._f": 7288,
      "example": 7289,
      "']*": 7290,
      "'].value": 7291,
      "idf.": 7292,
      "conn,": 7293,
      "note": 7294,
      "tolist": 7295,
      "(__file__": 7296,
      "s,**": 7297,
      "();try{": 7298,
      "proble": 7299,
      ":Ġ'+str(": 7300,
      "Ref": 7301,
      "']=_": 7302,
      ");_=_.": 7303,
      "db.": 7304,
      "ĠisĠ'": 7305,
      "objectmodel": 7306,
      "INDE": 7307,
      "shift": 7308,
      "ONE": 7309,
      "word,": 7310,
      "under": 7311,
      "opt_": 7312,
      "before": 7313,
      ")}ifĠ'": 7314,
      "=None){x=": 7315,
      "column_": 7316,
      "daemon": 7317,
      ");else:raiseĠ": 7318,
      "port=": 7319,
      "chart": 7320,
      "letion": 7321,
      "uuid,": 7322,
      "start_date": 7323,
      "sum(": 7324,
      "Auto": 7325,
      "attribute_": 7326,
      "DateTime": 7327,
      "polygon": 7328,
      "VALID": 7329,
      "np.where": 7330,
      "re.search('": 7331,
      "coerce": 7332,
      "START": 7333,
      "íĺ¸": 7334,
      "SECOND": 7335,
      "Vector": 7336,
      "²Īíĺ¸": 7337,
      ")=._": 7338,
      "+2": 7339,
      "-m": 7340,
      ".join": 7341,
      ".');_=": 7342,
      "2=": 7343,
      ">{}": 7344,
      "OM": 7345,
      "Plu": 7346,
      "Simple": 7347,
      "WF": 7348,
      "With": 7349,
      "Wrap": 7350,
      "WORD": 7351,
      "[]);": 7352,
      "a/": 7353,
      "az": 7354,
      "dm": 7355,
      "f.write('": 7356,
      "rn": 7357,
      "sa.": 7358,
      "tl": 7359,
      "x));": 7360,
      "z.get('": 7361,
      "{_:": 7362,
      "}raiseĠ": 7363,
      "ĠID": 7364,
      ");r=": 7365,
      "){withĠopen(": 7366,
      "._db": 7367,
      "s.value": 7368,
      "exact": 7369,
      "s():": 7370,
      "id,'": 7371,
      "name;": 7372,
      "until": 7373,
      ".size_": 7374,
      "thon_": 7375,
      "type']=='": 7376,
      "power": 7377,
      "np.cos(": 7378,
      "formatter": 7379,
      "ation(": 7380,
      "proc": 7381,
      "')!=-1": 7382,
      "&&_.": 7383,
      "sĠ(": 7384,
      "_name__": 7385,
      "'.format('": 7386,
      "len(c": 7387,
      "';z='": 7388,
      "url(": 7389,
      "pawn": 7390,
      "code,": 7391,
      "board": 7392,
      "varPar": 7393,
      "_,x=": 7394,
      ";forĠiĠinĠrange(": 7395,
      ";_=.": 7396,
      "[i][": 7397,
      "xĠinĠenumerate(": 7398,
      "Type,": 7399,
      "short": 7400,
      "ATTR": 7401,
      ".0;": 7402,
      "ied_": 7403,
      "set_x": 7404,
      "methodĠ": 7405,
      "Decode": 7406,
      ".shape,": 7407,
      "interp": 7408,
      "wave": 7409,
      "statement": 7410,
      "packet": 7411,
      "memory": 7412,
      "other,": 7413,
      "write('": 7414,
      ".pri": 7415,
      "')}elifĠ": 7416,
      "aryPrf": 7417,
      "ency_": 7418,
      "value=readDataInstance.read": 7419,
      "display": 7420,
      "certain": 7421,
      "replace_": 7422,
      "sep='": 7423,
      "----------------": 7424,
      "JSONError(\"": 7425,
      "cublasCheckStatu": 7426,
      "light": 7427,
      "Accept": 7428,
      "since": 7429,
      "_ground_temperature": 7430,
      "source.err_": 7431,
      "pattern_": 7432,
      "average_ground_temperature": 7433,
      "_libcublas.cublas": 7434,
      "Ġinterest": 7435,
      "Identifier": 7436,
      "fetch('/service/%s/": 7437,
      "(image": 7438,
      "-y": 7439,
      ".,": 7440,
      ".config": 7441,
      ".vis": 7442,
      "/(": 7443,
      "8,": 7444,
      "Ass": 7445,
      "NP": 7446,
      "Port": 7447,
      "SAT": 7448,
      "cmap": 7449,
      "hard": 7450,
      "onent.": 7451,
      "rec": 7452,
      "detect": 7453,
      "){try{_=": 7454,
      "ĠintoĠ": 7455,
      "lopen": 7456,
      "s.index": 7457,
      "s.pop": 7458,
      "exce": 7459,
      "route": 7460,
      "utdown": 7461,
      "rain": 7462,
      "chr": 7463,
      "name}": 7464,
      "und(": 7465,
      ");ifĠk.": 7466,
      "urlopen": 7467,
      ")}y=": 7468,
      ")}}>_": 7469,
      "tile": 7470,
      ");>[": 7471,
      ");>k.": 7472,
      "values,": 7473,
      "s=k": 7474,
      "(k);ifĠ": 7475,
      "(.)": 7476,
      "ĠforĠvĠinĠ": 7477,
      "ip,": 7478,
      "how_": 7479,
      ".__get_": 7480,
      "string=": 7481,
      ",.user,.": 7482,
      "try:y=": 7483,
      "');ifĠ'": 7484,
      "sys": 7485,
      "symbol": 7486,
      "has_key": 7487,
      "str(value": 7488,
      "%s'%(.": 7489,
      "ĠforĠ_ĠinĠk": 7490,
      "KeyError('": 7491,
      "_repo": 7492,
      "data_set": 7493,
      "(y);": 7494,
      "(frame": 7495,
      "match.": 7496,
      "Ġ'*": 7497,
      "exception('": 7498,
      "continue}elifĠ": 7499,
      "anten": 7500,
      "verbose:print('": 7501,
      "alĠargument": 7502,
      "first(": 7503,
      "testing": 7504,
      "USER": 7505,
      "',default=": 7506,
      "CPEComponent.": 7507,
      "render(": 7508,
      "sudo('": 7509,
      "'ĠmustĠbeĠofĠtypeĠ'['str']'.ĠReceivedĠtype:Ġ'%s'\"%type(": 7510,
      "setLevel(": 7511,
      "experiment": 7512,
      "!:.": 7513,
      "(arg": 7514,
      ".pre": 7515,
      ".com/": 7516,
      "3}": 7517,
      "AA": 7518,
      "PL": 7519,
      "b['": 7520,
      "eitherĠ": 7521,
      "k.get": 7522,
      "k;>": 7523,
      "venv": 7524,
      "zen": 7525,
      "ong": 7526,
      "std(": 7527,
      "rest": 7528,
      "alt_": 7529,
      "memo": 7530,
      "Ġinser": 7531,
      "couldĠnotĠ": 7532,
      "'][": 7533,
      "']{ifĠ": 7534,
      "args_": 7535,
      "poll": 7536,
      "np.concatenate(": 7537,
      "ply": 7538,
      "k.extend(": 7539,
      ".can": 7540,
      "';raiseĠ": 7541,
      "load(": 7542,
      "comma": 7543,
      "all([": 7544,
      "info(\"": 7545,
      "=False);": 7546,
      ");_='": 7547,
      "common_": 7548,
      "validation": 7549,
      "default=": 7550,
      "options(": 7551,
      "table,": 7552,
      "Debug": 7553,
      "angul": 7554,
      "app_name": 7555,
      "Loader": 7556,
      "))}excĠ": 7557,
      "workflow_": 7558,
      "!:_.": 7559,
      "(zip": 7560,
      "password,.": 7561,
      "_delete": 7562,
      "Metho": 7563,
      "==1:": 7564,
      "Node_Name": 7565,
      "buffer(": 7566,
      "where(": 7567,
      "user_ldap": 7568,
      "lda,": 7569,
      ".request('": 7570,
      "calculate": 7571,
      "NumberĠofĠ": 7572,
      "requests.exceptions.": 7573,
      "refresh_token": 7574,
      "granular": 7575,
      "Buff": 7576,
      "element_": 7577,
      "retrie": 7578,
      "\\n';_+='": 7579,
      "pwm": 7580,
      "********": 7581,
      ".getLocalId(": 7582,
      "flux_unit": 7583,
      "Plugin": 7584,
      "!Ġ": 7585,
      "%2": 7586,
      "-error": 7587,
      ".table": 7588,
      ".dtype": 7589,
      "2d(": 7590,
      "=b": 7591,
      "AD_": 7592,
      "D,": 7593,
      "NUM": 7594,
      "OC": 7595,
      "[-": 7596,
      "[v": 7597,
      "_||": 7598,
      "a*": 7599,
      "ao": 7600,
      "a-z": 7601,
      "j+": 7602,
      "oint": 7603,
      "ry": 7604,
      "rum": 7605,
      "tb.": 7606,
      "x[1]": 7607,
      "y','": 7608,
      "}/": 7609,
      ");p=": 7610,
      "peer": 7611,
      "id.org/": 7612,
      "];b=": 7613,
      ".show": 7614,
      "[0,0": 7615,
      "timezone": 7616,
      "does": 7617,
      "listen": 7618,
      "){_=_libcublas.cublas": 7619,
      "x.append('": 7620,
      "no-": 7621,
      "int32": 7622,
      "col_": 7623,
      "bus": 7624,
      "os.ch": 7625,
      "y,x": 7626,
      "hourl": 7627,
      ".section": 7628,
      ");_={'": 7629,
      ").value": 7630,
      "s)=": 7631,
      ".0*": 7632,
      "):>_": 7633,
      "(f,": 7634,
      "anguage": 7635,
      "title_": 7636,
      "epub": 7637,
      "){forĠjĠinĠ": 7638,
      "command=='": 7639,
      "ARCH": 7640,
      "getattr(.,": 7641,
      "blocklistRegex": 7642,
      "cord_": 7643,
      "ritical": 7644,
      "npz": 7645,
      "gradi": 7646,
      "context,": 7647,
      "root,": 7648,
      ")ĠforĠiĠinĠ": 7649,
      "bool,": 7650,
      "local_path": 7651,
      "cls.models_proxy.": 7652,
      "ItemCode": 7653,
      "lower()=='": 7654,
      "lookup_": 7655,
      "TEMPL": 7656,
      "3600": 7657,
      "given-name": 7658,
      "share": 7659,
      "file=f": 7660,
      "Allow": 7661,
      "grant_": 7662,
      "like(": 7663,
      "analysis_": 7664,
      "sameĠ": 7665,
      "dbsExceptionHandler('dbsException-invalid-input','": 7666,
      "contribut": 7667,
      "probabil": 7668,
      "dynam": 7669,
      "leastĠ": 7670,
      "competingĠinterest": 7671,
      "add_parser('": 7672,
      "cublasCheckStatus(_)": 7673,
      ".attr": 7674,
      "=x.": 7675,
      "?{_=": 7676,
      "DAY": 7677,
      "N,": 7678,
      "Pack": 7679,
      "SD": 7680,
      "SM": 7681,
      "V['": 7682,
      "]);ifĠ": 7683,
      "])}": 7684,
      "]);>": 7685,
      "]+=": 7686,
      "_[1]": 7687,
      "_KEY": 7688,
      "bur": 7689,
      "fon": 7690,
      "i,'": 7691,
      "lun": 7692,
      "s>": 7693,
      "site_": 7694,
      "xml_": 7695,
      "yin": 7696,
      "yet": 7697,
      "}y=": 7698,
      "Ġth": 7699,
      ");withĠ": 7700,
      "alar": 7701,
      "legen": 7702,
      "antĠ": 7703,
      "ged": 7704,
      "cogn": 7705,
      "otif": 7706,
      "conf.": 7707,
      "urlen": 7708,
      "];excĠ": 7709,
      "str):": 7710,
      ".sort(": 7711,
      "','_": 7712,
      "data)": 7713,
      "mayĠ": 7714,
      "));j=": 7715,
      "pos_": 7716,
      "np.mean": 7717,
      "np.radians(": 7718,
      "ness": 7719,
      "'));ifĠ": 7720,
      "x,k,": 7721,
      "sĠexist": 7722,
      "sĠandĠ": 7723,
      "outĠofĠ": 7724,
      "sc_": 7725,
      ",:]=": 7726,
      "_sche": 7727,
      "Inde": 7728,
      "host_": 7729,
      "json_data": 7730,
      "Exception(\"": 7731,
      "){k={'": 7732,
      "[i:": 7733,
      "'ĠinĠ.": 7734,
      "s'].append(": 7735,
      "_type=='": 7736,
      "[k],": 7737,
      "message,": 7738,
      "message='": 7739,
      "(y,'": 7740,
      "):raiseĠRuntimeError('": 7741,
      "columns=": 7742,
      "variance": 7743,
      "results.": 7744,
      "'):_=": 7745,
      "lobber": 7746,
      "ES_": 7747,
      "missing_": 7748,
      "');>.": 7749,
      "(mt,": 7750,
      "'},": 7751,
      "address_": 7752,
      "criter": 7753,
      "_PRO": 7754,
      "unique_id": 7755,
      "+'/'+": 7756,
      "qry_": 7757,
      "ensure_": 7758,
      "ECK": 7759,
      "noĠcompetingĠinterest": 7760,
      "iddle": 7761,
      "allowlistRegex": 7762,
      "initial_": 7763,
      "routing_": 7764,
      "enumerate(_": 7765,
      "cycle": 7766,
      "Variable": 7767,
      "time.time()-": 7768,
      "Updat": 7769,
      "soup": 7770,
      "Stats(": 7771,
      "lambda_": 7772,
      "attempt": 7773,
      "organization": 7774,
      "Authorization": 7775,
      "Decimal": 7776,
      "urlencode": 7777,
      "(line": 7778,
      "(input_": 7779,
      "(q,": 7780,
      ".j": 7781,
      "32,": 7782,
      "Ma": 7783,
      "ME_": 7784,
      "MIS": 7785,
      "WS": 7786,
      "]))": 7787,
      "_/": 7788,
      "ger_": 7789,
      "horiz": 7790,
      "ip.": 7791,
      "mys": 7792,
      "r/": 7793,
      "tend": 7794,
      "tldap": 7795,
      "ven": 7796,
      "yel": 7797,
      "{try{": 7798,
      "inplace": 7799,
      "ere": 7800,
      "){n=": 7801,
      "s(),": 7802,
      "names": 7803,
      "plural": 7804,
      "==3": 7805,
      "')=='": 7806,
      "excMsg": 7807,
      "[0]['": 7808,
      "sĠwithĠ": 7809,
      "_name(": 7810,
      "-1:": 7811,
      "len(z)": 7812,
      "etc/": 7813,
      "heigh": 7814,
      "reads.": 7815,
      ".depth": 7816,
      "s:_=": 7817,
      "ator_": 7818,
      "_file_": 7819,
      "action_": 7820,
      "'];y=": 7821,
      "api/": 7822,
      "Selection": 7823,
      "built": 7824,
      ".set_x": 7825,
      "count('": 7826,
      "end_date": 7827,
      "task_id": 7828,
      "context['": 7829,
      "]}elifĠ": 7830,
      ".gl": 7831,
      "UNT": 7832,
      "layer_": 7833,
      "IOError('": 7834,
      "seq,": 7835,
      "authorsĠ": 7836,
      "RuntimeError": 7837,
      "time_string": 7838,
      "pressure": 7839,
      "(kwargs.": 7840,
      "cast=bool": 7841,
      "ReadGroup": 7842,
      "handler_": 7843,
      "apply(": 7844,
      "drop_": 7845,
      "hexdigest": 7846,
      "='+str(": 7847,
      "master": 7848,
      "https://w3": 7849,
      "mustĠhaveĠ": 7850,
      "compare_": 7851,
      "vas.": 7852,
      "np.ndarray": 7853,
      "major": 7854,
      "substitution": 7855,
      "struct.unpack('": 7856,
      "(value=None){ifĠvalue!{try:value=float(value": 7857,
      "Child(": 7858,
      "Wrapper": 7859,
      "fetch('/service/%s/version": 7860,
      "id.org/cwl": 7861,
      "https://w3id.org/cwl": 7862,
      "!');": 7863,
      "(r,": 7864,
      ".G": 7865,
      ".k": 7866,
      "/sal": 7867,
      "RA": 7868,
      "Ter": 7869,
      "Tot": 7870,
      "[(": 7871,
      "_*": 7872,
      "_date": 7873,
      "blob": 7874,
      "c.append(": 7875,
      "df.": 7876,
      "f}": 7877,
      "ful": 7878,
      "h.": 7879,
      "h_": 7880,
      "sq": 7881,
      "wb": 7882,
      "y);ifĠ": 7883,
      "Ġ%s',": 7884,
      "stĠ": 7885,
      "alg_": 7886,
      "lector": 7887,
      "anit": 7888,
      "ant(": 7889,
      "adap": 7890,
      "s(cls,": 7891,
      "id']": 7892,
      "d_user": 7893,
      "types.": 7894,
      "type':": 7895,
      "s_index": 7896,
      "s_tuple": 7897,
      "s_100": 7898,
      "verb": 7899,
      "np.unique": 7900,
      "%s:": 7901,
      "=None,S": 7902,
      "]=y": 7903,
      "key(": 7904,
      "[0]);": 7905,
      "))+": 7906,
      "']=_.": 7907,
      ";>x": 7908,
      "info=": 7909,
      ");_=k.": 7910,
      "start=": 7911,
      "(soup": 7912,
      "version,": 7913,
      "[_[0]": 7914,
      ")}>y": 7915,
      "python_": 7916,
      "str(e": 7917,
      "headers['": 7918,
      "queryĠ": 7919,
      "emitter": 7920,
      "'];z=": 7921,
      "))}}": 7922,
      "))}else{": 7923,
      "ALI": 7924,
      ".fit": 7925,
      "bytes": 7926,
      "monitor": 7927,
      "expand_": 7928,
      "Chunk": 7929,
      "page_size": 7930,
      "[1::": 7931,
      "output_dir": 7932,
      "**2+": 7933,
      "();forĠ_ĠinĠ": 7934,
      "plugins','": 7935,
      ")||(": 7936,
      ",'r')ĠasĠ": 7937,
      "flush": 7938,
      "keep": 7939,
      "',default=False,": 7940,
      "aug": 7941,
      "slice(": 7942,
      "LoadingĠ": 7943,
      "_FORMAT": 7944,
      "enode": 7945,
      "forward": 7946,
      "forward_": 7947,
      "thatĠnoĠcompetingĠinterest": 7948,
      "HttpResponse": 7949,
      "k,x=.submit(": 7950,
      "adjac": 7951,
      "modifier": 7952,
      "',type=str,": 7953,
      "scenar": 7954,
      ".width": 7955,
      "incx,": 7956,
      "key=(\\x:": 7957,
      "api/v3/": 7958,
      "Cluster": 7959,
      "amplitude": 7960,
      ",.user,.password,.": 7961,
      "https://w3id.org/cwl/sal": 7962,
      "s_100_with_": 7963,
      ",.user,.password,.user_ldap": 7964,
      "https://w3id.org/cwl/salad": 7965,
      "\");": 7966,
      ".root": 7967,
      ".run_": 7968,
      "/3": 7969,
      "23": 7970,
      "Bar": 7971,
      "FC": 7972,
      "[('": 7973,
      "_ĠifĠ": 7974,
      "betwe": 7975,
      "sid": 7976,
      "tz": 7977,
      "uff": 7978,
      "y&&": 7979,
      "erarch": 7980,
      "rev": 7981,
      "alo": 7982,
      "meter": 7983,
      "deprecate": 7984,
      "ge_": 7985,
      "rou": 7986,
      "']),": 7987,
      "_.replace('": 7988,
      "mp_": 7989,
      "tology": 7990,
      "','S": 7991,
      "();x.": 7992,
      "ĠforĠtheĠ": 7993,
      "ited": 7994,
      "_name,'": 7995,
      "len(b": 7996,
      "Return": 7997,
      ",_))": 7998,
      "rank": 7999,
      "isinstance(kwargs['": 8000,
      "pagin": 8001,
      "_save": 8002,
      "items": 8003,
      "reading": 8004,
      "yĠofĠ": 8005,
      "[_])": 8006,
      "objects(": 8007,
      "pysat": 8008,
      "token,": 8009,
      ";k=._": 8010,
      "assertĠisinstance(": 8011,
      "match(": 8012,
      "bind(": 8013,
      "response(k,x)": 8014,
      "yieldĠ_": 8015,
      ")}}forĠ": 8016,
      "doc__": 8017,
      "k[const.": 8018,
      "bytes_": 8019,
      "least_": 8020,
      "type(e),": 8021,
      "data,commdct": 8022,
      "]+=.": 8023,
      "')}excĠ": 8024,
      "queryset(": 8025,
      "Polic": 8026,
      "schema_": 8027,
      "networkapi_url": 8028,
      "radius": 8029,
      "month,": 8030,
      "click.": 8031,
      "defined": 8032,
      "nonzero": 8033,
      "merge_": 8034,
      "CDR": 8035,
      "upper()=='": 8036,
      "http.": 8037,
      "cipient": 8038,
      "surname':'": 8039,
      "Box": 8040,
      "=None;else:.": 8041,
      "blue": 8042,
      "helpers.": 8043,
      "sys.stderr.write('": 8044,
      "cntx": 8045,
      "Client.": 8046,
      "ioc_api.": 8047,
      "Syntax": 8048,
      "given-names':'": 8049,
      "thatĠnoĠcompetingĠinterestsĠexist": 8050,
      "networkapi_url,.user,.password,.user_ldap": 8051,
      "\",": 8052,
      "(p,": 8053,
      "(CorpNum,": 8054,
      "(ctypes.c_": 8055,
      ")]);": 8056,
      ",name,": 8057,
      ".*": 8058,
      ".join(": 8059,
      "2D": 8060,
      "2],": 8061,
      "4:": 8062,
      "68": 8063,
      "6:": 8064,
      "AF": 8065,
      "A','": 8066,
      "CI": 8067,
      "Driver": 8068,
      "TL": 8069,
      "k/": 8070,
      "ki": 8071,
      "k))": 8072,
      "n='": 8073,
      "oĠinĠ": 8074,
      "x<": 8075,
      "stub": 8076,
      "s.values(": 8077,
      "rozen": 8078,
      "atedĠ": 8079,
      "uringĠ": 8080,
      "lic_": 8081,
      "notĠin": 8082,
      "(_));": 8083,
      "Error:Ġ": 8084,
      "),_": 8085,
      "[0,1": 8086,
      "team": 8087,
      "True;ifĠ": 8088,
      "quis": 8089,
      "exc{": 8090,
      "sci": 8091,
      "[1,": 8092,
      "ĠasĠx": 8093,
      "Cond": 8094,
      ");k=._": 8095,
      "Type=None,": 8096,
      "fieldname": 8097,
      "Name=": 8098,
      "{_=._": 8099,
      "headers": 8100,
      "set_y": 8101,
      "disc": 8102,
      "author_": 8103,
      "dtype='": 8104,
      "[];forĠi,": 8105,
      "Identity": 8106,
      "();ifĠ'": 8107,
      "_.append(k": 8108,
      ".f_": 8109,
      "limit_": 8110,
      "NotĠ": 8111,
      "post('": 8112,
      "FIEL": 8113,
      "summary": 8114,
      "mask_": 8115,
      "object_id": 8116,
      "_+='&": 8117,
      "authorize": 8118,
      "');forĠkĠinĠ": 8119,
      "-1,etag": 8120,
      "Subject": 8121,
      "execute('": 8122,
      "basic_": 8123,
      "DEFAULTS": 8124,
      "':_},'": 8125,
      "yaml.": 8126,
      "vidual": 8127,
      "subprocess.check_": 8128,
      "distance_": 8129,
      "areĠthatĠnoĠcompetingĠinterestsĠexist": 8130,
      "*np.cos(": 8131,
      ".decode('utf-8": 8132,
      ".__class__.__name__": 8133,
      "click.echo": 8134,
      "Comman": 8135,
      ".widget": 8136,
      "CPEComponent2_3_": 8137,
      "metavar='<": 8138,
      "declareĠthatĠnoĠcompetingĠinterestsĠexist": 8139,
      "COMMAN": 8140,
      "cutoff": 8141,
      "number=-1,etag": 8142,
      "=vals[i];i+=1;ifĠlen(vals[i])==0:.": 8143,
      "VLX": 8144,
      ".workflow": 8145,
      "AUTH": 8146,
      "yellow": 8147,
      "authorsĠdeclareĠthatĠnoĠcompetingĠinterestsĠexist": 8148,
      "https://w3id.org/cwl/salad#": 8149,
      "networkapi_url,.user,.password,.user_ldap)": 8150,
      "!{k=": 8151,
      "(payload": 8152,
      ")>1": 8153,
      ".y": 8154,
      "1Ġ": 8155,
      "1',": 8156,
      "Fail": 8157,
      "GP": 8158,
      "Gu": 8159,
      "GRO": 8160,
      "LL": 8161,
      "OL": 8162,
      "QL": 8163,
      "[g": 8164,
      "d:": 8165,
      "d}'.format(": 8166,
      "eg": 8167,
      "egg": 8168,
      "i);ifĠ": 8169,
      "m:": 8170,
      "pg": 8171,
      "pm": 8172,
      "twe": 8173,
      "wind": 8174,
      "will": 8175,
      "zo": 8176,
      "{a=": 8177,
      "|=": 8178,
      "Ġ/": 8179,
      "ĠdoesĠnotĠ": 8180,
      ");k": 8181,
      "orted(": 8182,
      "sect": 8183,
      "arc": 8184,
      "annot": 8185,
      "._load_": 8186,
      "adcast": 8187,
      ");>{'": 8188,
      "(_('": 8189,
      "rail": 8190,
      "y=False,": 8191,
      "ĠforĠpĠinĠ": 8192,
      "Require": 8193,
      ":raiseĠPy": 8194,
      "isinstance(obj,": 8195,
      "[];z=": 8196,
      "string.": 8197,
      "number(": 8198,
      ";forĠi,": 8199,
      "':'','": 8200,
      "white": 8201,
      "[_:": 8202,
      "[_][": 8203,
      "is_valid": 8204,
      "s:_.": 8205,
      "Key()": 8206,
      ";k=.": 8207,
      "status']": 8208,
      "Look": 8209,
      "mode=": 8210,
      "parameters": 8211,
      "parameters=": 8212,
      "break;": 8213,
      "ThereĠ": 8214,
      "area": 8215,
      "password,": 8216,
      "bool(": 8217,
      "Measurement": 8218,
      "')}else{": 8219,
      "[2],": 8220,
      "client,": 8221,
      "Contin": 8222,
      "upper(),": 8223,
      "ConfigParser": 8224,
      "multi=True": 8225,
      "');forĠxĠinĠ": 8226,
      "IPv": 8227,
      "gorith": 8228,
      "allowed_": 8229,
      "order_by": 8230,
      ",(str,)),\"ArgumentĠ'": 8231,
      "Transaction": 8232,
      "walk": 8233,
      "torno": 8234,
      "['type']": 8235,
      "fireEvent": 8236,
      "pygame.": 8237,
      "re.findall('": 8238,
      "global_register_value('": 8239,
      "aryPrfT": 8240,
      "k,x=.submit({'": 8241,
      "CDR3_": 8242,
      "authorsĠdeclareĠthatĠnoĠcompetingĠinterestsĠexist.": 8243,
      ")['": 8244,
      "./": 8245,
      "={}": 8246,
      "Av": 8247,
      "Access": 8248,
      "Flo": 8249,
      "MIN": 8250,
      "Role": 8251,
      "Y,": 8252,
      "[%s]": 8253,
      "_by_": 8254,
      "_TYPE_": 8255,
      "big": 8256,
      "gitĠ": 8257,
      "hm": 8258,
      "pb": 8259,
      "rc_": 8260,
      "s;>": 8261,
      "tas": 8262,
      "vm": 8263,
      "x._": 8264,
      "zh": 8265,
      "increment": 8266,
      ");y": 8267,
      ");s=": 8268,
      "mecab": 8269,
      "ĠinĠenumerate(": 8270,
      "_==0": 8271,
      "pet": 8272,
      "admin_": 8273,
      "='*": 8274,
      "one({'": 8275,
      "strument": 8276,
      "(_[0]": 8277,
      "values[": 8278,
      "np.vstack": 8279,
      "=None,**": 8280,
      "(.networkapi_url,.user,.password,.user_ldap)": 8281,
      "listĠofĠ": 8282,
      "setup_": 8283,
      "{ifĠ_": 8284,
      "nod": 8285,
      "delD": 8286,
      "ordinal": 8287,
      "Repository": 8288,
      "pr_": 8289,
      "ourn": 8290,
      "_id=None,": 8291,
      ".__init__": 8292,
      "}>y": 8293,
      "imit": 8294,
      "])/": 8295,
      "ĠforĠ_ĠinĠ.": 8296,
      "?:._": 8297,
      "signe": 8298,
      "lock=": 8299,
      "apps.get_": 8300,
      "(x,y": 8301,
      "source,": 8302,
      "bind": 8303,
      "logging.warning('": 8304,
      "[0];_=": 8305,
      ".split('\\n": 8306,
      "Uncertain": 8307,
      "tract": 8308,
      "SetId": 8309,
      "treenode": 8310,
      ")ĠforĠvĠinĠ": 8311,
      "_debug('": 8312,
      "glob(": 8313,
      "iĠinĠrange(0,": 8314,
      "make_indicator": 8315,
      ".bit": 8316,
      "':>'": 8317,
      "alled": 8318,
      "[-1];": 8319,
      "TypeError,": 8320,
      "pkg_": 8321,
      "dictionary": 8322,
      "[c]": 8323,
      "article_": 8324,
      "bucket_": 8325,
      "docker": 8326,
      "logical_": 8327,
      "ModuleLoad": 8328,
      "inspect.is": 8329,
      "secure": 8330,
      "STATUS": 8331,
      "adjust": 8332,
      "VALUE": 8333,
      "ified_": 8334,
      "Widget": 8335,
      "astype(int": 8336,
      "Application": 8337,
      "previous_": 8338,
      "stdout=subprocess.PIPE": 8339,
      "Help": 8340,
      "percentile": 8341,
      "(sys.": 8342,
      "':{'date':'20": 8343,
      "Poly": 8344,
      "cacheĠ": 8345,
      "let_Node_Name": 8346,
      "\".format(": 8347,
      ")sĠ": 8348,
      ".stop": 8349,
      ".print_": 8350,
      "1-": 8351,
      "2',": 8352,
      "2]=": 8353,
      "3),": 8354,
      ":int": 8355,
      "Bin": 8356,
      "Got": 8357,
      "TĠ": 8358,
      "]Ġ": 8359,
      "]'.format(": 8360,
      "_parse_": 8361,
      "aded": 8362,
      "browser": 8363,
      "css": 8364,
      "cpu": 8365,
      "eze": 8366,
      "e-0": 8367,
      "jav": 8368,
      "lw": 8369,
      "pdf": 8370,
      "sity": 8371,
      "y':": 8372,
      "yte": 8373,
      ");q=": 8374,
      "recogn": 8375,
      "ansi": 8376,
      "._de": 8377,
      "id(": 8378,
      ".sat": 8379,
      "np.array": 8380,
      "%s\\n": 8381,
      "**_": 8382,
      "tryingĠtoĠ": 8383,
      ".release": 8384,
      "contro": 8385,
      "Receiver": 8386,
      "outer": 8387,
      "s[index": 8388,
      "kwargs:": 8389,
      "codec": 8390,
      "||(": 8391,
      "join(.": 8392,
      "int(number": 8393,
      "user(": 8394,
      "range(k": 8395,
      ").T": 8396,
      "(x)ĠforĠxĠinĠ": 8397,
      "run('": 8398,
      "(_,k)": 8399,
      "gene": 8400,
      "[k];": 8401,
      "[k])": 8402,
      "strip('/": 8403,
      "Delete": 8404,
      "state=": 8405,
      "'];else:": 8406,
      "level_": 8407,
      "sys.version_info": 8408,
      "length=": 8409,
      "Setting": 8410,
      "execut": 8411,
      "function(": 8412,
      "server-error": 8413,
      "choo": 8414,
      "units.": 8415,
      "condition='": 8416,
      "ĠisĠnotĠvalid": 8417,
      "prefix='": 8418,
      "];forĠxĠinĠ": 8419,
      "=False){k='": 8420,
      "ByName": 8421,
      "currentĠ": 8422,
      "\\\\s+(": 8423,
      "ĠinputĠ": 8424,
      "caption": 8425,
      "method='POST": 8426,
      "Callback": 8427,
      "f.readline": 8428,
      "scheme": 8429,
      "ipv4": 8430,
      "pattern,": 8431,
      "alignment": 8432,
      "lgcPrint": 8433,
      "){@wraps(": 8434,
      "MAGIC": 8435,
      "Operation": 8436,
      "constants.": 8437,
      "WHERE": 8438,
      "criteri": 8439,
      "tldap.": 8440,
      "\"'+": 8441,
      "\",Ġ": 8442,
      "&255": 8443,
      ")+1": 8444,
      ".insert": 8445,
      "39": 8446,
      ";try{": 8447,
      ">=1": 8448,
      "BAS": 8449,
      "CB": 8450,
      "DF": 8451,
      "IST": 8452,
      "Pas": 8453,
      "Tra": 8454,
      "The": 8455,
      "[q": 8456,
      "_number": 8457,
      "by(": 8458,
      "dag": 8459,
      "ead": 8460,
      "lc": 8461,
      "oa": 8462,
      "pg_": 8463,
      "vcf": 8464,
      "z));": 8465,
      "{m=": 8466,
      "á»": 8467,
      "ìĿ": 8468,
      "inverse": 8469,
      "atleast_": 8470,
      "reason": 8471,
      "alg": 8472,
      "){m=": 8473,
      "){p=": 8474,
      "'],_['": 8475,
      "ateĠ": 8476,
      "id','": 8477,
      "inger": 8478,
      ");ifĠ_:": 8479,
      "_.text": 8480,
      "lict": 8481,
      "k==0": 8482,
      "mption": 8483,
      ".scope": 8484,
      "','H": 8485,
      "len,": 8486,
      "s_for_": 8487,
      "set.": 8488,
      "len(y": 8489,
      "s[y": 8490,
      "isinstance(.": 8491,
      "config.get_": 8492,
      ":raiseĠValueError(\"": 8493,
      "=.0": 8494,
      "_,x": 8495,
      ");k=.": 8496,
      "[i];": 8497,
      "elseĠ'": 8498,
      "State(": 8499,
      "work.": 8500,
      "REQU": 8501,
      "_registr": 8502,
      "(){y=": 8503,
      "binary_": 8504,
      "module__": 8505,
      ");else:k=": 8506,
      "Ġ{1}'.format(": 8507,
      "container,": 8508,
      "settings(": 8509,
      "]}else:": 8510,
      "_CH": 8511,
      "Respost": 8512,
      "parent_id": 8513,
      "UND": 8514,
      "_csv": 8515,
      "handle,_CUBLAS": 8516,
      "_+=bytes(": 8517,
      "CHECK": 8518,
      "debug.log('": 8519,
      "history": 8520,
      "scipy.s": 8521,
      "+'.'+": 8522,
      "right_": 8523,
      "register.": 8524,
      "scipy.asarray(": 8525,
      "Word(": 8526,
      "higher_": 8527,
      ".service.": 8528,
      "ffici": 8529,
      "cluster_run": 8530,
      "d_reads[x][_].": 8531,
      "MODE[": 8532,
      "Container": 8533,
      "icrosecond": 8534,
      "\">": 8535,
      "%Ġ": 8536,
      "%s,": 8537,
      "()}excĠ": 8538,
      "Basic": 8539,
      "Hrf": 8540,
      "Language": 8541,
      "N_": 8542,
      "RnaQuantification": 8543,
      "UseĠ": 8544,
      "_cache": 8545,
      "b;": 8546,
      "bold": 8547,
      "fer_": 8548,
      "future": 8549,
      "i),": 8550,
      "kl": 8551,
      "k[1]": 8552,
      "my_": 8553,
      "p;": 8554,
      "rd": 8555,
      "uwsg": 8556,
      "xĠ": 8557,
      "z-": 8558,
      "z}": 8559,
      "{withĠ": 8560,
      "{1}'.format(": 8561,
      "lem": 8562,
      "){x='": 8563,
      "){log.info('": 8564,
      "',0);": 8565,
      "asp": 8566,
      "asyn": 8567,
      "_.keys(": 8568,
      "k=k.": 8569,
      "divide": 8570,
      ".safe_": 8571,
      "s_from": 8572,
      "uldn": 8573,
      "prog": 8574,
      "doing": 8575,
      "{}.": 8576,
      "{ifĠ_.": 8577,
      "&&isinstance(": 8578,
      "ableĠ": 8579,
      ":>;ifĠ": 8580,
      "Remote": 8581,
      "y,x,": 8582,
      "_sum": 8583,
      "_id']=": 8584,
      "info.": 8585,
      "---": 8586,
      "size=1": 8587,
      "(sorted(": 8588,
      "params)": 8589,
      ");k=_.": 8590,
      "pypi": 8591,
      "}ifĠ.": 8592,
      "addition": 8593,
      "header('": 8594,
      "data_and_": 8595,
      "DED": 8596,
      "events.": 8597,
      "matchĠ": 8598,
      "matcher": 8599,
      "=None){assertĠ": 8600,
      "app,": 8601,
      "[];forĠzĠinĠ": 8602,
      "[0];x=": 8603,
      "s',[]": 8604,
      "AL_": 8605,
      "missingĠ": 8606,
      "'{x=": 8607,
      "length,": 8608,
      "SetName": 8609,
      "open(filename": 8610,
      "s{x=": 8611,
      "print(\"": 8612,
      ",**kwargs){_=": 8613,
      "Result(": 8614,
      "output_file": 8615,
      "{ifĠnotĠisinstance(": 8616,
      "Compound": 8617,
      "IOC": 8618,
      "(remote_": 8619,
      "IndexError": 8620,
      "matrix_": 8621,
      "app.config": 8622,
      "left_": 8623,
      "GET','": 8624,
      ":continue;": 8625,
      "project_name": 8626,
      "dock_": 8627,
      "docker_": 8628,
      "hierarch": 8629,
      "import_module": 8630,
      "src_": 8631,
      "SSL": 8632,
      "ifiedĠ": 8633,
      "analysis": 8634,
      "Password": 8635,
      "determineĠ": 8636,
      "os.listdir": 8637,
      "DCAR": 8638,
      "WILDCAR": 8639,
      "v2(handle,_CUBLAS": 8640,
      "fetch('/service/%s/version/%d/": 8641,
      "ioc_api.make_indicator": 8642,
      "quisition": 8643,
      "UncertainFunction": 8644,
      "data_and_metadata": 8645,
      "(other": 8646,
      ")s": 8647,
      ")ĠasĠe": 8648,
      ",max_": 8649,
      "31": 8650,
      "Agent": 8651,
      "GL_": 8652,
      "LL_": 8653,
      "MD": 8654,
      "Pat": 8655,
      "Tmp": 8656,
      "[5": 8657,
      "eq": 8658,
      "fd": 8659,
      "gzip": 8660,
      "i-": 8661,
      "lishe": 8662,
      "nn": 8663,
      "rp": 8664,
      "s'ĠnotĠinĠ": 8665,
      "sleep": 8666,
      "ua": 8667,
      "y)}": 8668,
      "z);ifĠ": 8669,
      ");exc(": 8670,
      "std_": 8671,
      "release_": 8672,
      "reduce": 8673,
      "){s=": 8674,
      "cov": 8675,
      "'];ifĠnotĠ": 8676,
      "name,:": 8677,
      "series": 8678,
      "data_file": 8679,
      "s==": 8680,
      "));assertĠ": 8681,
      "format,": 8682,
      "time=": 8683,
      "obs_": 8684,
      "provision": 8685,
      "False,'": 8686,
      "ĠforĠtĠinĠ": 8687,
      "setGraphVal('": 8688,
      "famil": 8689,
      "-1)": 8690,
      ".categor": 8691,
      ".cache_": 8692,
      "foli": 8693,
      ".get_command": 8694,
      ":raiseĠInvalid": 8695,
      "_snapshot": 8696,
      "endar": 8697,
      "info(": 8698,
      "=False){ifĠnotĠ": 8699,
      "causeĠ": 8700,
      "string_": 8701,
      "commit_": 8702,
      "ample_": 8703,
      "ĠĠĠĠĠĠĠĠĠĠĠĠ": 8704,
      "range(n": 8705,
      "s:.": 8706,
      "(k,v": 8707,
      "interpo": 8708,
      "transl": 8709,
      "module,": 8710,
      "{forĠzĠinĠ": 8711,
      "();ifĠ_": 8712,
      "[0];k=": 8713,
      "plot.": 8714,
      ":.log('": 8715,
      "output(": 8716,
      "(1+": 8717,
      "ANG": 8718,
      "newline": 8719,
      "m,n,": 8720,
      "AMP": 8721,
      "convertĠ": 8722,
      "elements_tuple": 8723,
      "returnedĠ": 8724,
      "requiredĠ": 8725,
      "input_data": 8726,
      "typing": 8727,
      "_cert": 8728,
      "authorization_": 8729,
      "buffer_": 8730,
      "time_elements_tuple": 8731,
      "ceived": 8732,
      "Item/": 8733,
      "Elements": 8734,
      "item_node(": 8735,
      "givenĠ": 8736,
      "Can'tĠ": 8737,
      "len(_),": 8738,
      "func_unit_": 8739,
      "func_multipli": 8740,
      "func_higher_": 8741,
      "repr(": 8742,
      "region,": 8743,
      "capture": 8744,
      "ities,": 8745,
      "walk(": 8746,
      "logger.debug(f\"": 8747,
      "VALUE_": 8748,
      "common.": 8749,
      "Endpoint": 8750,
      "followingĠ": 8751,
      "Permission.": 8752,
      "Array": 8753,
      "contrib": 8754,
      "callsign.": 8755,
      "simple": 8756,
      "!r}": 8757,
      "ShExJ.": 8758,
      "virtualenv": 8759,
      "NC.ERR": 8760,
      "gradient": 8761,
      "item_node(condition": 8762,
      "!=None": 8763,
      "#Ġ": 8764,
      "'/": 8765,
      "'sĠ": 8766,
      "(('": 8767,
      "(int,": 8768,
      ".enable": 8769,
      ".convert_": 8770,
      "5;": 8771,
      "Fin": 8772,
      "GTH": 8773,
      "Nii": 8774,
      "RG": 8775,
      "Sw": 8776,
      "Skip": 8777,
      "[f": 8778,
      "c','": 8779,
      "ech": 8780,
      "ever": 8781,
      "ier": 8782,
      "ivar": 8783,
      "k-": 8784,
      "kip_": 8785,
      "oauth": 8786,
      "p['": 8787,
      "s+='": 8788,
      "safe": 8789,
      "wf": 8790,
      "wel": 8791,
      "x&&": 8792,
      "z),": 8793,
      "ĠName": 8794,
      ");f": 8795,
      "){k,_=": 8796,
      "Ġinformation": 8797,
      "._read": 8798,
      "._session": 8799,
      "._Get": 8800,
      "._process_": 8801,
      "val=": 8802,
      "':x,'": 8803,
      "','W": 8804,
      "mach": 8805,
      "(_)}>": 8806,
      "):k.append(": 8807,
      "value':": 8808,
      "vert": 8809,
      "verse_": 8810,
      "logl": 8811,
      "s,**kwargs": 8812,
      "s={}": 8813,
      "));k.": 8814,
      "resize": 8815,
      "(k,_,": 8816,
      "np.ones(": 8817,
      "ply_": 8818,
      "doĠnotĠ": 8819,
      "x.add_": 8820,
      "_name_": 8821,
      "len(m": 8822,
      "perĠ": 8823,
      "';z=": 8824,
      ",_),": 8825,
      "y,.": 8826,
      "_sh": 8827,
      "dir_": 8828,
      ".select_": 8829,
      "node,": 8830,
      ".description": 8831,
      "whenĠ": 8832,
      "short_": 8833,
      "gen_": 8834,
      "[k]['": 8835,
      "]);elifĠ": 8836,
      "status,": 8837,
      "assertĠisinstance(kwargs['": 8838,
      "latti": 8839,
      ");excĠOS": 8840,
      "columns,": 8841,
      "state.": 8842,
      "s',None": 8843,
      "sort(": 8844,
      "ARY": 8845,
      "_flu": 8846,
      "s[i].": 8847,
      "\"%(": 8848,
      "template,": 8849,
      "specific": 8850,
      "timestamp=": 8851,
      "callback_": 8852,
      "}else:raiseĠ": 8853,
      "dist.": 8854,
      "));forĠkĠinĠ": 8855,
      "testing(": 8856,
      "replacement": 8857,
      "OptionalĠargument": 8858,
      "remote": 8859,
      "lvl=debug": 8860,
      "returnnone": 8861,
      "beta,": 8862,
      "2.0*": 8863,
      "PY3": 8864,
      "passe": 8865,
      ")),\"OptionalĠargument": 8866,
      "group(2": 8867,
      "(source,": 8868,
      "STRING": 8869,
      "compress_": 8870,
      "apply_T": 8871,
      "functools.wraps(": 8872,
      "child(": 8873,
      "calibration_": 8874,
      "copy_attribute": 8875,
      "Offset(": 8876,
      "Signal": 8877,
      "literal_": 8878,
      "=None:returnnone": 8879,
      "']'.ĠReceivedĠtype:Ġ'%s'\"%type(kwargs['": 8880,
      "Unicode": 8881,
      "Structure": 8882,
      "'ĠinĠkwargs:assertĠisinstance(kwargs['": 8883,
      "tip_label": 8884,
      "rough": 8885,
      "DEFAULTS['": 8886,
      "Resposta": 8887,
      "doingtesting(": 8888,
      "ioc_api.make_indicatoritem_node(condition": 8889,
      "func_unit_cord": 8890,
      "func_higher_cord": 8891,
      ")),\"OptionalĠargumentĠ'": 8892,
      "doingtesting(testing": 8893,
      "!||": 8894,
      "(X,": 8895,
      ")];ifĠ": 8896,
      "+i": 8897,
      ",data": 8898,
      ",default": 8899,
      ".html": 8900,
      "0;k=": 8901,
      "2**": 8902,
      "429": 8903,
      "=[];": 8904,
      "Done": 8905,
      "Flag": 8906,
      "Ge": 8907,
      "NEC": 8908,
      "Sol": 8909,
      "YY": 8910,
      "_con": 8911,
      "_+=1": 8912,
      "_unit_": 8913,
      "b{": 8914,
      "c;": 8915,
      "clobber": 8916,
      "fp": 8917,
      "ging": 8918,
      "gap": 8919,
      "hĠinĠ": 8920,
      "jamo": 8921,
      "ni": 8922,
      "nav": 8923,
      "s&": 8924,
      "te_": 8925,
      "tspan": 8926,
      "}{": 8927,
      "alive": 8928,
      "algo": 8929,
      "itch": 8930,
      "filen": 8931,
      "adam": 8932,
      "s(x,": 8933,
      "chun": 8934,
      "chass": 8935,
      "name()": 8936,
      "union": 8937,
      ");ifĠk:": 8938,
      "_.get(": 8939,
      ")}else{ifĠ": 8940,
      "];_.": 8941,
      ".sort_": 8942,
      "','given-names':'": 8943,
      "notĠisinstance(": 8944,
      "path(": 8945,
      "files": 8946,
      "s={'": 8947,
      "s=_,": 8948,
      "format=": 8949,
      "();try:": 8950,
      "&&freq": 8951,
      ".reset(": 8952,
      "len(x": 8953,
      "len(args": 8954,
      "order(": 8955,
      "']=int(": 8956,
      "}}}>": 8957,
      "ĠasĠx;": 8958,
      ".we": 8959,
      "min,": 8960,
      "minor": 8961,
      "validator": 8962,
      "(_,func_higher_cord": 8963,
      "comple": 8964,
      "(spec": 8965,
      "(schema": 8966,
      "ctor_": 8967,
      "logger.error": 8968,
      "fields,": 8969,
      "READ": 8970,
      "scribe_": 8971,
      "):>'": 8972,
      "=_unit_": 8973,
      "data_api.": 8974,
      "posit": 8975,
      "1,1": 8976,
      "day=": 8977,
      "input('": 8978,
      "base,": 8979,
      "Second": 8980,
      "ĠtoĠtheĠ": 8981,
      "quick": 8982,
      "yieldĠfromĠ": 8983,
      "stream,": 8984,
      "service(": 8985,
      "(mon": 8986,
      "_flag": 8987,
      "(i+1": 8988,
      "ASK": 8989,
      "ordering": 8990,
      "metadata_": 8991,
      "]}else{": 8992,
      "Arn": 8993,
      "]+)": 8994,
      "PIX": 8995,
      "estim": 8996,
      "find_all": 8997,
      "AttributeError:": 8998,
      "==1:>": 8999,
      "201": 9000,
      ".setdefault('": 9001,
      ".rm": 9002,
      "config.genome": 9003,
      "days=": 9004,
      "s[_]=": 9005,
      "only_": 9006,
      "attributeĠ": 9007,
      "\\\\d{": 9008,
      "node_text(": 9009,
      "TypeError(": 9010,
      "AGE_": 9011,
      "resolver": 9012,
      "subprocess.Popen(": 9013,
      "',default='": 9014,
      "provided": 9015,
      "Ġinstead": 9016,
      "ĠisĠnotĠaĠvalidĠ": 9017,
      "fluxes.": 9018,
      "predicate": 9019,
      "Tuple[": 9020,
      "copy.deepcopy(": 9021,
      "external": 9022,
      ".simulate": 9023,
      "margin": 9024,
      "codons_dict": 9025,
      "traceback.format_exc": 9026,
      "hfos": 9027,
      "argparse.ArgumentParser(": 9028,
      "doesn'tĠ": 9029,
      "Condition": 9030,
      "uldn'tĠ": 9031,
      "Pattern": 9032,
      ".get_commands('": 9033,
      "typing.": 9034,
      "func_unit_cord=_unit_": 9035,
      "%s,Ġ": 9036,
      "(attr": 9037,
      "(param": 9038,
      ",stderr=": 9039,
      "-np.": 9040,
      ".on_": 9041,
      ".uuid": 9042,
      "E,": 9043,
      "FIN": 9044,
      "Fix": 9045,
      "UID": 9046,
      "VIC": 9047,
      "X_": 9048,
      "_,'": 9049,
      "_{k=": 9050,
      "acl": 9051,
      "b[": 9052,
      "border_": 9053,
      "dt.": 9054,
      "jd(": 9055,
      "k;ifĠ": 9056,
      "m[": 9057,
      "mix": 9058,
      "s;_=": 9059,
      "s'),": 9060,
      "uĠinĠ": 9061,
      "uro": 9062,
      "xx": 9063,
      "y=None": 9064,
      "ine_": 9065,
      ");z": 9066,
      "seg": 9067,
      "rep": 9068,
      "me_": 9069,
      "route_": 9070,
      "rase": 9071,
      "id']=": 9072,
      "None),": 9073,
      "ma.": 9074,
      "(_);>_": 9075,
      "s_in_": 9076,
      "tact": 9077,
      "y_run": 9078,
      "sĠaĠ": 9079,
      "s[-1]": 9080,
      "Exp": 9081,
      "loader": 9082,
      "}}excĠ": 9083,
      "dict()": 9084,
      "varExt": 9085,
      "username=": 9086,
      "'+.": 9087,
      "text.": 9088,
      "i,z=": 9089,
      "Confir": 9090,
      "backend_": 9091,
      "subscription": 9092,
      ");forĠjĠinĠ": 9093,
      "REF": 9094,
      "[k].": 9095,
      "checksum": 9096,
      "responseĠ": 9097,
      "data_item_": 9098,
      "){ifĠnotĠ._": 9099,
      "latten": 9100,
      ".readline": 9101,
      "%sĠ%s'%": 9102,
      ");excĠExceptionĠasĠ": 9103,
      "license": 9104,
      "transport": 9105,
      "func)Ċ": 9106,
      "workspace": 9107,
      ".set_global_register_value('": 9108,
      "FilePath": 9109,
      "title=": 9110,
      "currence": 9111,
      "k[y": 9112,
      "execution": 9113,
      "signal_": 9114,
      "settings['": 9115,
      ");ifĠ_:>": 9116,
      "Attribut": 9117,
      "change_": 9118,
      "changed_": 9119,
      "analyze": 9120,
      "AttributeError('": 9121,
      "Form": 9122,
      "cls.get_": 9123,
      "datetime.now": 9124,
      "entry(": 9125,
      "RequestNum": 9126,
      "canvas": 9127,
      "year,": 9128,
      "');forĠ_ĠinĠ": 9129,
      "Item';z='": 9130,
      "[z]=": 9131,
      ".ndim": 9132,
      "PythonĠ": 9133,
      "selected_": 9134,
      "(file_path": 9135,
      "ERROR:Ġ": 9136,
      "StartingĠ": 9137,
      "',.logger.exception": 9138,
      "180": 9139,
      ".sum(": 9140,
      "ValidationError('": 9141,
      "Row": 9142,
      "json()['": 9143,
      "Store.": 9144,
      "os.path.dirname(": 9145,
      "http://ww": 9146,
      "('.//": 9147,
      "y,:negate": 9148,
      "logging.getLogger(": 9149,
      "varNumVol": 9150,
      ",k,z,_,": 9151,
      "ĠshouldĠbeĠ": 9152,
      "stroke": 9153,
      "simulate": 9154,
      ".value=readDataInstance.readDword();_.": 9155,
      "block_struct": 9156,
      "negative": 9157,
      "hfos.": 9158,
      "ambient": 9159,
      "ioc_api.make_indicatoritem_node(condition,k,z,_,": 9160,
      "ioc_api.make_indicatoritem_node(condition,k,z,_,y,:negate": 9161,
      ".from": 9162,
      "020": 9163,
      "58": 9164,
      "=3": 9165,
      "Alig": 9166,
      "C=": 9167,
      "Duplicate": 9168,
      "F_": 9169,
      "_out": 9170,
      "_check_": 9171,
      "_DI": 9172,
      "cg": 9173,
      "dp_": 9174,
      "hc": 9175,
      "har": 9176,
      "i}": 9177,
      "kĠ": 9178,
      "mu": 9179,
      "m='": 9180,
      "s){forĠ": 9181,
      "s'){": 9182,
      "vot": 9183,
      "wc": 9184,
      "x);k=": 9185,
      "{b=": 9186,
      "Ġpath": 9187,
      "Ģë": 9188,
      ");delĠ": 9189,
      "remain": 9190,
      "',[]": 9191,
      "forĠxĠinĠ": 9192,
      ");ifĠj": 9193,
      "str(k)": 9194,
      "','r": 9195,
      ");>}ifĠ": 9196,
      "s=k,": 9197,
      "sib": 9198,
      "sibl": 9199,
      "();i=": 9200,
      "(.*": 9201,
      "(.,_)": 9202,
      "{ifĠe.": 9203,
      "&&_": 9204,
      "cale_": 9205,
      "y.extend(": 9206,
      "-1.0": 9207,
      "Reader": 9208,
      "scim": 9209,
      ".getAttribute": 9210,
      "_square": 9211,
      "dict(zip": 9212,
      "ible": 9213,
      "commit(": 9214,
      "nodes(": 9215,
      ";forĠzĠinĠ": 9216,
      "linear": 9217,
      "call('": 9218,
      "z,y": 9219,
      "'ĠinĠ_:": 9220,
      "i.connection": 9221,
      "strip(": 9222,
      "discover": 9223,
      "=_,:": 9224,
      ");_.set": 9225,
      "(x,k": 9226,
      "=np.lin": 9227,
      "(cmd": 9228,
      "_)ĠforĠ_ĠinĠ": 9229,
      ".flag": 9230,
      "block_size": 9231,
      "stats_": 9232,
      "memcached_": 9233,
      "zeros_": 9234,
      "suc": 9235,
      "array('": 9236,
      "Medi": 9237,
      "feed": 9238,
      "price": 9239,
      ".');_.": 9240,
      "Ġ%s.": 9241,
      "CODE": 9242,
      "Ġ'+'": 9243,
      "_cfg": 9244,
      "deviceId": 9245,
      "attributes(": 9246,
      "IOError": 9247,
      "VER_": 9248,
      "}}>k": 9249,
      "_PATH": 9250,
      "single_": 9251,
      "qualified_": 9252,
      "particip": 9253,
      "vocab": 9254,
      "StateChange": 9255,
      "lvl=error": 9256,
      "original_": 9257,
      "Status.": 9258,
      "_dict['": 9259,
      "socket.": 9260,
      "Iterator": 9261,
      "iter(int(number": 9262,
      "re.compile('^": 9263,
      ")ĠasĠf": 9264,
      "VariantAnnotation": 9265,
      "visible": 9266,
      "job.addChild": 9267,
      "s=s.replace('": 9268,
      "raise_for_status(": 9269,
      "']='TheĠauthorsĠdeclareĠthatĠnoĠcompetingĠinterestsĠexist.": 9270,
      "equipamento": 9271,
      "mysql_": 9272,
      "Continu": 9273,
      "Float": 9274,
      "(args": 9275,
      ",n,": 9276,
      ".\\n": 9277,
      ".max_": 9278,
      ".output": 9279,
      ".in_": 9280,
      ".element": 9281,
      ".init_": 9282,
      "2),": 9283,
      "2].": 9284,
      "=\\": 9285,
      "=i,": 9286,
      "=z,": 9287,
      "DT": 9288,
      "GT": 9289,
      "Na": 9290,
      "Zip": 9291,
      "a]": 9292,
      "ain": 9293,
      "bum": 9294,
      "bran": 9295,
      "b=.": 9296,
      "hub": 9297,
      "k<": 9298,
      "km": 9299,
      "nc.": 9300,
      "od": 9301,
      "ound(": 9302,
      "q='": 9303,
      "s}'.format(": 9304,
      "v(": 9305,
      "y._": 9306,
      "z))": 9307,
      "Ġ*": 9308,
      "ĠareĠ": 9309,
      "atalog": 9310,
      "enci": 9311,
      "ree_": 9312,
      "annel": 9313,
      "gest_": 9314,
      "for_type": 9315,
      "Ġinitial": 9316,
      "._generate_": 9317,
      "',str(": 9318,
      "covar": 9319,
      "ped_": 9320,
      "dio": 9321,
      "str(_)": 9322,
      "=None;.": 9323,
      "tob": 9324,
      ".sc": 9325,
      ".sig": 9326,
      "tic": 9327,
      "data']": 9328,
      "result_": 9329,
      "time,": 9330,
      "();j=": 9331,
      "()ĠifĠ": 9332,
      "k.id": 9333,
      "{}_": 9334,
      "')).": 9335,
      "[0],'": 9336,
      "-1,1": 9337,
      "andid": 9338,
      "_site": 9339,
      "_id,:": 9340,
      "predict": 9341,
      "os.path.get": 9342,
      "max()": 9343,
      "info['": 9344,
      "cast_": 9345,
      ".writ": 9346,
      "errorĠ": 9347,
      "text='": 9348,
      "runĠ": 9349,
      "float(i": 9350,
      "pyvl": 9351,
      "[k]*": 9352,
      "]);excĠ": 9353,
      "status':'": 9354,
      "data_path": 9355,
      "events(": 9356,
      ");excĠExceptionĠasĠe": 9357,
      "column,": 9358,
      "=np.where(": 9359,
      "s',base_url=._api": 9360,
      "Unit": 9361,
      "command==": 9362,
      "(*args,**": 9363,
      "k[-1]": 9364,
      "lon,": 9365,
      "g_val": 9366,
      "Channel": 9367,
      "keys())": 9368,
      "')}else:": 9369,
      "FILE": 9370,
      "ACH": 9371,
      ".log.info('": 9372,
      "SEPAR": 9373,
      ".b64": 9374,
      ")ĠifĠ_": 9375,
      "used_": 9376,
      "weights=": 9377,
[...]
