{
  "version": "1.0",
  "truncation": null,
  "padding": null,
  "added_tokens": [
    {
      "id": 0,
      "content": "<unk>",
      "single_word": false,
      "lstrip": false,
      "rstrip": false,
      "normalized": false,
      "special": true
    }
  ],
  "normalizer": null,
  "pre_tokenizer": {
    "type": "ByteLevel",
    "add_prefix_space": false,
    "trim_offsets": true,
    "use_regex": false
  },
  "post_processor": null,
  "decoder": {
    "type": "ByteLevel",
    "add_prefix_space": true,
    "trim_offsets": true,
    "use_regex": true
  },
  "model": {
    "type": "BPE",
    "dropout": null,
    "unk_token": "<unk>",
    "continuing_subword_prefix": null,
    "end_of_word_suffix": null,
    "fuse_unk": false,
    "byte_fallback": true,
    "ignore_merges": false,
    "vocab": {
      "<unk>": 0,
      "!": 1,
      "\"": 2,
      "#": 3,
      "$": 4,
      "%": 5,
      "&": 6,
      "'": 7,
      "(": 8,
      ")": 9,
      "*": 10,
      "+": 11,
      ",": 12,
      "-": 13,
      ".": 14,
      "/": 15,
      "0": 16,
      "1": 17,
      "2": 18,
      "3": 19,
      "4": 20,
      "5": 21,
      "6": 22,
      "7": 23,
      "8": 24,
      "9": 25,
      ":": 26,
      ";": 27,
      "<": 28,
      "=": 29,
      ">": 30,
      "?": 31,
      "@": 32,
      "A": 33,
      "B": 34,
      "C": 35,
      "D": 36,
      "E": 37,
      "F": 38,
      "G": 39,
      "H": 40,
      "I": 41,
      "J": 42,
      "K": 43,
      "L": 44,
      "M": 45,
      "N": 46,
      "O": 47,
      "P": 48,
      "Q": 49,
      "R": 50,
      "S": 51,
      "T": 52,
      "U": 53,
      "V": 54,
      "W": 55,
      "X": 56,
      "Y": 57,
      "Z": 58,
      "[": 59,
      "\\": 60,
      "]": 61,
      "^": 62,
      "_": 63,
      "`": 64,
      "a": 65,
      "b": 66,
      "c": 67,
      "d": 68,
      "e": 69,
      "f": 70,
      "g": 71,
      "h": 72,
      "i": 73,
      "j": 74,
      "k": 75,
      "l": 76,
      "m": 77,
      "n": 78,
      "o": 79,
      "p": 80,
      "q": 81,
      "r": 82,
      "s": 83,
      "t": 84,
      "u": 85,
      "v": 86,
      "w": 87,
      "x": 88,
      "y": 89,
      "z": 90,
      "{": 91,
      "|": 92,
      "}": 93,
      "~": 94,
      "¡": 95,
      "¢": 96,
      "£": 97,
      "¤": 98,
      "¥": 99,
      "¦": 100,
      "§": 101,
      "¨": 102,
      "©": 103,
      "ª": 104,
      "«": 105,
      "¬": 106,
      "®": 107,
      "¯": 108,
      "°": 109,
      "±": 110,
      "²": 111,
      "³": 112,
      "´": 113,
      "µ": 114,
      "¶": 115,
      "·": 116,
      "¸": 117,
      "¹": 118,
      "º": 119,
      "»": 120,
      "¼": 121,
      "½": 122,
      "¾": 123,
      "¿": 124,
      "À": 125,
      "Á": 126,
      "Â": 127,
      "Ã": 128,
      "Ä": 129,
      "Å": 130,
      "Æ": 131,
      "Ç": 132,
      "È": 133,
      "É": 134,
      "Ê": 135,
      "Ë": 136,
      "Ì": 137,
      "Í": 138,
      "Î": 139,
      "Ï": 140,
      "Ð": 141,
      "Ñ": 142,
      "Ò": 143,
      "Ó": 144,
      "Ô": 145,
      "Õ": 146,
      "Ö": 147,
      "×": 148,
      "Ø": 149,
      "Ù": 150,
      "Ú": 151,
      "Û": 152,
      "Ü": 153,
      "Ý": 154,
      "Þ": 155,
      "ß": 156,
      "à": 157,
      "á": 158,
      "â": 159,
      "ã": 160,
      "ä": 161,
      "å": 162,
      "æ": 163,
      "ç": 164,
      "è": 165,
      "é": 166,
      "ê": 167,
      "ë": 168,
      "ì": 169,
      "í": 170,
      "î": 171,
      "ï": 172,
      "ð": 173,
      "ñ": 174,
      "ò": 175,
      "ó": 176,
      "ô": 177,
      "õ": 178,
      "ö": 179,
      "÷": 180,
      "ø": 181,
      "ù": 182,
      "ú": 183,
      "û": 184,
      "ü": 185,
      "ý": 186,
      "þ": 187,
      "ÿ": 188,
      "Ā": 189,
      "ā": 190,
      "Ă": 191,
      "ă": 192,
      "Ą": 193,
      "ą": 194,
      "Ć": 195,
      "ć": 196,
      "Ĉ": 197,
      "ĉ": 198,
      "Ċ": 199,
      "ċ": 200,
      "Č": 201,
      "č": 202,
      "Ď": 203,
      "ď": 204,
      "Đ": 205,
      "đ": 206,
      "Ē": 207,
      "ē": 208,
      "Ĕ": 209,
      "ĕ": 210,
      "Ė": 211,
      "ė": 212,
      "Ę": 213,
      "ę": 214,
      "Ě": 215,
      "ě": 216,
      "Ĝ": 217,
      "ĝ": 218,
      "Ğ": 219,
      "ğ": 220,
      "Ġ": 221,
      "ġ": 222,
      "Ģ": 223,
      "ģ": 224,
      "Ĥ": 225,
      "ĥ": 226,
      "Ħ": 227,
      "ħ": 228,
      "Ĩ": 229,
      "ĩ": 230,
      "Ī": 231,
      "ī": 232,
      "Ĭ": 233,
      "ĭ": 234,
      "Į": 235,
      "į": 236,
      "İ": 237,
      "ı": 238,
      "Ĳ": 239,
      "ĳ": 240,
      "Ĵ": 241,
      "ĵ": 242,
      "Ķ": 243,
      "ķ": 244,
      "ĸ": 245,
      "Ĺ": 246,
      "ĺ": 247,
      "Ļ": 248,
      "ļ": 249,
      "Ľ": 250,
      "ľ": 251,
      "Ŀ": 252,
      "ŀ": 253,
      "Ł": 254,
      "ł": 255,
      "Ń": 256,
      "in": 257,
      ");": 258,
      "on": 259,
      "at": 260,
      "er": 261,
      "or": 262,
      "en": 263,
      "st": 264,
      "se": 265,
      "re": 266,
      "if": 267,
      "ifĠ": 268,
      "al": 269,
      "ar": 270,
      "me": 271,
      "le": 272,
      "de": 273,
      "it": 274,
      "){": 275,
      "an": 276,
      "ge": 277,
      "ion": 278,
      "ce": 279,
      "('": 280,
      "for": 281,
      "ue": 282,
      "Ġin": 283,
      "lo": 284,
      "t_": 285,
      "el": 286,
      "._": 287,
      "',": 288,
      "ame": 289,
      "ĠinĠ": 290,
      "ct": 291,
      "fi": 292,
      "co": 293,
      "s.": 294,
      "ex": 295,
      "_=": 296,
      "pe": 297,
      "as": 298,
      "ro": 299,
      "ad": 300,
      "['": 301,
      "s(": 302,
      "ot": 303,
      "']": 304,
      "ent": 305,
      "ut": 306,
      "forĠ": 307,
      "ra": 308,
      "='": 309,
      "ate": 310,
      "id": 311,
      "one": 312,
      "is": 313,
      "ch": 314,
      "name": 315,
      "con": 316,
      "ing": 317,
      "un": 318,
      "None": 319,
      ");ifĠ": 320,
      "tr": 321,
      "ur": 322,
      "val": 323,
      "_.": 324,
      "ap": 325,
      "li": 326,
      "ĠĠ": 327,
      "k=": 328,
      ")}": 329,
      "ype": 330,
      "mp": 331,
      "];": 332,
      "di": 333,
      "ata": 334,
      "not": 335,
      "d_": 336,
      "':": 337,
      "str": 338,
      "arg": 339,
      "=None": 340,
      ",'": 341,
      "d(": 342,
      "ror": 343,
      "t(": 344,
      "to": 345,
      ".s": 346,
      "ck": 347,
      "um": 348,
      "up": 349,
      "mat": 350,
      "','": 351,
      "ti": 352,
      "len": 353,
      "seĠ": 354,
      "pat": 355,
      "ser": 356,
      "th": 357,
      "data": 358,
      "notĠ": 359,
      ".ge": 360,
      "mo": 361,
      "type": 362,
      ");>": 363,
      "ma": 364,
      "(_": 365,
      "p.": 366,
      "):": 367,
      "s_": 368,
      "value": 369,
      "ab": 370,
      "x=": 371,
      "path": 372,
      "par": 373,
      "Er": 374,
      "Error": 375,
      "),": 376,
      "ter": 377,
      "pen": 378,
      "pt": 379,
      "ver": 380,
      "log": 381,
      "dĠ": 382,
      "file": 383,
      "s,": 384,
      "e_": 385,
      "s=": 386,
      "){ifĠ": 387,
      "ey": 388,
      "res": 389,
      "ul": 390,
      "');": 391,
      "else": 392,
      "));": 393,
      "(k": 394,
      "rai": 395,
      "po": 396,
      "y=": 397,
      "np.": 398,
      ";ifĠ": 399,
      "[0": 400,
      "si": 401,
      "pl": 402,
      "format": 403,
      "te": 404,
      "ption": 405,
      "ation": 406,
      "%s": 407,
      "raiseĠ": 408,
      "'.": 409,
      "ance": 410,
      "time": 411,
      "ob": 412,
      "Tr": 413,
      "il": 414,
      "();": 415,
      "=None,": 416,
      "ta": 417,
      "()": 418,
      "(.": 419,
      "cl": 420,
      "k.": 421,
      "alse": 422,
      "True": 423,
      "pro": 424,
      "False": 425,
      "ĠforĠ": 426,
      "==": 427,
      "ite": 428,
      "stance": 429,
      "do": 430,
      "args": 431,
      "{}": 432,
      "ne": 433,
      "ext": 434,
      "ction": 435,
      "ol": 436,
      "appen": 437,
      "list": 438,
      "eĠ": 439,
      "')": 440,
      "){_=": 441,
      "]=": 442,
      "set": 443,
      "key": 444,
      "x,": 445,
      "ĠĠĠĠ": 446,
      "ss": 447,
      "**": 448,
      "{ifĠ": 449,
      "ip": 450,
      "&&": 451,
      "date": 452,
      "ub": 453,
      "fa": 454,
      "else:": 455,
      "kw": 456,
      "y_": 457,
      "x.": 458,
      "able": 459,
      "que": 460,
      "instance": 461,
      "am": 462,
      "no": 463,
      "obj": 464,
      "qu": 465,
      "exc": 466,
      "try": 467,
      "vi": 468,
      "del": 469,
      "append(": 470,
      "che": 471,
      "cal": 472,
      "ve": 473,
      "[0]": 474,
      "age": 475,
      ".re": 476,
      "get": 477,
      ":>": 478,
      "';": 479,
      "_name": 480,
      "sĠ": 481,
      "col": 482,
      "fig": 483,
      "'%": 484,
      "bu": 485,
      "y.": 486,
      "ri": 487,
      "'.format": 488,
      "cont": 489,
      "))": 490,
      "ze": 491,
      "len(": 492,
      "os.": 493,
      "-1": 494,
      ":Ġ": 495,
      "ord": 496,
      "per": 497,
      "Re": 498,
      "ith": 499,
      ".c": 500,
      "asĠ": 501,
      "out": 502,
      "ba": 503,
      "s[": 504,
      "']=": 505,
      "ha": 506,
      "get_": 507,
      "z=": 508,
      ",_": 509,
      "fo": 510,
      ".get_": 511,
      "and": 512,
      "attr": 513,
      "sc": 514,
      ",:": 515,
      "ist": 516,
      "et": 517,
      "00": 518,
      "kwargs": 519,
      "ception": 520,
      "elifĠ": 521,
      "url": 522,
      "sion": 523,
      ".get": 524,
      "with": 525,
      "Ex": 526,
      "ingĠ": 527,
      "pa": 528,
      "isinstance": 529,
      "ment": 530,
      "he": 531,
      "rom": 532,
      "quest": 533,
      "er_": 534,
      "ig": 535,
      "excĠ": 536,
      "config": 537,
      "y(": 538,
      "oin": 539,
      "Val": 540,
      "code": 541,
      "lin": 542,
      "ent_": 543,
      "y,": 544,
      "er.": 545,
      "ed": 546,
      "bo": 547,
      "\\n": 548,
      ":raiseĠ": 549,
      "_s": 550,
      "load": 551,
      "item": 552,
      "_ĠinĠ": 553,
      "ect": 554,
      "our": 555,
      "[1": 556,
      "logg": 557,
      "||": 558,
      "}}": 559,
      "star": 560,
      "com": 561,
      "Error('": 562,
      "_id": 563,
      "join": 564,
      "_['": 565,
      "{'": 566,
      "of": 567,
      "ile": 568,
      "from": 569,
      "ĠasĠ": 570,
      "'.format(": 571,
      "=.": 572,
      "inde": 573,
      "ic": 574,
      "In": 575,
      "int": 576,
      "end": 577,
      "k,": 578,
      "model": 579,
      "=1": 580,
      "pre": 581,
      "put": 582,
      "ran": 583,
      "ult": 584,
      ";>": 585,
      "isinstance(": 586,
      "[];": 587,
      "dict": 588,
      "os.path": 589,
      "ass": 590,
      "son": 591,
      "Value": 592,
      "var": 593,
      "user": 594,
      "ource": 595,
      "],": 596,
      "ib": 597,
      "all": 598,
      "read": 599,
      "=True": 600,
      "dir": 601,
      "max": 602,
      "atu": 603,
      "fin": 604,
      "request": 605,
      "se_": 606,
      "ht": 607,
      "info": 608,
      "fiel": 609,
      "=False": 610,
      "ĠifĠ": 611,
      "ho": 612,
      "ca": 613,
      "isĠ": 614,
      "du": 615,
      "ate_": 616,
      "--": 617,
      "er(": 618,
      "fun": 619,
      ".__": 620,
      ".se": 621,
      "ER": 622,
      "int(": 623,
      "json": 624,
      "Exception": 625,
      "0,": 626,
      "_,": 627,
      ");_=": 628,
      "**kwargs": 629,
      "_[": 630,
      "os.path.": 631,
      ").": 632,
      "i=": 633,
      "string": 634,
      "num": 635,
      ".w": 636,
      "tĠ": 637,
      "la": 638,
      "comm": 639,
      "plit": 640,
      "flo": 641,
      "error": 642,
      "min": 643,
      "'+": 644,
      "hape": 645,
      "toĠ": 646,
      "valid": 647,
      "node": 648,
      "to_": 649,
      ",.": 650,
      "es": 651,
      "__": 652,
      "update": 653,
      "=='": 654,
      "index": 655,
      "ces": 656,
      "text": 657,
      "size": 658,
      "(x": 659,
      "yĠ": 660,
      ".de": 661,
      "i,": 662,
      "run": 663,
      "roup": 664,
      "add_": 665,
      "bug": 666,
      "ust": 667,
      "fil": 668,
      "::": 669,
      "){k=": 670,
      "}>": 671,
      ";forĠ": 672,
      "pla": 673,
      "try:": 674,
      "ition": 675,
      "(_,": 676,
      "comp": 677,
      "w_": 678,
      "cre": 679,
      "ct_": 680,
      "j=": 681,
      "defa": 682,
      "head": 683,
      "].": 684,
      "amp": 685,
      "start": 686,
      "':'": 687,
      "vice": 688,
      "kĠinĠ": 689,
      "arra": 690,
      "Con": 691,
      "ctor": 692,
      "version": 693,
      "(s": 694,
      "ev": 695,
      "pr": 696,
      "wh": 697,
      "ument": 698,
      "lename": 699,
      "param": 700,
      "db": 701,
      "float": 702,
      "ence": 703,
      ";_=": 704,
      "else{": 705,
      "');ifĠ": 706,
      "ĠisĠ": 707,
      "aut": 708,
      "ĠĠĠĠĠĠĠĠ": 709,
      "[_": 710,
      ");k=": 711,
      "tag": 712,
      "imp": 713,
      ")}>": 714,
      ".split": 715,
      "back": 716,
      "filename": 717,
      "[i": 718,
      "sy": 719,
      "ort": 720,
      "elseĠ": 721,
      "\\\\": 722,
      "object": 723,
      "py": 724,
      "Co": 725,
      "im": 726,
      "withĠ": 727,
      "xĠinĠ": 728,
      "+1": 729,
      "])": 730,
      "rap": 731,
      "sub": 732,
      "ref": 733,
      "is_": 734,
      "+'": 735,
      "(_)": 736,
      "has": 737,
      "pi": 738,
      "open": 739,
      "pon": 740,
      "logger.": 741,
      "Type": 742,
      "[:": 743,
      "line": 744,
      "IN": 745,
      ");forĠ": 746,
      "ute": 747,
      "sh": 748,
      "ber": 749,
      "s)": 750,
      "ON": 751,
      "ve_": 752,
      "field": 753,
      "group": 754,
      "gen": 755,
      "pass": 756,
      "lab": 757,
      "c_": 758,
      "ken": 759,
      "filter": 760,
      "str(": 761,
      "join(": 762,
      "call": 763,
      "coun": 764,
      "z,": 765,
      "%s'%": 766,
      "ssage": 767,
      "ac": 768,
      "low": 769,
      "AT": 770,
      "ask": 771,
      "ofĠ": 772,
      "}ifĠ": 773,
      "notĠinĠ": 774,
      "range": 775,
      "St": 776,
      "add": 777,
      "ize": 778,
      ".0": 779,
      "s:": 780,
      "ator": 781,
      "a=": 782,
      "ate(": 783,
      "wor": 784,
      "word": 785,
      "'ĠinĠ": 786,
      "+=": 787,
      "st_": 788,
      "Name": 789,
      "cur": 790,
      "ST": 791,
      "p_": 792,
      "cli": 793,
      "iĠinĠ": 794,
      "s']": 795,
      "rite": 796,
      ".get('": 797,
      "wn": 798,
      "ut_": 799,
      "Ġb": 800,
      "label": 801,
      "{_=": 802,
      "ĠelseĠ": 803,
      "RE": 804,
      "_type": 805,
      "name,": 806,
      "ĠforĠ_ĠinĠ": 807,
      "aĠ": 808,
      "Key": 809,
      "token": 810,
      "header": 811,
      "ure": 812,
      "!=": 813,
      "z.": 814,
      "theĠ": 815,
      "scri": 816,
      "ĠnotĠinĠ": 817,
      "ie": 818,
      "{0": 819,
      "check": 820,
      "[k": 821,
      ");.": 822,
      "default": 823,
      "quer": 824,
      ";k=": 825,
      "E_": 826,
      "option": 827,
      "message": 828,
      "tho": 829,
      "map": 830,
      "lock": 831,
      "i.": 832,
      "_file": 833,
      "?:": 834,
      "):>": 835,
      "hand": 836,
      ",Ġ": 837,
      "asser": 838,
      "der": 839,
      "color": 840,
      "ans": 841,
      "ValueError('": 842,
      "]);": 843,
      "ial": 844,
      "c=": 845,
      "ag": 846,
      "set_": 847,
      "temp": 848,
      "ax": 849,
      "];ifĠ": 850,
      "place": 851,
      "Data": 852,
      "conne": 853,
      "vel": 854,
      "ssion": 855,
      "statu": 856,
      "dule": 857,
      "arch": 858,
      "iter": 859,
      "strip": 860,
      "dis": 861,
      "respon": 862,
      "items(": 863,
      "_re": 864,
      "d.": 865,
      "ive": 866,
      "=_": 867,
      "op": 868,
      "be": 869,
      "it_": 870,
      "metho": 871,
      ");ifĠnotĠ": 872,
      "l_": 873,
      "table": 874,
      "set(": 875,
      "clas": 876,
      "(k,": 877,
      "{0}": 878,
      "lement": 879,
      "data_": 880,
      "bug('": 881,
      "e.": 882,
      "arn": 883,
      "(y": 884,
      "m.": 885,
      ")}ifĠ": 886,
      "pos": 887,
      "(){": 888,
      "sig": 889,
      "d('": 890,
      "(f": 891,
      "dire": 892,
      "assertĠ": 893,
      "ron": 894,
      "b=": 895,
      "99": 896,
      "DE": 897,
      "10": 898,
      "event": 899,
      "auth": 900,
      "a,": 901,
      "){ifĠnotĠ": 902,
      ");_.": 903,
      "loc": 904,
      "iel": 905,
      "action": 906,
      "ameter": 907,
      "umn": 908,
      "match": 909,
      "by": 910,
      "we": 911,
      "und": 912,
      "De": 913,
      "ak": 914,
      "args,": 915,
      "lat": 916,
      "ject": 917,
      "tar": 918,
      "chan": 919,
      "mage": 920,
      ".read": 921,
      "[1]": 922,
      "%sĠ": 923,
      ".shape": 924,
      "inter": 925,
      "=None){": 926,
      "k['": 927,
      "OR": 928,
      "ang": 929,
      "Ġ'": 930,
      "app": 931,
      ");excĠ": 932,
      "em": 933,
      "put_": 934,
      ",s": 935,
      "dtype": 936,
      "tit": 937,
      ");x=": 938,
      ");>_": 939,
      "[];forĠ": 940,
      "Lo": 941,
      "argument": 942,
      "column": 943,
      "{k=": 944,
      "info('": 945,
      "fromĠ": 946,
      "cond": 947,
      "io": 948,
      "contin": 949,
      "nor": 950,
      "wa": 951,
      "n,": 952,
      "(x,": 953,
      "'],": 954,
      "'];": 955,
      "state": 956,
      "=np.": 957,
      "ileĠ": 958,
      "ep": 959,
      "):raiseĠ": 960,
      "t.": 961,
      "exist": 962,
      "){forĠ": 963,
      "pect": 964,
      "le_": 965,
      "bin": 966,
      "iz": 967,
      "from_": 968,
      "=0": 969,
      "args.": 970,
      "content": 971,
      "lic": 972,
      "fix": 973,
      "trans": 974,
      "api": 975,
      "EN": 976,
      "Id": 977,
      "j,": 978,
      "list(": 979,
      "input": 980,
      "ID": 981,
      "n_": 982,
      "ed_": 983,
      "swith": 984,
      "module": 985,
      "func": 986,
      "hel": 987,
      "))}": 988,
      "logging": 989,
      "exception": 990,
      "da": 991,
      "gth": 992,
      "(1": 993,
      "{forĠ": 994,
      "();ifĠ": 995,
      ".get(": 996,
      "base": 997,
      "m_": 998,
      "[0];": 999,
      "vari": 1000,
      "Se": 1001,
      "continue": 1002,
      "ĠtoĠ": 1003,
      "al_": 1004,
      ":_=": 1005,
      "gin": 1006,
      "act": 1007,
      "raph": 1008,
      "source": 1009,
      "plo": 1010,
      "qui": 1011,
      "work": 1012,
      ".split('": 1013,
      "s',": 1014,
      "Par": 1015,
      "ff": 1016,
      "ok": 1017,
      "level": 1018,
      "ream": 1019,
      "must": 1020,
      "_.append(": 1021,
      ";else:": 1022,
      "row": 1023,
      "impĠ": 1024,
      ");else:": 1025,
      "buil": 1026,
      "uple": 1027,
      ".set_": 1028,
      "edĠ": 1029,
      "rame": 1030,
      "ibute": 1031,
      "_path": 1032,
      "Un": 1033,
      "lete": 1034,
      "b.": 1035,
      "response": 1036,
      "[x": 1037,
      "method": 1038,
      "+=1": 1039,
      "pack": 1040,
      "wid": 1041,
      "pec": 1042,
      "yĠinĠ": 1043,
      ">0": 1044,
      "yiel": 1045,
      "mode": 1046,
      "max_": 1047,
      "us": 1048,
      ":.": 1049,
      "parameter": 1050,
      "whileĠ": 1051,
      "No": 1052,
      "mar": 1053,
      "m=": 1054,
      ";.": 1055,
      "T_": 1056,
      "pop": 1057,
      "(c": 1058,
      "ec": 1059,
      "x)": 1060,
      "(._": 1061,
      "stor": 1062,
      "File": 1063,
      ");._": 1064,
      "enum": 1065,
      "sup": 1066,
      "image": 1067,
      "s['": 1068,
      "command": 1069,
      "port": 1070,
      "number": 1071,
      "=._": 1072,
      "==0": 1073,
      "count": 1074,
      "ll": 1075,
      "title": 1076,
      "curr": 1077,
      "(\"": 1078,
      "..": 1079,
      "proces": 1080,
      "get('": 1081,
      "cache": 1082,
      "ext(": 1083,
      "AL": 1084,
      "ml": 1085,
      "ample": 1086,
      "yieldĠ": 1087,
      "AR": 1088,
      "end(": 1089,
      "(*": 1090,
      "stream": 1091,
      "parse": 1092,
      "result": 1093,
      "output": 1094,
      "s()": 1095,
      "host": 1096,
      "lose": 1097,
      "_)": 1098,
      "){x=": 1099,
      "ting": 1100,
      "scription": 1101,
      "ast": 1102,
      "uid": 1103,
      "late": 1104,
      "getattr": 1105,
      ".f": 1106,
      ";x=": 1107,
      "try{": 1108,
      "man": 1109,
      "+='": 1110,
      "load_": 1111,
      "cess": 1112,
      "ValueError": 1113,
      "tain": 1114,
      "'):": 1115,
      "lob": 1116,
      "ero": 1117,
      "sor": 1118,
      "session": 1119,
      "range(": 1120,
      "tra": 1121,
      "service": 1122,
      "ing_": 1123,
      "iv": 1124,
      "//": 1125,
      "block": 1126,
      "ĠofĠ": 1127,
      "reg": 1128,
      ")}}": 1129,
      ");y=": 1130,
      "reak": 1131,
      "ES": 1132,
      "t,": 1133,
      "sys.": 1134,
      "ĠbeĠ": 1135,
      "tp": 1136,
      "tuple": 1137,
      "doc": 1138,
      "pace": 1139,
      ".append(": 1140,
      "!:": 1141,
      "meta": 1142,
      "=False,": 1143,
      "mis": 1144,
      "->": 1145,
      "2,": 1146,
      "array(": 1147,
      "'Ġ": 1148,
      "ude": 1149,
      "k[": 1150,
      "(k)": 1151,
      "'{": 1152,
      "point": 1153,
      "gener": 1154,
      "=None){ifĠ": 1155,
      "cor": 1156,
      "stat": 1157,
      "rit": 1158,
      "help": 1159,
      "break": 1160,
      "n=": 1161,
      "lim": 1162,
      "np": 1163,
      "length": 1164,
      "datetime": 1165,
      "-1]": 1166,
      "lu": 1167,
      "form": 1168,
      "(z": 1169,
      "_:": 1170,
      "swith('": 1171,
      "1,": 1172,
      "Mo": 1173,
      ":raiseĠValueError('": 1174,
      "viron": 1175,
      "end_": 1176,
      "lon": 1177,
      "ant": 1178,
      "timeout": 1179,
      "(b": 1180,
      "ET": 1181,
      "ight": 1182,
      "ler": 1183,
      "in_": 1184,
      "En": 1185,
      "ature": 1186,
      "task": 1187,
      "move": 1188,
      "mak": 1189,
      "Th": 1190,
      "Set": 1191,
      "om": 1192,
      ".write": 1193,
      "y)": 1194,
      "mem": 1195,
      "are": 1196,
      ",k": 1197,
      "');>": 1198,
      "gr": 1199,
      "char": 1200,
      "exec": 1201,
      "oth": 1202,
      "yn": 1203,
      "cle": 1204,
      "Ġs": 1205,
      "(m": 1206,
      "erence": 1207,
      "adata": 1208,
      "resource": 1209,
      "const": 1210,
      "::'": 1211,
      "chema": 1212,
      "(),": 1213,
      "enumer": 1214,
      "'}": 1215,
      "byte": 1216,
      "tur": 1217,
      "get(": 1218,
      "arning": 1219,
      ")ĠforĠ": 1220,
      "k='": 1221,
      "tre": 1222,
      "g_": 1223,
      "ime": 1224,
      "context": 1225,
      "(value": 1226,
      "ly": 1227,
      "Di": 1228,
      "lea": 1229,
      "cod": 1230,
      "function": 1231,
      "zero": 1232,
      "s=None,": 1233,
      "uni": 1234,
      "args,**kwargs": 1235,
      "_f": 1236,
      "Pro": 1237,
      "util": 1238,
      "width": 1239,
      "environ": 1240,
      "AN": 1241,
      "a.": 1242,
      "target": 1243,
      "root": 1244,
      "UR": 1245,
      "off": 1246,
      "ew": 1247,
      "ity": 1248,
      "(i": 1249,
      "At": 1250,
      "mot": 1251,
      "quire": 1252,
      "k:": 1253,
      "mustĠbeĠ": 1254,
      "ect_": 1255,
      "ent.": 1256,
      ".cre": 1257,
      "Num": 1258,
      "nel": 1259,
      "space": 1260,
      "Not": 1261,
      "sign": 1262,
      "met": 1263,
      "List": 1264,
      "][": 1265,
      "password": 1266,
      "parse_": 1267,
      "post": 1268,
      ".value": 1269,
      "SI": 1270,
      "));ifĠ": 1271,
      "_de": 1272,
      "s':": 1273,
      "andĠ": 1274,
      "e(": 1275,
      "r=": 1276,
      "s){": 1277,
      "ind": 1278,
      "write": 1279,
      "{}'.format(": 1280,
      "Ġ{": 1281,
      "server": 1282,
      "c.": 1283,
      "bool": 1284,
      "emp": 1285,
      "x_": 1286,
      "type(": 1287,
      ")=": 1288,
      "local": 1289,
      ".p": 1290,
      "AS": 1291,
      "PE": 1292,
      "contain": 1293,
      "55": 1294,
      "setting": 1295,
      "order": 1296,
      "env": 1297,
      "exp": 1298,
      "new": 1299,
      ".Ġ": 1300,
      "ock": 1301,
      "'.join(": 1302,
      "dif": 1303,
      "x:": 1304,
      "lection": 1305,
      ";y=": 1306,
      "ci": 1307,
      "axis": 1308,
      ";elifĠ": 1309,
      "LO": 1310,
      "metadata": 1311,
      "]['": 1312,
      "ou": 1313,
      "main": 1314,
      "face": 1315,
      "'){": 1316,
      ",c": 1317,
      "director": 1318,
      "p=": 1319,
      "check_": 1320,
      "mon": 1321,
      "cho": 1322,
      "Ch": 1323,
      "'),": 1324,
      "open(": 1325,
      "]}": 1326,
      "j.": 1327,
      "orĠ": 1328,
      "((": 1329,
      "extra": 1330,
      ";._": 1331,
      "._get_": 1332,
      "position": 1333,
      "update(": 1334,
      "';ifĠ": 1335,
      "su": 1336,
      "id_": 1337,
      "&&notĠ": 1338,
      "Ob": 1339,
      "s{": 1340,
      "uration": 1341,
      ".format": 1342,
      "']='": 1343,
      "_key": 1344,
      "ild": 1345,
      "array": 1346,
      "zip": 1347,
      "s','": 1348,
      "Ar": 1349,
      "unit": 1350,
      "lower": 1351,
      "'));": 1352,
      "=k": 1353,
      "cord": 1354,
      ");z=": 1355,
      "_C": 1356,
      ");ifĠ_": 1357,
      "os.path.join(": 1358,
      "PI": 1359,
      "]+": 1360,
      "data,": 1361,
      "or_": 1362,
      "unk": 1363,
      "Me": 1364,
      "ms": 1365,
      "x['": 1366,
      "an_": 1367,
      "connection": 1368,
      "!{": 1369,
      "queue": 1370,
      "av": 1371,
      "condition": 1372,
      "page": 1373,
      "stru": 1374,
      "());": 1375,
      "s[i": 1376,
      "ave": 1377,
      "erĠ": 1378,
      "down": 1379,
      "f.": 1380,
      "(_.": 1381,
      "x[": 1382,
      "keys(": 1383,
      "Exception('": 1384,
      "parser": 1385,
      "help='": 1386,
      "http": 1387,
      "init": 1388,
      ".debug('": 1389,
      "LE": 1390,
      "FI": 1391,
      ")}else:": 1392,
      "logger.de": 1393,
      "nu": 1394,
      "tern": 1395,
      ",_,": 1396,
      "search": 1397,
      "pth": 1398,
      "zĠinĠ": 1399,
      "addres": 1400,
      "Attr": 1401,
      "TI": 1402,
      "AM": 1403,
      "glob": 1404,
      ")*": 1405,
      "fir": 1406,
      ");elifĠ": 1407,
      "description": 1408,
      "ĠasĠe": 1409,
      "variable": 1410,
      "ibut": 1411,
      "}'.format(": 1412,
      "resh": 1413,
      ",**kwargs": 1414,
      "let": 1415,
      "conver": 1416,
      "mul": 1417,
      "vis": 1418,
      "proper": 1419,
      "on_": 1420,
      "raw": 1421,
      "change": 1422,
      "pha": 1423,
      "append('": 1424,
      "add_argument": 1425,
      "anal": 1426,
      "sist": 1427,
      "build_": 1428,
      "cop": 1429,
      "_id,": 1430,
      "element": 1431,
      "por": 1432,
      "Invalid": 1433,
      "_to_": 1434,
      "anĠ": 1435,
      "add_argument('": 1436,
      "b,": 1437,
      "l=": 1438,
      "by_": 1439,
      "frame": 1440,
      "job": 1441,
      "verbo": 1442,
      "dump": 1443,
      "AC": 1444,
      "');_=": 1445,
      "view": 1446,
      "[0],": 1447,
      "norm": 1448,
      "cls,": 1449,
      "Ġfile": 1450,
      ".log": 1451,
      "Run": 1452,
      "and_": 1453,
      "%d": 1454,
      "old": 1455,
      "hasattr": 1456,
      "_size": 1457,
      "yle": 1458,
      ")),": 1459,
      "RO": 1460,
      "clude": 1461,
      ".info('": 1462,
      "\"%": 1463,
      "encod": 1464,
      "kwargs.": 1465,
      "net": 1466,
      "[2": 1467,
      ".sub": 1468,
      "f_": 1469,
      "create_": 1470,
      "connect": 1471,
      "est": 1472,
      "ĠisĠnotĠ": 1473,
      "To": 1474,
      "ath": 1475,
      "add(": 1476,
      "----": 1477,
      "=True,": 1478,
      "(){_=": 1479,
      ".name": 1480,
      "fe": 1481,
      "dex": 1482,
      "run_": 1483,
      "];>": 1484,
      "c,": 1485,
      "pay": 1486,
      "k.append(": 1487,
      "json.": 1488,
      "retur": 1489,
      "place('": 1490,
      "),'": 1491,
      "top": 1492,
      "Error:": 1493,
      "s);": 1494,
      "uuid": 1495,
      "ph": 1496,
      "new_": 1497,
      "query": 1498,
      "require": 1499,
      "_value": 1500,
      "beĠ": 1501,
      "m,": 1502,
      "location": 1503,
      "extend(": 1504,
      "Res": 1505,
      "mail": 1506,
      "_data": 1507,
      "().": 1508,
      "32": 1509,
      "));>": 1510,
      "dict(": 1511,
      "Time": 1512,
      "ull": 1513,
      "!='": 1514,
      "cat": 1515,
      "for_": 1516,
      "analy": 1517,
      "{}Ġ": 1518,
      "shape": 1519,
      "stamp": 1520,
      "')}": 1521,
      "start_": 1522,
      "startswith('": 1523,
      ",1": 1524,
      ".g": 1525,
      "SE": 1526,
      "ack": 1527,
      "update_": 1528,
      "\\nĠĠĠĠĠĠĠĠ": 1529,
      "ear": 1530,
      "md": 1531,
      "inst": 1532,
      "ext_": 1533,
      "np.s": 1534,
      "encode": 1535,
      "ary": 1536,
      "lag": 1537,
      "find_": 1538,
      "D_": 1539,
      "bod": 1540,
      "')ĠasĠ": 1541,
      "class": 1542,
      "style": 1543,
      "ific": 1544,
      "parent_": 1545,
      "(np.": 1546,
      "s/": 1547,
      "dest": 1548,
      "len(_)": 1549,
      "exists(": 1550,
      "verbose": 1551,
      "img": 1552,
      "pri": 1553,
      "lib": 1554,
      "cls": 1555,
      "quence": 1556,
      "PO": 1557,
      "Str": 1558,
      "template": 1559,
      "gra": 1560,
      "file_": 1561,
      "Attribute": 1562,
      "section": 1563,
      ";ifĠnotĠ": 1564,
      ")/": 1565,
      "utf": 1566,
      "str,": 1567,
      "name=": 1568,
      "parent": 1569,
      "channel": 1570,
      "struct": 1571,
      "An": 1572,
      "base_": 1573,
      "UN": 1574,
      "vĠinĠ": 1575,
      "err": 1576,
      "ty": 1577,
      "re.": 1578,
      "adi": 1579,
      "move_": 1580,
      "alpha": 1581,
      "input_": 1582,
      "jĠinĠ": 1583,
      "itĠ": 1584,
      "encoding": 1585,
      "TY": 1586,
      "zeros(": 1587,
      ".7": 1588,
      "MA": 1589,
      "enumerate(": 1590,
      "For": 1591,
      "plu": 1592,
      "payload": 1593,
      "}elifĠ": 1594,
      "==1": 1595,
      "'.join": 1596,
      "cr": 1597,
      "alĠ": 1598,
      "path,": 1599,
      "make_": 1600,
      "ult_": 1601,
      "']['": 1602,
      "output_": 1603,
      ".b": 1604,
      "p,": 1605,
      "(!": 1606,
      "ies": 1607,
      "ation_": 1608,
      "_name,": 1609,
      "lay": 1610,
      "client": 1611,
      "inser": 1612,
      "{ifĠnotĠ": 1613,
      "([": 1614,
      "4/": 1615,
      "y:": 1616,
      "rite_": 1617,
      "edge": 1618,
      "[1:": 1619,
      "dbs": 1620,
      "gist": 1621,
      "graph": 1622,
      "win": 1623,
      "');_.": 1624,
      "64": 1625,
      "mission": 1626,
      "20": 1627,
      "Ġ%": 1628,
      "delĠ": 1629,
      ".cur": 1630,
      "atch": 1631,
      "(y,": 1632,
      "-8": 1633,
      "DI": 1634,
      "int_": 1635,
      ".ser": 1636,
      "t=": 1637,
      "100": 1638,
      "uldĠ": 1639,
      "sel": 1640,
      "class_": 1641,
      "q=": 1642,
      "expect": 1643,
      "ols.": 1644,
      "sum": 1645,
      "it(": 1646,
      "igh": 1647,
      "rando": 1648,
      "Cont": 1649,
      "CO": 1650,
      ")}elifĠ": 1651,
      "0;": 1652,
      "logger.debug('": 1653,
      "_{": 1654,
      "cope": 1655,
      "prefix": 1656,
      ")ĠifĠ": 1657,
      ".add_": 1658,
      "force": 1659,
      "**2": 1660,
      "pub": 1661,
      "ren": 1662,
      "use": 1663,
      "'%s": 1664,
      "(:": 1665,
      "limit": 1666,
      "link": 1667,
      "(n": 1668,
      "spec": 1669,
      "onent": 1670,
      "field_": 1671,
      ")+": 1672,
      ")}excĠ": 1673,
      "ign": 1674,
      "Ġ'+": 1675,
      "cls.": 1676,
      "sele": 1677,
      "\\t": 1678,
      "ir": 1679,
      "_c": 1680,
      ".data": 1681,
      ".set": 1682,
      "print": 1683,
      ".d": 1684,
      "nump": 1685,
      ";_['": 1686,
      "x='": 1687,
      "handle": 1688,
      "URL": 1689,
      ".create_": 1690,
      "]*": 1691,
      "S_": 1692,
      "ifi": 1693,
      "offset": 1694,
      "Graph": 1695,
      "o_": 1696,
      "();forĠ": 1697,
      "ĠnotĠ": 1698,
      "lient": 1699,
      ")->": 1700,
      "Lif": 1701,
      "[]": 1702,
      "itor": 1703,
      "Object": 1704,
      "coord": 1705,
      "upper": 1706,
      "%s',": 1707,
      "datetime.": 1708,
      "mask": 1709,
      "raw_": 1710,
      "{};forĠ": 1711,
      "create": 1712,
      ".r": 1713,
      "er,": 1714,
      "lang": 1715,
      "Comp": 1716,
      "UL": 1717,
      "Config": 1718,
      "Ġ(": 1719,
      "4/e": 1720,
      "data=": 1721,
      "html": 1722,
      "device": 1723,
      "depth": 1724,
      "'%(": 1725,
      "_+=": 1726,
      "r,": 1727,
      "dim": 1728,
      "child": 1729,
      "10.7": 1730,
      "554/e": 1731,
      "10.7554/e": 1732,
      "10.7554/eLif": 1733,
      "wrap": 1734,
      "tail": 1735,
      "(.,": 1736,
      "User": 1737,
      "[.": 1738,
      "id,": 1739,
      "attribute": 1740,
      "(a": 1741,
      "entr": 1742,
      "sample": 1743,
      "multi": 1744,
      "ine": 1745,
      "(key": 1746,
      "reference": 1747,
      "s{ifĠ": 1748,
      "stdo": 1749,
      "timestamp": 1750,
      "cess_": 1751,
      "1}": 1752,
      "IO": 1753,
      "close": 1754,
      "ment_": 1755,
      "seq": 1756,
      "{x=": 1757,
      "r.": 1758,
      "fast": 1759,
      "sp": 1760,
      "ocket": 1761,
      "d=": 1762,
      "dat": 1763,
      "step": 1764,
      ";z=": 1765,
      "orig": 1766,
      "copy": 1767,
      ">=": 1768,
      "df": 1769,
      "ension": 1770,
      "){y=": 1771,
      "Request": 1772,
      "');k=": 1773,
      "CH": 1774,
      "Hand": 1775,
      "None,": 1776,
      "plugin": 1777,
      "y);": 1778,
      "split": 1779,
      ".__name": 1780,
      ";_.": 1781,
      "k)": 1782,
      "']);": 1783,
      "callback": 1784,
      "UT": 1785,
      "all_": 1786,
      "(j": 1787,
      "delete": 1788,
      "s']=": 1789,
      "hash": 1790,
      "cha": 1791,
      "tx": 1792,
      "config.": 1793,
      "can": 1794,
      "d,": 1795,
      "k,_": 1796,
      "':>": 1797,
      "utf-8": 1798,
      "mean": 1799,
      "as_": 1800,
      "ING": 1801,
      "VER": 1802,
      "gre": 1803,
      "che_": 1804,
      "9999": 1805,
      "author": 1806,
      "();>": 1807,
      "object_": 1808,
      "mb": 1809,
      "x);": 1810,
      "stem": 1811,
      "_+='": 1812,
      "use_": 1813,
      "stdout": 1814,
      "bit": 1815,
      "find('": 1816,
      "[:,": 1817,
      "Dict": 1818,
      ")&&": 1819,
      "}else:": 1820,
      "dbsException": 1821,
      "sv": 1822,
      "value,": 1823,
      "status_": 1824,
      "_info": 1825,
      "lv": 1826,
      "k(": 1827,
      ");ifĠk": 1828,
      "2.": 1829,
      "ore": 1830,
      "enc": 1831,
      "====": 1832,
      "num_": 1833,
      "len(.": 1834,
      "();_=": 1835,
      "Ġ-": 1836,
      "){.": 1837,
      "}}>": 1838,
      "ard": 1839,
      "g.": 1840,
      "(re": 1841,
      "ase": 1842,
      "dist": 1843,
      "ange": 1844,
      "=None){_=": 1845,
      "y='": 1846,
      "];forĠ": 1847,
      "os.path.join": 1848,
      "package": 1849,
      "Arg": 1850,
      "warning": 1851,
      "2*": 1852,
      "200": 1853,
      "Path": 1854,
      "uage": 1855,
      "',None": 1856,
      "value=": 1857,
      ">1": 1858,
      "Ite": 1859,
      "(name": 1860,
      "uri": 1861,
      "normal": 1862,
      "*args,**kwargs": 1863,
      "Col": 1864,
      "Ser": 1865,
      "onĠ": 1866,
      "<=": 1867,
      "Do": 1868,
      ":Ġ%s'%": 1869,
      "af": 1870,
      ",_)": 1871,
      "os.path.exists(": 1872,
      "Node": 1873,
      "}excĠ": 1874,
      "the": 1875,
      "logger.info('": 1876,
      "ive_": 1877,
      "getattr(": 1878,
      "indi": 1879,
      "conf": 1880,
      "db_": 1881,
      "Index": 1882,
      "api_": 1883,
      "exceptions.": 1884,
      "Runtime": 1885,
      "Group": 1886,
      "sho": 1887,
      "etch": 1888,
      "aĠinĠ": 1889,
      "ome": 1890,
      "year": 1891,
      "lication": 1892,
      "TheĠ": 1893,
      "access_": 1894,
      "ize_": 1895,
      ")||": 1896,
      "chunk": 1897,
      "_S": 1898,
      "[i]": 1899,
      "buff": 1900,
      "x(": 1901,
      ",'w": 1902,
      "type=": 1903,
      "){ifĠisinstance(": 1904,
      "username": 1905,
      ".error": 1906,
      "pop('": 1907,
      "url,": 1908,
      "cĠinĠ": 1909,
      "email": 1910,
      ".close": 1911,
      "utils.": 1912,
      "_P": 1913,
      "las": 1914,
      ");>._": 1915,
      "rc": 1916,
      "tot": 1917,
      "ute_": 1918,
      "atĠ": 1919,
      "debug": 1920,
      "dataset": 1921,
      "ĠforĠxĠinĠ": 1922,
      "_;": 1923,
      "over": 1924,
      "decode": 1925,
      "'].": 1926,
      "nan": 1927,
      "matri": 1928,
      "ted(": 1929,
      "mark": 1930,
      "displa": 1931,
      "lation": 1932,
      "){ifĠ.": 1933,
      "');forĠ": 1934,
      "_list": 1935,
      "fit": 1936,
      "ger": 1937,
      ".replace('": 1938,
      ";>_": 1939,
      "[y": 1940,
      "a_": 1941,
      "ail": 1942,
      "esĠ": 1943,
      "x.append(": 1944,
      "const.": 1945,
      "schema": 1946,
      "thread": 1947,
      "ip_": 1948,
      "nown": 1949,
      "l.": 1950,
      "s;": 1951,
      "verse": 1952,
      "wher": 1953,
      "s.get(": 1954,
      "Get": 1955,
      "FA": 1956,
      "ten": 1957,
      "collection": 1958,
      "default_": 1959,
      "(p": 1960,
      "proto": 1961,
      "ill": 1962,
      "height": 1963,
      "(filename": 1964,
      "HT": 1965,
      ",'r": 1966,
      "));forĠ": 1967,
      "sing": 1968,
      "ceive": 1969,
      "user_": 1970,
      ")}>_": 1971,
      ".curr": 1972,
      "Imp": 1973,
      ":Ġ{": 1974,
      "(request": 1975,
      "LI": 1976,
      "stder": 1977,
      "qual": 1978,
      "[_]": 1979,
      "dtype=": 1980,
      "ice": 1981,
      "super(": 1982,
      "!&&": 1983,
      "Ġ%sĠ": 1984,
      "day": 1985,
      "Item": 1986,
      "12": 1987,
      "ĠandĠ": 1988,
      "-1,": 1989,
      "\\\\s": 1990,
      "network": 1991,
      "10.7554/eLife.": 1992,
      "EX": 1993,
      "[z": 1994,
      "ical": 1995,
      "np.array(": 1996,
      "ignor": 1997,
      "lower()": 1998,
      "os": 1999,
      "{};": 2000,
      "app.": 2001,
      "content_": 2002,
      "ender": 2003,
      "cache_": 2004,
      "cent": 2005,
      "q,": 2006,
      "unique": 2007,
      "Ver": 2008,
      "radi": 2009,
      "y['": 2010,
      "ort_": 2011,
      "s.append(": 2012,
      "first": 2013,
      "dumps(": 2014,
      "k);": 2015,
      "';_['": 2016,
      "node.": 2017,
      "time_": 2018,
      "s[_": 2019,
      "client_": 2020,
      ".');": 2021,
      "weight": 2022,
      "Sub": 2023,
      "flag": 2024,
      "ĠorĠ": 2025,
      "ish": 2026,
      "}}ifĠ": 2027,
      "numpy.": 2028,
      "KE": 2029,
      "hy": 2030,
      "ateg": 2031,
      "pattern": 2032,
      "+'/": 2033,
      "?:>": 2034,
      "ule": 2035,
      "dow": 2036,
      "args['": 2037,
      "Element": 2038,
      "hist": 2039,
      "mas": 2040,
      "pix": 2041,
      "NoĠ": 2042,
      "status_code": 2043,
      "Aut": 2044,
      "'ĠnotĠinĠ": 2045,
      "Qu": 2046,
      "flu": 2047,
      "store_": 2048,
      "roll": 2049,
      "now": 2050,
      "strip()": 2051,
      "_);": 2052,
      "{y=": 2053,
      "stop": 2054,
      "}>_": 2055,
      "language": 2056,
      "cer": 2057,
      "text(": 2058,
      "vent": 2059,
      "';>": 2060,
      "ERR": 2061,
      ".is": 2062,
      "AD": 2063,
      "veĠ": 2064,
      "secre": 2065,
      "{}'.format": 2066,
      "KeyError": 2067,
      "IP": 2068,
      "s,:": 2069,
      "last": 2070,
      "ĠmustĠbeĠ": 2071,
      "try:>": 2072,
      "json_": 2073,
      ".is_": 2074,
      "Argument": 2075,
      "git": 2076,
      "k;": 2077,
      "remove": 2078,
      "log('": 2079,
      "grid": 2080,
      "',help='": 2081,
      ".size": 2082,
      "MO": 2083,
      "qr": 2084,
      "ĠinĠ.": 2085,
      "raise": 2086,
      "older": 2087,
      "find": 2088,
      "dd": 2089,
      "){._": 2090,
      "found": 2091,
      "Instance": 2092,
      ".search": 2093,
      "_.get('": 2094,
      ")}else{": 2095,
      "obj,": 2096,
      "role": 2097,
      "ader": 2098,
      "list_": 2099,
      "try:_=": 2100,
      "second": 2101,
      "));_=": 2102,
      "np.zeros(": 2103,
      "current_": 2104,
      ":k=": 2105,
      "Model": 2106,
      "?{": 2107,
      "mm": 2108,
      "og": 2109,
      "test": 2110,
      "os.path.is": 2111,
      "ofĠtype": 2112,
      "web": 2113,
      "ping": 2114,
      "prox": 2115,
      "filter(": 2116,
      "settings.": 2117,
      "sol": 2118,
      "('/": 2119,
      "(_);": 2120,
      "model.": 2121,
      "ync": 2122,
      "pres": 2123,
      "ar_": 2124,
      "lef": 2125,
      "='',": 2126,
      "true": 2127,
      "):_=": 2128,
      "six.": 2129,
      "min_": 2130,
      "ual": 2131,
      "onl": 2132,
      "enable": 2133,
      "s=[": 2134,
      "query_": 2135,
      "msg": 2136,
      "(z,": 2137,
      "(cls,": 2138,
      "cub": 2139,
      "log_": 2140,
      "execute": 2141,
      "component": 2142,
      "ification": 2143,
      "e,": 2144,
      "replace": 2145,
      "scip": 2146,
      ".n": 2147,
      "f,": 2148,
      "%s.": 2149,
      "lan": 2150,
      "roun": 2151,
      ")]": 2152,
      "ity_": 2153,
      "project": 2154,
      "False,": 2155,
      "river": 2156,
      "month": 2157,
      "write_": 2158,
      ");>.": 2159,
      "clust": 2160,
      "isinstance(_,": 2161,
      "handle_": 2162,
      "f=": 2163,
      "mag": 2164,
      "process.": 2165,
      "(*args,**kwargs": 2166,
      "InvalidĠ": 2167,
      "25": 2168,
      "id=": 2169,
      "(kw": 2170,
      "String": 2171,
      "KEY": 2172,
      ".time": 2173,
      "ound": 2174,
      "Ġ\"": 2175,
      "factor": 2176,
      "];_=": 2177,
      "tools.": 2178,
      "proj": 2179,
      ".e": 2180,
      "He": 2181,
      "ference": 2182,
      "';_=": 2183,
      "script": 2184,
      "ld": 2185,
      "LOG": 2186,
      "spect": 2187,
      "0:": 2188,
      "alle": 2189,
      "','--": 2190,
      "validate_": 2191,
      "(0,": 2192,
      "AB": 2193,
      "IT": 2194,
      "Option": 2195,
      "bas": 2196,
      "s}": 2197,
      "ens": 2198,
      "];k=": 2199,
      "sorted(": 2200,
      "(v": 2201,
      "();k=": 2202,
      "interval": 2203,
      "empt": 2204,
      "v=": 2205,
      "Ġ%s'%": 2206,
      "._s": 2207,
      "+'.": 2208,
      "MP": 2209,
      "warn": 2210,
      "1.": 2211,
      "EC": 2212,
      "rig": 2213,
      "(d": 2214,
      "(t": 2215,
      "40": 2216,
      "ay": 2217,
      "sĠinĠ": 2218,
      "process": 2219,
      "children": 2220,
      "(i,": 2221,
      ")==": 2222,
      "mer": 2223,
      ");ifĠ'": 2224,
      "':.": 2225,
      "parti": 2226,
      "[-1": 2227,
      "ave_": 2228,
      "fg": 2229,
      "remot": 2230,
      "member": 2231,
      "dp": 2232,
      "s){_=": 2233,
      "z='": 2234,
      "red": 2235,
      "ctype": 2236,
      "line_": 2237,
      "event_": 2238,
      "[0].": 2239,
      "_dir": 2240,
      "lib.": 2241,
      "item_": 2242,
      "iĠinĠrange(": 2243,
      "TP": 2244,
      "0000": 2245,
      "()}": 2246,
      "vo": 2247,
      "abs(": 2248,
      "%s/": 2249,
      "prec": 2250,
      "Log": 2251,
      "}else{": 2252,
      "conn": 2253,
      "fre": 2254,
      "x;": 2255,
      "lice": 2256,
      "len(k)": 2257,
      "(_,'": 2258,
      "out_": 2259,
      "ĠtheĠ": 2260,
      "stack": 2261,
      "has_": 2262,
      "handler": 2263,
      "NO": 2264,
      "(_['": 2265,
      ":'": 2266,
      "[-1]": 2267,
      "pu": 2268,
      "dict_": 2269,
      "[];ifĠ": 2270,
      "State": 2271,
      "[k]=": 2272,
      "Respon": 2273,
      "gres": 2274,
      "na": 2275,
      "ution": 2276,
      "request.": 2277,
      "withĠopen(": 2278,
      "manag": 2279,
      "';_['10.7554/eLife.": 2280,
      "=0,": 2281,
      "ke": 2282,
      "process_": 2283,
      "NAM": 2284,
      "args=": 2285,
      "(k.": 2286,
      "]=='": 2287,
      "configuration": 2288,
      "'+str(": 2289,
      ":_.": 2290,
      "Fa": 2291,
      "TER": 2292,
      "oper": 2293,
      ");i=": 2294,
      ");j=": 2295,
      "attribut": 2296,
      "with_": 2297,
      "add_argument('-": 2298,
      "lvl=": 2299,
      "CON": 2300,
      "s(){": 2301,
      "vide": 2302,
      "regist": 2303,
      "last_": 2304,
      "objects.": 2305,
      "16": 2306,
      "Or": 2307,
      "auto": 2308,
      "TypeError('": 2309,
      "DAT": 2310,
      "US": 2311,
      "tick": 2312,
      ".request": 2313,
      "iven": 2314,
      "properti": 2315,
      "sistype": 2316,
      "analysistype": 2317,
      ");ifĠ.": 2318,
      "print_": 2319,
      "\\\\d": 2320,
      ")Ġ": 2321,
      "gex": 2322,
      "();.": 2323,
      "node_": 2324,
      "TypeError": 2325,
      "lete_": 2326,
      "UB": 2327,
      "s');": 2328,
      ".session": 2329,
      "DEFA": 2330,
      "application": 2331,
      "suppor": 2332,
      "DEFAUL": 2333,
      "'\"": 2334,
      "record": 2335,
      "24": 2336,
      "ql": 2337,
      "ic_": 2338,
      "_(": 2339,
      "mt": 2340,
      "'])": 2341,
      "model_": 2342,
      "=False){": 2343,
      "):raiseĠValueError('": 2344,
      "TO": 2345,
      "awa": 2346,
      "j]": 2347,
      "yam": 2348,
      "z)": 2349,
      "data.": 2350,
      "unicode": 2351,
      "(path": 2352,
      "bĠinĠ": 2353,
      "Ġì": 2354,
      "':_": 2355,
      "s=True": 2356,
      "pf": 2357,
      "By": 2358,
      "dot": 2359,
      "data['": 2360,
      "angle": 2361,
      "){forĠ_ĠinĠ": 2362,
      "ategor": 2363,
      ".5": 2364,
      "Py": 2365,
      ");k.": 2366,
      "noĠ": 2367,
      "gram": 2368,
      "Date": 2369,
      "log.debug('": 2370,
      "').": 2371,
      "Code": 2372,
      ",._": 2373,
      "org": 2374,
      "'];ifĠ": 2375,
      "serial": 2376,
      "Valid": 2377,
      "action='": 2378,
      "logging.": 2379,
      "feature": 2380,
      "json.dumps(": 2381,
      "=Ġ": 2382,
      "{.": 2383,
      "do_": 2384,
      "domain": 2385,
      "endpoint": 2386,
      "disable": 2387,
      "origin": 2388,
      "Auth": 2389,
      "AG": 2390,
      "full": 2391,
      "sequence": 2392,
      "ident": 2393,
      ");>k": 2394,
      "[k]": 2395,
      "environment": 2396,
      "ĠwithĠ": 2397,
      "modif": 2398,
      "Error:pass": 2399,
      "Format": 2400,
      "GET": 2401,
      "medi": 2402,
      "log.info('": 2403,
      "API": 2404,
      "pk": 2405,
      "Ġre": 2406,
      "_=='": 2407,
      "));k=": 2408,
      "ted": 2409,
      "chain": 2410,
      "60": 2411,
      ":._": 2412,
      "cast": 2413,
      "ies(": 2414,
      "protocol": 2415,
      "ouĠ": 2416,
      ",b": 2417,
      "Can": 2418,
      "tree": 2419,
      "POST": 2420,
      "Content": 2421,
      "-2": 2422,
      "3_": 2423,
      "ml_": 2424,
      "sk": 2425,
      "include": 2426,
      "ult(": 2427,
      "ali": 2428,
      "and(": 2429,
      "thresh": 2430,
      "resol": 2431,
      ":>False": 2432,
      "start(": 2433,
      "plot_": 2434,
      "ener": 2435,
      "iter_": 2436,
      "diction": 2437,
      "y.append(": 2438,
      "_[k": 2439,
      "istr": 2440,
      "vid": 2441,
      "){assertĠ": 2442,
      "idd": 2443,
      ".__class_": 2444,
      "'\"%": 2445,
      "(e": 2446,
      "3,": 2447,
      "L_": 2448,
      "given": 2449,
      "entic": 2450,
      "click": 2451,
      "active": 2452,
      "mĠinĠ": 2453,
      "('utf-8": 2454,
      "expr": 2455,
      "reshape": 2456,
      "Read": 2457,
      "read_": 2458,
      "subprocess.": 2459,
      "Response": 2460,
      "key,": 2461,
      "cale": 2462,
      "params": 2463,
      "astype": 2464,
      "uldĠnotĠ": 2465,
      "key=": 2466,
      "kwargs['": 2467,
      "endswith('": 2468,
      "runn": 2469,
      "Conne": 2470,
      "RuntimeError('": 2471,
      "z['": 2472,
      "[1],": 2473,
      "trace": 2474,
      "(text": 2475,
      "Fun": 2476,
      "ix": 2477,
      "ename": 2478,
      "allow": 2479,
      "part": 2480,
      "delta": 2481,
      "ExceptionĠasĠe": 2482,
      "%r": 2483,
      "(){ifĠ": 2484,
      "hasĠ": 2485,
      "async": 2486,
      "();_.": 2487,
      "index=": 2488,
      "other": 2489,
      "(data": 2490,
      "Che": 2491,
      "hour": 2492,
      "name']": 2493,
      "thon": 2494,
      "{0}'.format(": 2495,
      "plot": 2496,
      "stderr": 2497,
      "(\\": 2498,
      "Event": 2499,
      "IC": 2500,
      "x]": 2501,
      ");raiseĠ": 2502,
      "handl": 2503,
      "return": 2504,
      ".__name__": 2505,
      "[_.": 2506,
      "invalid": 2507,
      "];x=": 2508,
      "permission": 2509,
      "beta": 2510,
      "Handler": 2511,
      "(-": 2512,
      "Out": 2513,
      "fetch": 2514,
      "pĠinĠ": 2515,
      "sg": 2516,
      "ĠimpĠ": 2517,
      "scipy.": 2518,
      "defin": 2519,
      "exc(": 2520,
      "commit": 2521,
      "ĠelseĠ'": 2522,
      "((\\": 2523,
      "rf": 2524,
      "sep": 2525,
      "distance": 2526,
      "ceivedĠ": 2527,
      "k{": 2528,
      "s.get('": 2529,
      "options": 2530,
      "TS": 2531,
      "Var": 2532,
      "dĠtoĠ": 2533,
      "fail": 2534,
      "s[k": 2535,
      "params=": 2536,
      "class(": 2537,
      "SION": 2538,
      "TYP": 2539,
      "ant_": 2540,
      "',default": 2541,
      "api.": 2542,
      "poly": 2543,
      ";ifĠ.": 2544,
      "');ifĠnotĠ": 2545,
      "initial": 2546,
      "select": 2547,
      "2_": 2548,
      "Per": 2549,
      "i_": 2550,
      "entence": 2551,
      "len(_": 2552,
      "comment": 2553,
      "copy(": 2554,
      "(file": 2555,
      "y;": 2556,
      "list,": 2557,
      ":pass": 2558,
      "DO": 2559,
      "Id(": 2560,
      "cmd": 2561,
      "xml": 2562,
      "compile": 2563,
      "ctypes.": 2564,
      "0;forĠ": 2565,
      "Client": 2566,
      "Statu": 2567,
      "ble": 2568,
      "s,'": 2569,
      "tingĠ": 2570,
      "zone": 2571,
      "%s\"": 2572,
      ")));": 2573,
      "[c": 2574,
      "Ġth": 2575,
      "rol": 2576,
      "':{'": 2577,
      "=None;": 2578,
      "type,": 2579,
      "doesĠ": 2580,
      "withĠopen": 2581,
      "items(){ifĠ": 2582,
      ");excĠValueError": 2583,
      "lease": 2584,
      "'&&": 2585,
      "_==": 2586,
      "login": 2587,
      "quot": 2588,
      "flow": 2589,
      "Version": 2590,
      ")ĠforĠ_ĠinĠ": 2591,
      ",name": 2592,
      "IS": 2593,
      "TR": 2594,
      "_dict": 2595,
      "flat": 2596,
      "nĠinĠ": 2597,
      "appl": 2598,
      "://": 2599,
      "ed(": 2600,
      "}Ġ": 2601,
      "look": 2602,
      "convert_": 2603,
      "self": 2604,
      "ber_": 2605,
      "k_": 2606,
      "opt": 2607,
      "v,": 2608,
      "undĠ": 2609,
      "vals[i": 2610,
      "current": 2611,
      "signal": 2612,
      "au": 2613,
      "ccess": 2614,
      "driver": 2615,
      "ERROR": 2616,
      "singĠ": 2617,
      "ĠaĠ": 2618,
      ".write('": 2619,
      "'tĠ": 2620,
      "n.": 2621,
      "nap": 2622,
      "};": 2623,
      "){z=": 2624,
      "math": 2625,
      "');x=": 2626,
      ":%": 2627,
      "=_.": 2628,
      "CPE": 2629,
      "else{ifĠ": 2630,
      "pare": 2631,
      "filter_": 2632,
      "headers=": 2633,
      "document": 2634,
      "Check": 2635,
      ".un": 2636,
      "non": 2637,
      "calc": 2638,
      "readData": 2639,
      "_[i": 2640,
      "){_=._": 2641,
      "index,": 2642,
      "fieldĠ": 2643,
      "imum": 2644,
      ".log('": 2645,
      "readDataInstance": 2646,
      "JS": 2647,
      "exclude": 2648,
      "plat": 2649,
      "faile": 2650,
      "return_": 2651,
      "window": 2652,
      "S.": 2653,
      ");ifĠx": 2654,
      "){_=.": 2655,
      "display_": 2656,
      "arti": 2657,
      "rout": 2658,
      "verif": 2659,
      "os.environ": 2660,
      ".cle": 2661,
      "Inter": 2662,
      "generate_": 2663,
      "body": 2664,
      ":continue": 2665,
      "Sh": 2666,
      "TE": 2667,
      "s('": 2668,
      "s='": 2669,
      "x-": 2670,
      "k,vĠinĠ": 2671,
      "'){ifĠ": 2672,
      "VAL": 2673,
      "_string": 2674,
      "ache": 2675,
      "next(": 2676,
      "ract": 2677,
      "target_": 2678,
      "NAME": 2679,
      "'ĠifĠ": 2680,
      "0);": 2681,
      "Frame": 2682,
      "tion": 2683,
      ");>_.": 2684,
      "case": 2685,
      "iĠinĠ(!": 2686,
      "doesĠnotĠ": 2687,
      "gt": 2688,
      "lish": 2689,
      "text_": 2690,
      "ĠRe": 2691,
      "Size": 2692,
      "[m": 2693,
      "_get_": 2694,
      "ëĭ": 2695,
      "patch": 2696,
      "pend": 2697,
      "_[:": 2698,
      "enumerate": 2699,
      "print('": 2700,
      "known": 2701,
      "ason": 2702,
      "ustom": 2703,
      "_RE": 2704,
      "up_": 2705,
      "','-": 2706,
      ";ifĠlen(": 2707,
      "acce": 2708,
      "fn": 2709,
      ".save": 2710,
      "exit": 2711,
      "try{ifĠ": 2712,
      "ĠelseĠNone": 2713,
      "avail": 2714,
      "fer": 2715,
      "ffix": 2716,
      "o.": 2717,
      "ole": 2718,
      "z);": 2719,
      "pool": 2720,
      "perio": 2721,
      "[i]=": 2722,
      "lines(": 2723,
      "bytes(": 2724,
      "ression": 2725,
      "raiseĠValueError('": 2726,
      "'{ifĠ": 2727,
      "2]": 2728,
      "=[": 2729,
      "Cor": 2730,
      "From": 2731,
      "none": 2732,
      "'],'": 2733,
      "prepare": 2734,
      "ization": 2735,
      "coordin": 2736,
      "(len(": 2737,
      "02": 2738,
      "Cl": 2739,
      "EL": 2740,
      "es(": 2741,
      "Ġ{}Ġ": 2742,
      "init_": 2743,
      "repo": 2744,
      "ĠinĠin": 2745,
      "dic": 2746,
      "ranch": 2747,
      "ton": 2748,
      "{z=": 2749,
      "loop": 2750,
      ")))": 2751,
      "word(": 2752,
      ",n": 2753,
      "ient": 2754,
      ":Ġ'%s": 2755,
      "haveĠ": 2756,
      "merge": 2757,
      "ell": 2758,
      "extension": 2759,
      "store": 2760,
      "json.load": 2761,
      "pixel": 2762,
      "Ġvalue": 2763,
      "set('": 2764,
      "func_": 2765,
      "kwargs.get('": 2766,
      "36": 2767,
      "ard_": 2768,
      "str(.": 2769,
      "tach": 2770,
      "HTTP": 2771,
      "On": 2772,
      "Ġ%s": 2773,
      "fore": 2774,
      ";ifĠ_": 2775,
      "direct": 2776,
      "k,_ĠinĠ": 2777,
      "ML": 2778,
      "Pre": 2779,
      "cy": 2780,
      "hit": 2781,
      "q.": 2782,
      "er=": 2783,
      "(k);": 2784,
      "cls._": 2785,
      "(a,": 2786,
      "3]": 2787,
      "Base": 2788,
      "[n": 2789,
      "(.,'": 2790,
      "buck": 2791,
      "choice": 2792,
      "download": 2793,
      "awaitĠ": 2794,
      "Vari": 2795,
      "[a": 2796,
      "enĠ": 2797,
      "file,": 2798,
      "Parameter": 2799,
      "insert(": 2800,
      "total": 2801,
      "2.0": 2802,
      "s:Ġ": 2803,
      ")}}>": 2804,
      "tedĠ": 2805,
      "whileĠTrue": 2806,
      "ME": 2807,
      "own": 2808,
      "sha": 2809,
      "w=": 2810,
      "reverse": 2811,
      "){try:": 2812,
      "produ": 2813,
      "mapping": 2814,
      "templ": 2815,
      "propert": 2816,
      "right": 2817,
      "(name,": 2818,
      "_b": 2819,
      "cv": 2820,
      "ded": 2821,
      "cos(": 2822,
      "lower(": 2823,
      ")-": 2824,
      "_index": 2825,
      "config['": 2826,
      "base_url": 2827,
      ".id": 2828,
      ";i=": 2829,
      "Job": 2830,
      "slice": 2831,
      "repr": 2832,
      "alog": 2833,
      "ated": 2834,
      "ER_": 2835,
      ".warning": 2836,
      "available": 2837,
      "ength": 2838,
      "));else:": 2839,
      "setattr": 2840,
      "count(": 2841,
      "--------": 2842,
      "?||": 2843,
      "Table": 2844,
      "Tag": 2845,
      "time.time": 2846,
      "ĠforĠiĠinĠ": 2847,
      "[_]=": 2848,
      "txt": 2849,
      "(obj": 2850,
      "cw": 2851,
      "r_": 2852,
      "{1}": 2853,
      "('.": 2854,
      "version_": 2855,
      "\\\\d+": 2856,
      "Po": 2857,
      "ration": 2858,
      "ystem": 2859,
      "ĢĠì": 2860,
      "',.": 2861,
      ")}forĠ": 2862,
      "no_": 2863,
      ".regist": 2864,
      "000": 2865,
      "manif": 2866,
      ";j=": 2867,
      "vol": 2868,
      "round": 2869,
      "score": 2870,
      "Up": 2871,
      "dro": 2872,
      ");a=": 2873,
      "unit_": 2874,
      "response_": 2875,
      "END": 2876,
      "...": 2877,
      "Message": 2878,
      "global": 2879,
      "(**": 2880,
      "AP": 2881,
      "ick": 2882,
      "atom": 2883,
      "stri": 2884,
      "):yieldĠ": 2885,
      "progres": 2886,
      "complete": 2887,
      "edĠtoĠ": 2888,
      "directory": 2889,
      "l,": 2890,
      "nd": 2891,
      "s')": 2892,
      "ont": 2893,
      "',False": 2894,
      "of_": 2895,
      "s]": 2896,
      "ort(": 2897,
      "())": 2898,
      "indent": 2899,
      "ifier": 2900,
      "(url": 2901,
      ".run": 2902,
      "[j": 2903,
      "socket": 2904,
      "w.": 2905,
      "lect": 2906,
      "';forĠ": 2907,
      "']=='": 2908,
      "bound": 2909,
      "[1];": 2910,
      "backend": 2911,
      "parser.": 2912,
      "search_": 2913,
      "AttributeError": 2914,
      "\\\\s+": 2915,
      "JSON": 2916,
      "Ed": 2917,
      "useĠ": 2918,
      "Ġname": 2919,
      "relation": 2920,
      "',_": 2921,
      "asci": 2922,
      ")}}}": 2923,
      "':_=": 2924,
      "float(": 2925,
      "transform": 2926,
      "'ĠmustĠbeĠ": 2927,
      "qrt(": 2928,
      "2:": 2929,
      "?:raiseĠ": 2930,
      "eb": 2931,
      "eval": 2932,
      "s);ifĠ": 2933,
      "{._": 2934,
      "',Ġ": 2935,
      "configure": 2936,
      "##": 2937,
      "k+=": 2938,
      "',1": 2939,
      "_source": 2940,
      "||'": 2941,
      "syn": 2942,
      "project_": 2943,
      "threshold": 2944,
      ":Ġ'%s'\"%": 2945,
      ".t": 2946,
      "b'": 2947,
      "dt": 2948,
      "dec": 2949,
      "[_ĠforĠ_ĠinĠ": 2950,
      ";else{": 2951,
      "Fiel": 2952,
      "(k,_": 2953,
      "();x=": 2954,
      "')ĠasĠf": 2955,
      "at_": 2956,
      "',action='": 2957,
      "s();": 2958,
      "name':": 2959,
      "_sub": 2960,
      "].append(": 2961,
      "long": 2962,
      "Number": 2963,
      ".add": 2964,
      ":str": 2965,
      "MM": 2966,
      "PY": 2967,
      "amo": 2968,
      "i+=1": 2969,
      "sĠforĠ": 2970,
      "sĠtoĠ": 2971,
      ".shape[0]": 2972,
      "leaseĠ": 2973,
      "partial": 2974,
      "*np.": 2975,
      "</": 2976,
      "DB": 2977,
      "duration": 2978,
      "gate": 2979,
      "ker": 2980,
      "ng": 2981,
      "cell": 2982,
      "date_": 2983,
      "vector": 2984,
      ")}>k": 2985,
      "container": 2986,
      "add_argument('--": 2987,
      "topic": 2988,
      "spath": 2989,
      "s.items(": 2990,
      "']:": 2991,
      "file=": 2992,
      "order_": 2993,
      "::2,": 2994,
      "pick": 2995,
      "Star": 2996,
      "Parser": 2997,
      "random.": 2998,
      "Temp": 2999,
      "ece": 3000,
      "w,": 3001,
      "metr": 3002,
      "matche": 3003,
      "dirname": 3004,
      "error('": 3005,
      ".decode": 3006,
      "Load": 3007,
      "manifest": 3008,
      "/v": 3009,
      "50": 3010,
      "OS": 3011,
      "gment": 3012,
      "u=": 3013,
      "}forĠ": 3014,
      "[0];ifĠ": 3015,
      "'.format(.": 3016,
      "per_": 3017,
      "url('": 3018,
      "box": 3019,
      "buffer": 3020,
      "BU": 3021,
      "low_": 3022,
      "dtype=np.": 3023,
      "vision": 3024,
      "coordinate": 3025,
      "(j,": 3026,
      ":]": 3027,
      "LE_": 3028,
      "x{": 3029,
      "y]": 3030,
      "std": 3031,
      "all(": 3032,
      "span": 3033,
      "18": 3034,
      "go": 3035,
      ".sum": 3036,
      "){ifĠnotĠisinstance(": 3037,
      "util.": 3038,
      ")];": 3039,
      "4,": 3040,
      "QU": 3041,
      "sb": 3042,
      "s):": 3043,
      "sto": 3044,
      "remove_": 3045,
      "ravel": 3046,
      ".send_": 3047,
      "values(": 3048,
      "verti": 3049,
      ":Ġ%s',": 3050,
      ");forĠkĠinĠ": 3051,
      "==0:": 3052,
      "NotF": 3053,
      ")):": 3054,
      "wit": 3055,
      "y{": 3056,
      "arange": 3057,
      "['id": 3058,
      "sive": 3059,
      "index.": 3060,
      "db_session": 3061,
      "HE": 3062,
      "g=": 3063,
      "ot_": 3064,
      "Ġinput": 3065,
      "obj['": 3066,
      "command(": 3067,
      "access": 3068,
      "z.append(": 3069,
      "direction": 3070,
      ">0:": 3071,
      "TION": 3072,
      "CD": 3073,
      "\\x": 3074,
      "hex": 3075,
      "separ": 3076,
      "Error(\"": 3077,
      "term": 3078,
      ":Ġ{}'.format(": 3079,
      ".client": 3080,
      "etre": 3081,
      "requests.": 3082,
      "ExceptionĠasĠ": 3083,
      "logging.info('": 3084,
      "np.sum": 3085,
      "dest='": 3086,
      "after": 3087,
      "(r": 3088,
      "g,": 3089,
      "kind": 3090,
      "samp": 3091,
      "erature": 3092,
      "asure": 3093,
      "ing(": 3094,
      "fault": 3095,
      "k,_=": 3096,
      "=1,": 3097,
      "fill": 3098,
      ":::'": 3099,
      "backg": 3100,
      "plot(": 3101,
      "access_token": 3102,
      "Corp": 3103,
      ";a=": 3104,
      "_set": 3105,
      "d['": 3106,
      "ise": 3107,
      "p__": 3108,
      "ĠfromĠ": 3109,
      "utton": 3110,
      "(k,'": 3111,
      ".remove": 3112,
      "len(x)": 3113,
      "attrib": 3114,
      "s://": 3115,
      "region": 3116,
      "ofĠtypeĠ'": 3117,
      "5,": 3118,
      "Iter": 3119,
      "Image": 3120,
      "Wor": 3121,
      "dr": 3122,
      "dĠinĠ": 3123,
      "replace('": 3124,
      "='+": 3125,
      ");ifĠisinstance(": 3126,
      "}>k": 3127,
      "analysistype].": 3128,
      "DEFAULT_": 3129,
      ".__class__": 3130,
      "ĠReceivedĠ": 3131,
      "30": 3132,
      "=x": 3133,
      "ck=": 3134,
      "pas": 3135,
      "']'.": 3136,
      "type:Ġ'%s'\"%": 3137,
      "ationĠ": 3138,
      "dock": 3139,
      ".cli": 3140,
      "(1,": 3141,
      "ous_": 3142,
      ")),\"": 3143,
      "'ĠmustĠbeĠofĠtypeĠ'": 3144,
      "ĠReceivedĠtype:Ġ'%s'\"%": 3145,
      "']'.ĠReceivedĠtype:Ġ'%s'\"%": 3146,
      "'ĠmustĠbeĠofĠtypeĠ'['": 3147,
      "PRO": 3148,
      "high": 3149,
      "True;": 3150,
      "(x)": 3151,
      "make": 3152,
      "layer": 3153,
      "1.0": 3154,
      "Ht": 3155,
      "rt": 3156,
      "v_": 3157,
      "',:": 3158,
      "entri": 3159,
      "s[:": 3160,
      "locator": 3161,
      "command('": 3162,
      "parse(": 3163,
      "kwargs.pop('": 3164,
      "expectedĠ": 3165,
      "pfp__": 3166,
      "Add": 3167,
      "Mgt": 3168,
      "d}": 3169,
      "u.": 3170,
      "Ġw": 3171,
      "mast": 3172,
      "s=['": 3173,
      "sĠifĠ": 3174,
      "=False){ifĠ": 3175,
      ".delete": 3176,
      "system": 3177,
      "ast.": 3178,
      "areĠ": 3179,
      "https://": 3180,
      "secret": 3181,
      "platform": 3182,
      "A,": 3183,
      "lam": 3184,
      "tex": 3185,
      "ted_": 3186,
      "perm": 3187,
      "int,": 3188,
      "group(": 3189,
      "GraphVal": 3190,
      "%m": 3191,
      "Cre": 3192,
      "IL": 3193,
      "_token": 3194,
      "ĺì": 3195,
      "alread": 3196,
      "leep": 3197,
      "root_": 3198,
      "namespace": 3199,
      "format_": 3200,
      "Comm": 3201,
      "+1,": 3202,
      "!=0": 3203,
      ".format(": 3204,
      "cublas": 3205,
      "CorpNum": 3206,
      "Al": 3207,
      "s){ifĠ": 3208,
      "path.": 3209,
      "');.": 3210,
      "logger.exception": 3211,
      "MgtKey": 3212,
      "s(_": 3213,
      "try{_=": 3214,
      "CannotĠ": 3215,
      "<0": 3216,
      "pd.": 3217,
      "];y=": 3218,
      "stribut": 3219,
      "type='": 3220,
      "logical": 3221,
      ";ifĠ'": 3222,
      "%s'%(": 3223,
      "}ifĠnotĠ": 3224,
      "interface": 3225,
      "dbsException-": 3226,
      "readDataInstance.read": 3227,
      "%Y": 3228,
      "OP": 3229,
      "hi": 3230,
      "abspath": 3231,
      "ĠĠĠĠĠĠĠĠĠĠĠĠĠĠĠĠ": 3232,
      "(f\"": 3233,
      "mode='": 3234,
      "Header": 3235,
      "Connection": 3236,
      "'||": 3237,
      "-z": 3238,
      "CT": 3239,
      "UP": 3240,
      "_F": 3241,
      "lig": 3242,
      "data(": 3243,
      "False;": 3244,
      "string_type": 3245,
      "'+'": 3246,
      ",.).": 3247,
      ");forĠ_ĠinĠ": 3248,
      "upper()": 3249,
      ",(": 3250,
      "cap": 3251,
      "unt": 3252,
      "cls(": 3253,
      "promp": 3254,
      "else:_=": 3255,
      "_id=": 3256,
      "[x]": 3257,
      "generate": 3258,
      "attributes": 3259,
      ".')": 3260,
      "IG": 3261,
      "her": 3262,
      "s-": 3263,
      "lex": 3264,
      "ash": 3265,
      "ulate": 3266,
      "storage": 3267,
      "motif": 3268,
      "hasattr(": 3269,
      ")ĠasĠ": 3270,
      "tt": 3271,
      "old_": 3272,
      "CouldĠnotĠ": 3273,
      "[1:]": 3274,
      ".x": 3275,
      ";excĠ": 3276,
      "_url": 3277,
      "y[": 3278,
      "Ġdata": 3279,
      "idf": 3280,
      "abil": 3281,
      "post_": 3282,
      "y=True": 3283,
      "_su": 3284,
      "(source": 3285,
      "os.path.isfile": 3286,
      "etree.": 3287,
      "14": 3288,
      "TH": 3289,
      "z:": 3290,
      "{try:": 3291,
      "._build_": 3292,
      "verage": 3293,
      "siz": 3294,
      "authentic": 3295,
      "transaction": 3296,
      "activ": 3297,
      "CPEComp": 3298,
      "(x.": 3299,
      ".file": 3300,
      "OK": 3301,
      "_+": 3302,
      "categor": 3303,
      "s);>": 3304,
      "semb": 3305,
      "Trans": 3306,
      "=None,**kwargs": 3307,
      "(){k=": 3308,
      ",0": 3309,
      ",x,": 3310,
      "e=": 3311,
      "scope": 3312,
      "x+": 3313,
      "]=_": 3314,
      "os.path.split": 3315,
      "refresh": 3316,
      "method='": 3317,
      "pack('": 3318,
      ",re": 3319,
      "1_": 3320,
      "Call": 3321,
      "om_": 3322,
      "sim": 3323,
      "();._": 3324,
      "needĠtoĠ": 3325,
      "Stat": 3326,
      "STR": 3327,
      "========": 3328,
      "-9": 3329,
      "Gener": 3330,
      "Poin": 3331,
      "csv": 3332,
      "gest": 3333,
      "expi": 3334,
      ");ifĠ_.": 3335,
      "sĠimpĠ": 3336,
      "Input": 3337,
      "expression": 3338,
      ".service": 3339,
      "indice": 3340,
      ".error('": 3341,
      "15": 3342,
      "As": 3343,
      "ume": 3344,
      "Ġ=Ġ": 3345,
      "iter(": 3346,
      "ctx": 3347,
      "s.shape": 3348,
      "s,Ġ": 3349,
      "dir(": 3350,
      "max(": 3351,
      "_,k=": 3352,
      "size=": 3353,
      ".warning('": 3354,
      "equ": 3355,
      "ps": 3356,
      "rule": 3357,
      "s(){_=": 3358,
      "()=": 3359,
      "provide": 3360,
      "logger": 3361,
      "dict();": 3362,
      "validĠ": 3363,
      "status=": 3364,
      "classe": 3365,
      "track": 3366,
      "[2]": 3367,
      "Validation": 3368,
      "TYPE_": 3369,
      "Page": 3370,
      "eff": 3371,
      "s':'": 3372,
      "tĠinĠ": 3373,
      "tab": 3374,
      "rect": 3375,
      "ential": 3376,
      "s_to_": 3377,
      "');y=": 3378,
      "how": 3379,
      "hook": 3380,
      ".write_": 3381,
      "processe": 3382,
      "cannotĠ": 3383,
      "Ac": 3384,
      "HO": 3385,
      "b_": 3386,
      "s[0]": 3387,
      ");else{": 3388,
      "':raiseĠ": 3389,
      "_name=": 3390,
      "config_": 3391,
      "print(": 3392,
      "temperature": 3393,
      "axis=0": 3394,
      "empty(": 3395,
      ",**": 3396,
      ".model": 3397,
      "Api": 3398,
      "X,": 3399,
      "k+": 3400,
      "sentence": 3401,
      "}\"": 3402,
      "Ġ`": 3403,
      "Ġinst": 3404,
      "upload": 3405,
      "ableĠtoĠ": 3406,
      ".debug": 3407,
      "response.": 3408,
      "asurement": 3409,
      ")<": 3410,
      "_B": 3411,
      "ify(": 3412,
      "til": 3413,
      "ErrorĠasĠe": 3414,
      "s[1": 3415,
      "Unknown": 3416,
      "remote_": 3417,
      "metric": 3418,
      "Map": 3419,
      "Text": 3420,
      "gl": 3421,
      "rend": 3422,
      ");_": 3423,
      "engin": 3424,
      "ĠisĠnotĠaĠ": 3425,
      "Order": 3426,
      "%dĠ": 3427,
      "CR": 3428,
      "ape": 3429,
      "ffi": 3430,
      "lst": 3431,
      "{}\"": 3432,
      "'),'": 3433,
      "]=k": 3434,
      "keys()": 3435,
      ":Ġ'+": 3436,
      "command_": 3437,
      "+'Ġ": 3438,
      "shot": 3439,
      "Module": 3440,
      "round(": 3441,
      "Man": 3442,
      ");try:": 3443,
      "ative": 3444,
      "cto": 3445,
      "cook": 3446,
      "ErrorĠasĠ": 3447,
      "),('": 3448,
      "options.": 3449,
      "extra_": 3450,
      "extract_": 3451,
      "Block": 3452,
      "EST": 3453,
      "FO": 3454,
      "Ro": 3455,
      "uplic": 3456,
      "scape": 3457,
      "import_": 3458,
      "diff": 3459,
      "strict": 3460,
      "!{ifĠ": 3461,
      "'{}": 3462,
      ",x": 3463,
      "_{ifĠ": 3464,
      "ftime": 3465,
      "save": 3466,
      "tmp": 3467,
      "eno": 3468,
      "ite_": 3469,
      "',dest='": 3470,
      "strftime": 3471,
      "np.wher": 3472,
      "[0:": 3473,
      "Info": 3474,
      ".sequence": 3475,
      "startswith": 3476,
      "\\nĠĠĠĠĠĠĠĠĠĠĠĠ": 3477,
      ".server": 3478,
      "normalize": 3479,
      "dn": 3480,
      "oup": 3481,
      "s:>": 3482,
      "}.": 3483,
      "s(.": 3484,
      "path=": 3485,
      "Error(": 3486,
      "len(._": 3487,
      "isinstance(k,": 3488,
      "text=": 3489,
      "start,": 3490,
      "(_)ĠforĠ_ĠinĠ": 3491,
      "iterable": 3492,
      "parse.": 3493,
      "ignore": 3494,
      "only": 3495,
      "atingĠ": 3496,
      "ory": 3497,
      "form_": 3498,
      "div": 3499,
      "type_": 3500,
      "[1])": 3501,
      "htt": 3502,
      "error_": 3503,
      "ATI": 3504,
      "iteritems(": 3505,
      "2)": 3506,
      "i='": 3507,
      "ary_": 3508,
      "itie": 3509,
      "entity_": 3510,
      "ision": 3511,
      "s=False": 3512,
      "ular": 3513,
      "raise_": 3514,
      "obj.": 3515,
      "';elifĠ": 3516,
      "compres": 3517,
      "re.match": 3518,
      "yaml": 3519,
      "protocol.": 3520,
      "*.": 3521,
      ".load": 3522,
      "et_": 3523,
      "sort": 3524,
      "ĠinĠ('": 3525,
      "json()": 3526,
      "DEL": 3527,
      "variant": 3528,
      "dbsExceptionHandler": 3529,
      "GraphVal('": 3530,
      "(node": 3531,
      ":_.append(": 3532,
      "f.read": 3533,
      "pad": 3534,
      "ull_": 3535,
      "query(": 3536,
      "cry": 3537,
      "lookup": 3538,
      "json.loads(": 3539,
      "stribution": 3540,
      ".0,": 3541,
      "[b": 3542,
      "_:>": 3543,
      "_map": 3544,
      "bot": 3545,
      "sr": 3546,
      "ss_": 3547,
      "z;": 3548,
      "desc": 3549,
      "){i=": 3550,
      "k=='": 3551,
      "','.": 3552,
      "Error,": 3553,
      "params(": 3554,
      "Stor": 3555,
      "lemented": 3556,
      "method,": 3557,
      "'){_=": 3558,
      ",f": 3559,
      "Source": 3560,
      "gc": 3561,
      "next": 3562,
      "iss": 3563,
      "chron": 3564,
      ".sample": 3565,
      "positor": 3566,
      "Local": 3567,
      "execute_": 3568,
      "download_": 3569,
      "VERSION": 3570,
      "Import": 3571,
      "ascii": 3572,
      "branch": 3573,
      "ys": 3574,
      "ĠinĠ['": 3575,
      "));x=": 3576,
      "ĠifĠ_": 3577,
      ");_=._": 3578,
      "float32": 3579,
      "event.": 3580,
      "Search": 3581,
      "generator": 3582,
      "Meta": 3583,
      "cluster_": 3584,
      "manager": 3585,
      ".in": 3586,
      "SS": 3587,
      "Y_": 3588,
      "eĠinĠ": 3589,
      "i);": 3590,
      "oĠ": 3591,
      "detail": 3592,
      "utable": 3593,
      "None;ifĠ": 3594,
      "'))": 3595,
      "pair": 3596,
      "python": 3597,
      "wait": 3598,
      "build": 3599,
      "break}}": 3600,
      "required": 3601,
      "encoding='": 3602,
      "random": 3603,
      "publish": 3604,
      "Quer": 3605,
      "flux": 3606,
      "smo": 3607,
      "wal": 3608,
      "._meta": 3609,
      "profile": 3610,
      "ĠforĠfieldĠ": 3611,
      ",_ĠinĠ": 3612,
      "excĠKeyError": 3613,
      "'):>": 3614,
      "():": 3615,
      ".m": 3616,
      "cip": 3617,
      "dl": 3618,
      "tool": 3619,
      "')&&": 3620,
      ".replace": 3621,
      "byref": 3622,
      "Session": 3623,
      "self.": 3624,
      "Server": 3625,
      "Down": 3626,
      "Ap": 3627,
      "ination": 3628,
      "arr": 3629,
      "mesh": 3630,
      "ing.": 3631,
      ")}}ifĠ": 3632,
      "termin": 3633,
      "s=.": 3634,
      "ollow": 3635,
      "keyword": 3636,
      "Review": 3637,
      "allĠ": 3638,
      "validate": 3639,
      "Set(": 3640,
      ">0{": 3641,
      "clean": 3642,
      ".__name_": 3643,
      "matrix": 3644,
      "basename": 3645,
      "apply_": 3646,
      "alreadyĠ": 3647,
      "%(": 3648,
      "*(": 3649,
      ":_": 3650,
      "folder": 3651,
      "Ġtype": 3652,
      "if_": 3653,
      "forw": 3654,
      "find(": 3655,
      "request_": 3656,
      "os.path.dirname": 3657,
      ",.)": 3658,
      "count_": 3659,
      "+=1;": 3660,
      ":raiseĠValueError('value": 3661,
      "axis=1": 3662,
      "napshot": 3663,
      "prepare_": 3664,
      "template_": 3665,
      "ĠforĠfieldĠ`": 3666,
      ",_.": 3667,
      ",value": 3668,
      "LAS": 3669,
      "_from_": 3670,
      "gran": 3671,
      "iver": 3672,
      "n(": 3673,
      ");b=": 3674,
      "notation": 3675,
      ".remove_": 3676,
      "\\n';": 3677,
      "os.path.abspath": 3678,
      "');_.add_argument('-": 3679,
      "article": 3680,
      "eature": 3681,
      "ich": 3682,
      "s),": 3683,
      ");assertĠ": 3684,
      "re.search": 3685,
      "any(": 3686,
      "id':": 3687,
      "chil": 3688,
      ".syn": 3689,
      "file_path": 3690,
      "));.": 3691,
      "provid": 3692,
      "dir,": 3693,
      "string(": 3694,
      ";forĠkĠinĠ": 3695,
      "imal": 3696,
      "sudo": 3697,
      "Faile": 3698,
      "Editor": 3699,
      "NotFound": 3700,
      "ctools.": 3701,
      ".match": 3702,
      "11": 3703,
      "2(": 3704,
      "DS": 3705,
      "i['": 3706,
      "rat": 3707,
      "tw": 3708,
      "u,": 3709,
      ");c=": 3710,
      "attach": 3711,
      "def": 3712,
      "asarray(": 3713,
      "app_": 3714,
      "%s)": 3715,
      "sĠasĠ": 3716,
      "Resource": 3717,
      "pipe": 3718,
      "{0}Ġ": 3719,
      "http://": 3720,
      "show": 3721,
      "Bu": 3722,
      "batch": 3723,
      "ele": 3724,
      "x),": 3725,
      "inspect": 3726,
      "Record": 3727,
      "ORM": 3728,
      "Id,": 3729,
      "\\nĠĠĠĠĠĠĠĠĠĠĠĠĠĠĠĠ": 3730,
      "struct.": 3731,
      "multip": 3732,
      "bucket": 3733,
      "%s_": 3734,
      "29": 3735,
      "bill": 3736,
      "args(": 3737,
      "type=='": 3738,
      "request(": 3739,
      "functools.": 3740,
      "{forĠ_ĠinĠ": 3741,
      "DIR": 3742,
      "Color": 3743,
      ".current_": 3744,
      "left": 3745,
      ";Ġ": 3746,
      "cp": 3747,
      "u_": 3748,
      "retr": 3749,
      "calib": 3750,
      "ingĠtoĠ": 3751,
      "camp": 3752,
      "re.compile": 3753,
      "CorpNum,": 3754,
      "=2": 3755,
      "Lin": 3756,
      "_M": 3757,
      "dap": 3758,
      "o=": 3759,
      "wer": 3760,
      "itude": 3761,
      "admin": 3762,
      "');._": 3763,
      ".sub('": 3764,
      "UserID": 3765,
      "store_true": 3766,
      ".S": 3767,
      "3:": 3768,
      "PleaseĠ": 3769,
      "UM": 3770,
      "byĠ": 3771,
      "sat": 3772,
      "spe": 3773,
      "obser": 3774,
      "']={'": 3775,
      "callable": 3776,
      ".read_": 3777,
      "mary": 3778,
      "mary_": 3779,
      "Command": 3780,
      "]{": 3781,
      "bor": 3782,
      "pan": 3783,
      "sur": 3784,
      "uint": 3785,
      "z{": 3786,
      "ishe": 3787,
      "None;": 3788,
      ");ifĠlen(": 3789,
      "){ifĠlen(": 3790,
      "));_.append(": 3791,
      "neigh": 3792,
      "Reference": 3793,
      "prefi": 3794,
      "index(": 3795,
      "play": 3796,
      "[];forĠkĠinĠ": 3797,
      "expand": 3798,
      "-.": 3799,
      ".to_": 3800,
      ".');ifĠ": 3801,
      "escape": 3802,
      "gb": 3803,
      "ert": 3804,
      "sec": 3805,
      "le(": 3806,
      "('dbsException-": 3807,
      "x=.": 3808,
      "ulti": 3809,
      "asyncĠ": 3810,
      "dbsExceptionHandler('dbsException-": 3811,
      "=_,": 3812,
      "_[0]": 3813,
      "dct": 3814,
      "equal": 3815,
      "ga": 3816,
      "._pfp__": 3817,
      "];z=": 3818,
      "':k": 3819,
      "ument_": 3820,
      "thisĠ": 3821,
      "){_='": 3822,
      ".__dict_": 3823,
      "evel": 3824,
      ")}ifĠnotĠ": 3825,
      "intern": 3826,
      "Param": 3827,
      "mustĠ": 3828,
      "lug": 3829,
      "cho('": 3830,
      "copy_": 3831,
      "ReviewingĠ": 3832,
      "Level": 3833,
      "aw": 3834,
      "allow_": 3835,
      "fields": 3836,
      "Service": 3837,
      "Http": 3838,
      "ReviewingĠEditor": 3839,
      ",*args,**kwargs": 3840,
      ":',": 3841,
      "dj": 3842,
      "oc": 3843,
      "sin": 3844,
      "assist": 3845,
      "entity": 3846,
      "lik": 3847,
      "];else:": 3848,
      "Ext": 3849,
      "boole": 3850,
      "index_": 3851,
      "+'_": 3852,
      "logger.warning": 3853,
      "ure_": 3854,
      "map(": 3855,
      "Default": 3856,
      "tuple(": 3857,
      "selector": 3858,
      "dimension": 3859,
      "ArgumentĠ'": 3860,
      "_FI": 3861,
      "mor": 3862,
      "sd": 3863,
      "));y=": 3864,
      "']=.": 3865,
      ".split(','": 3866,
      "warnings.": 3867,
      ")),\"ArgumentĠ'": 3868,
      "!:>": 3869,
      ")>": 3870,
      "PAR": 3871,
      "k);ifĠ": 3872,
      "rate": 3873,
      "ped": 3874,
      "cons": 3875,
      "concat": 3876,
      "_.name": 3877,
      ";ifĠk": 3878,
      "\\n\\n": 3879,
      "Ġ'%s": 3880,
      "basestring": 3881,
      ";else:_=": 3882,
      "']='ReviewingĠEditor": 3883,
      "prior": 3884,
      "edge_": 3885,
      "properties": 3886,
      "issue": 3887,
      ",*": 3888,
      ".update(": 3889,
      "<<": 3890,
      "Bo": 3891,
      "EM": 3892,
      "ek": 3893,
      "es,": 3894,
      "rm": 3895,
      "}_=": 3896,
      "._re": 3897,
      "key_": 3898,
      "s[x]": 3899,
      "module_": 3900,
      "UnableĠtoĠ": 3901,
      "click.e": 3902,
      "Function": 3903,
      "ATION": 3904,
      ".execute": 3905,
      "K_": 3906,
      "y+": 3907,
      "){fromĠ": 3908,
      "lou": 3909,
      "adj": 3910,
      "){ifĠ'": 3911,
      "ĠasĠ_": 3912,
      ".set(": 3913,
      "**kwargs)": 3914,
      "counter": 3915,
      "ATH": 3916,
      "STAT": 3917,
      "logging.debug('": 3918,
      "sys.exit": 3919,
      "]:": 3920,
      "c(": 3921,
      "gg": 3922,
      "=True);": 3923,
      "home": 3924,
      "widget": 3925,
      "cached_": 3926,
      "tree_": 3927,
      "np.sqrt(": 3928,
      "MAX": 3929,
      "onlyĠ": 3930,
      "stop_": 3931,
      "-=1": 3932,
      ".load_": 3933,
      "custom": 3934,
      "src": 3935,
      "y,:": 3936,
      "cour": 3937,
      "distribution": 3938,
      "=None;else:": 3939,
      "y=False": 3940,
      ".getLog": 3941,
      "k,x=": 3942,
      "=True;": 3943,
      "ValueError(\"": 3944,
      "Implemented": 3945,
      "ldap": 3946,
      "freq": 3947,
      "application/": 3948,
      "Field": 3949,
      "needĠtoĠbeĠ": 3950,
      "']='ReviewingĠEditor';_['10.7554/eLife.": 3951,
      "(0": 3952,
      "C.": 3953,
      "Mis": 3954,
      "T,": 3955,
      "_count": 3956,
      "done": 3957,
      "es.": 3958,
      "et(": 3959,
      "fĠinĠ": 3960,
      "ĠhasĠ": 3961,
      "ans(": 3962,
      "idx": 3963,
      ".sh": 3964,
      "np.arange": 3965,
      "();y=": 3966,
      "compare": 3967,
      "filename,": 3968,
      "logger.error('": 3969,
      "group(1": 3970,
      "NotImplemented": 3971,
      ".items(": 3972,
      ">=0": 3973,
      "MS": 3974,
      "YouĠ": 3975,
      "bl": 3976,
      "k{ifĠ": 3977,
      "s?:": 3978,
      "})": 3979,
      "diag": 3980,
      "len(k": 3981,
      "x=='": 3982,
      "');z=": 3983,
      "np.is": 3984,
      ";ifĠisinstance(": 3985,
      ":Ġ%s": 3986,
      "(sub": 3987,
      "_CO": 3988,
      "alias": 3989,
      "product": 3990,
      "BUG": 3991,
      "background": 3992,
      "Line": 3993,
      "Max": 3994,
      "Vie": 3995,
      "[._": 3996,
      "i;": 3997,
      "j='": 3998,
      "s))": 3999,
      "._to_": 4000,
      "']{": 4001,
      "forĠ_ĠinĠ": 4002,
      "tom": 4003,
      "';y=": 4004,
      "header_": 4005,
      "==0:>": 4006,
      "registr": 4007,
      "priv": 4008,
      "fits.": 4009,
      "game": 4010,
      "orm": 4011,
      "recur": 4012,
      "ities": 4013,
      "k==": 4014,
      "digest": 4015,
      "tim": 4016,
      "):k=": 4017,
      "sĠofĠ": 4018,
      "helper": 4019,
      "logging.getLog": 4020,
      "current.": 4021,
      "environment_": 4022,
      "PIPE": 4023,
      "mbol": 4024,
      "Variant": 4025,
      "'}}": 4026,
      "(message": 4027,
      ".',": 4028,
      "cation": 4029,
      "k]": 4030,
      "pip": 4031,
      "youĠ": 4032,
      "argv": 4033,
      ");>True": 4034,
      "(_))": 4035,
      "path_": 4036,
      "s=1": 4037,
      "np.nan": 4038,
      ".ref": 4039,
      "'ĠinĠkwargs": 4040,
      "SIZ": 4041,
      "TYPE": 4042,
      "operator": 4043,
      "org/": 4044,
      ".from_": 4045,
      ".update_": 4046,
      "Web": 4047,
      "s=None){": 4048,
      "tor": 4049,
      "state_": 4050,
      "ree": 4051,
      "lec": 4052,
      "){try{": 4053,
      "exc_info": 4054,
      "lines": 4055,
      "html_": 4056,
      "overwrite": 4057,
      "){assertĠisinstance(": 4058,
      "();ifĠnotĠ": 4059,
      ".keys(": 4060,
      "255": 4061,
      "CC": 4062,
      "Net": 4063,
      "Pop": 4064,
      "href": 4065,
      "pw": 4066,
      "y),": 4067,
      "s.keys(": 4068,
      "_.split": 4069,
      "{};ifĠ": 4070,
      "****": 4071,
      "which": 4072,
      "lat_": 4073,
      "logger.debug": 4074,
      "404": 4075,
      "VALU": 4076,
      ")[0]": 4077,
      ".to": 4078,
      "Lib": 4079,
      "pd": 4080,
      "rv": 4081,
      "));elifĠ": 4082,
      "np.dot": 4083,
      "timedelta": 4084,
      "vie": 4085,
      "calc_": 4086,
      "varNum": 4087,
      "DataFrame": 4088,
      "DEBUG": 4089,
      "ESS": 4090,
      ".write(": 4091,
      "first_": 4092,
      "modifi": 4093,
      "running": 4094,
      ".synchron": 4095,
      ",k,": 4096,
      "CS": 4097,
      "ED": 4098,
      "FL": 4099,
      "Of": 4100,
      "_g": 4101,
      "sche": 4102,
      "x*": 4103,
      "',type=": 4104,
      "name_": 4105,
      "':._": 4106,
      "ilter": 4107,
      "ipv": 4108,
      "common": 4109,
      "auto_": 4110,
      "Com": 4111,
      "direct_": 4112,
      "emb": 4113,
      "unknown": 4114,
      "entry": 4115,
      "theta": 4116,
      "separator": 4117,
      "({'": 4118,
      ",i": 4119,
      "Tuple": 4120,
      "Warning": 4121,
      "h5": 4122,
      "mig": 4123,
      "tax": 4124,
      "contract": 4125,
      "foundĠ": 4126,
      "url_": 4127,
      "LOGG": 4128,
      "(config": 4129,
      ",str": 4130,
      "nt": 4131,
      "s||": 4132,
      "align": 4133,
      "s(_,": 4134,
      "s_by_": 4135,
      "';else:": 4136,
      "Regex": 4137,
      "_spec": 4138,
      "preser": 4139,
      "min(": 4140,
      "insert": 4141,
      "Ġ%r": 4142,
      "ignore_": 4143,
      "content_type": 4144,
      "warn('": 4145,
      "_[k]=": 4146,
      "._build_url('": 4147,
      "/%s/": 4148,
      ":x=": 4149,
      "=x,": 4150,
      "?{ifĠ": 4151,
      "A-": 4152,
      "OF": 4153,
      "]]": 4154,
      "o,": 4155,
      "x[0]": 4156,
      "stit": 4157,
      "oneĠ": 4158,
      "side": 4159,
      "(),'": 4160,
      ";forĠ_ĠinĠ": 4161,
      "\\\\.": 4162,
      "genome": 4163,
      "sys.stdout": 4164,
      "%H": 4165,
      "(instance": 4166,
      ")[0];": 4167,
      "3.": 4168,
      "=k.": 4169,
      ">>": 4170,
      "?&&": 4171,
      "Filter": 4172,
      "_in": 4173,
      "kip": 4174,
      "},": 4175,
      "deep": 4176,
      "fileĠ": 4177,
      "));_.": 4178,
      "));excĠ": 4179,
      "test_": 4180,
      "try{k=": 4181,
      "compute_": 4182,
      "default(": 4183,
      "import": 4184,
      ");forĠxĠinĠ": 4185,
      "strip('": 4186,
      "Detail": 4187,
      "args,**": 4188,
      "Handl": 4189,
      "(kwargs['": 4190,
      "Optional": 4191,
      "uplicate": 4192,
      "cf": 4193,
      "delete_": 4194,
      "name)": 4195,
      "y=='": 4196,
      "istic": 4197,
      "findĠ": 4198,
      "global_": 4199,
      "afe_": 4200,
      "ensit": 4201,
      "-k": 4202,
      "All": 4203,
      "tk.": 4204,
      "ww": 4205,
      "z]": 4206,
      "];i+=1": 4207,
      "digit": 4208,
      ".source": 4209,
      ".send(": 4210,
      "upload_": 4211,
      "thanĠ": 4212,
      "scen": 4213,
      "constra": 4214,
      "older_": 4215,
      "ified": 4216,
      "show_": 4217,
      "*_": 4218,
      ".add(": 4219,
      "1;": 4220,
      "Stop": 4221,
      "gistr": 4222,
      "j;": 4223,
      "rl": 4224,
      "req": 4225,
      "regex": 4226,
      "alt": 4227,
      "){j=": 4228,
      "name,'": 4229,
      "=None){ifĠnotĠ": 4230,
      "(_),": 4231,
      "):_.": 4232,
      "plan": 4233,
      "ploy": 4234,
      ");else:_=": 4235,
      "sys.stderr": 4236,
      "globalĠ": 4237,
      "Token": 4238,
      "expected_": 4239,
      "green": 4240,
      "partition": 4241,
      "flatten": 4242,
      "Multi": 4243,
      "fra": 4244,
      "sn": 4245,
      "s.get_": 4246,
      "=None){k=": 4247,
      "s=False,": 4248,
      "username,": 4249,
      "_,kĠinĠ": 4250,
      "transition": 4251,
      "active_": 4252,
      "level=": 4253,
      "host,": 4254,
      "End": 4255,
      "traceback": 4256,
      "failed": 4257,
      "neighbor": 4258,
      "(model": 4259,
      "(event": 4260,
      "=k,": 4261,
      "CP": 4262,
      "Pri": 4263,
      "Que": 4264,
      "j)": 4265,
      "j);": 4266,
      "x{ifĠ": 4267,
      "seed": 4268,
      "re.sub('": 4269,
      "ifie": 4270,
      "database": 4271,
      "vertex": 4272,
      "){ifĠ._": 4273,
      "plt.": 4274,
      "';k=": 4275,
      ".getData": 4276,
      ":raiseĠRuntimeError('": 4277,
      "dir,'": 4278,
      ".wid": 4279,
      "call_": 4280,
      "data_item": 4281,
      "metavar": 4282,
      "omial": 4283,
      "encode('utf-8": 4284,
      "i:": 4285,
      "next_": 4286,
      "pc": 4287,
      "red_": 4288,
      "ErrorĠ": 4289,
      "doub": 4290,
      "control": 4291,
      "00,": 4292,
      "ORD": 4293,
      "ware": 4294,
      "=np.zeros(": 4295,
      "continue}": 4296,
      "worker": 4297,
      "service_id,": 4298,
      "analys": 4299,
      "View": 4300,
      "19": 4301,
      "Bad": 4302,
      "`'.format(": 4303,
      "ade": 4304,
      "ax.": 4305,
      "es_": 4306,
      "rĠinĠ": 4307,
      "your": 4308,
      "ift": 4309,
      "',k": 4310,
      "ĠĠĠ": 4311,
      "patter": 4312,
      "_[x": 4313,
      "string,": 4314,
      "node(": 4315,
      "range(.": 4316,
      "Ġbe": 4317,
      "ARN": 4318,
      "99999999": 4319,
      "calcul": 4320,
      "witch": 4321,
      ".\"": 4322,
      "1}'.format(": 4323,
      "=z": 4324,
      "Dis": 4325,
      "Mem": 4326,
      "Pr": 4327,
      "[str": 4328,
      "average": 4329,
      "imat": 4330,
      "y,'": 4331,
      "atter": 4332,
      "']);ifĠ": 4333,
      "'];k=": 4334,
      "s=_": 4335,
      "[];_=": 4336,
      "dirs(": 4337,
      ".delete_": 4338,
      "fields(": 4339,
      "_regist": 4340,
      "{forĠkĠinĠ": 4341,
      "source.": 4342,
      "Change": 4343,
      "!{try:": 4344,
      "operation": 4345,
      "view_": 4346,
      "13": 4347,
      "a)": 4348,
      "i)": 4349,
      "lyĠ": 4350,
      "ous": 4351,
      "en_": 4352,
      ");ifĠy": 4353,
      "{})": 4354,
      "os.path.basename": 4355,
      "text,": 4356,
      "random_": 4357,
      "KEYS.": 4358,
      "1:": 4359,
      "j['": 4360,
      "v.": 4361,
      "):.": 4362,
      "file_name": 4363,
      "prop": 4364,
      "==2": 4365,
      "{ifĠisinstance(": 4366,
      "edDict": 4367,
      "d.Ġ": 4368,
      ");_.append(": 4369,
      ",scope": 4370,
      "usingĠ": 4371,
      "destination": 4372,
      "os.path.join(.": 4373,
      "scriptor": 4374,
      "precision": 4375,
      "vals[i])": 4376,
      "vals[i];i+=1": 4377,
      ";ifĠlen(vals[i])": 4378,
      "Popbill": 4379,
      "(func": 4380,
      "-input": 4381,
      ":_['": 4382,
      "P<": 4383,
      "[3": 4384,
      "[t": 4385,
      "[],": 4386,
      "g.c": 4387,
      "h,": 4388,
      "s){k=": 4389,
      "repe": 4390,
      "rot": 4391,
      ".sleep": 4392,
      ");>x": 4393,
      "Name=None,": 4394,
      "clear": 4395,
      "resource_": 4396,
      "catalog": 4397,
      "cluster": 4398,
      "256": 4399,
      "CPEComponent": 4400,
      "PopbillException": 4401,
      "\"Ġ": 4402,
      ")Ċ": 4403,
      ".'.format(": 4404,
      "2','": 4405,
      "?P<": 4406,
      "bar": 4407,
      "etag": 4408,
      "sql": 4409,
      "scale": 4410,
      "enu": 4411,
      "measurement": 4412,
      "Ġindex": 4413,
      "name='": 4414,
      ")}k=": 4415,
      "),:": 4416,
      "nest": 4417,
      "')||": 4418,
      "back=": 4419,
      "scan_": 4420,
      "field(": 4421,
      "try:k=": 4422,
      "RES": 4423,
      "Device": 4424,
      "->None": 4425,
      "success": 4426,
      "Timeout": 4427,
      "fastaccess": 4428,
      "total_": 4429,
      "findall": 4430,
      "Permission": 4431,
      "pickle": 4432,
      "OrderedDict": 4433,
      "campa": 4434,
      "lecule": 4435,
      ".list": 4436,
      "Schema": 4437,
      "[str,": 4438,
      "bib": 4439,
      "es=": 4440,
      "follow": 4441,
      "j]=": 4442,
      "leĠ": 4443,
      "ctx.": 4444,
      "['type": 4445,
      "name]=": 4446,
      "mod": 4447,
      "));._": 4448,
      "pose": 4449,
      "os.get": 4450,
      "-1;": 4451,
      "ithub": 4452,
      "[1].": 4453,
      ";>k": 4454,
      ";forĠxĠinĠ": 4455,
      ")}}elifĠ": 4456,
      "Ġsho": 4457,
      "status_code==": 4458,
      "(-99999999": 4459,
      "',action='store_true": 4460,
      "logger.warning('": 4461,
      "._to_str(.": 4462,
      "PopbillException(-99999999": 4463,
      "(q": 4464,
      ".update": 4465,
      "lgc": 4466,
      "save_": 4467,
      "Īëĭ": 4468,
      "ceiver": 4469,
      "request('": 4470,
      "0,0,": 4471,
      ".wa": 4472,
      "cred": 4473,
      "INFO": 4474,
      "){forĠkĠinĠ": 4475,
      "radians(": 4476,
      "Formatter": 4477,
      "Content-": 4478,
      "ëĭĪëĭ": 4479,
      "strftime('": 4480,
      ".synchronous_": 4481,
      "PopbillException(-99999999,'": 4482,
      "ëĭĪëĭ¤": 4483,
      "\"%s\"": 4484,
      "0,'": 4485,
      "=y": 4486,
      "?ĠelseĠ": 4487,
      "AY": 4488,
      "Json": 4489,
      "_or_": 4490,
      "s!": 4491,
      "sl": 4492,
      "site": 4493,
      "s&&": 4494,
      "{i=": 4495,
      "{::'": 4496,
      "ater": 4497,
      "',Ġ'": 4498,
      "ones(": 4499,
      "name);": 4500,
      ",'__": 4501,
      "negate": 4502,
      ")).": 4503,
      "ustom_": 4504,
      "Ġbut": 4505,
      "default('": 4506,
      "?:_=": 4507,
      "):raiseĠTypeError('": 4508,
      "ĠofĠtheĠ": 4509,
      "correct": 4510,
      "zip(": 4511,
      "Collection": 4512,
      "ofĠtypeĠ": 4513,
      "volume": 4514,
      "observ": 4515,
      "LOGGER": 4516,
      "(**kwargs": 4517,
      "\\r": 4518,
      "_:raiseĠ": 4519,
      "_var": 4520,
      "a='": 4521,
      "same": 4522,
      "};ifĠ": 4523,
      "µëĭĪëĭ¤": 4524,
      "ĬµëĭĪëĭ¤": 4525,
      "inc": 4526,
      "dev": 4527,
      "',._": 4528,
      "=None;ifĠ": 4529,
      ");>}": 4530,
      "s_list": 4531,
      "doc_": 4532,
      ";>._": 4533,
      "range(0,": 4534,
      "block_name": 4535,
      "member_": 4536,
      ".create(": 4537,
      "ĠfileĠ": 4538,
      "ratio": 4539,
      "(data,": 4540,
      "/'+": 4541,
      "cator": 4542,
      "y-": 4543,
      "degre": 4544,
      "('^": 4545,
      "name.": 4546,
      "type':'": 4547,
      "):._": 4548,
      "[0]=='": 4549,
      "listRegex": 4550,
      "=True){": 4551,
      "number_": 4552,
      "commdct": 4553,
      "Store": 4554,
      "client.": 4555,
      "_type,": 4556,
      "ENT": 4557,
      "(b,": 4558,
      "empty": 4559,
      "Arra": 4560,
      "wrapper": 4561,
      "SubElement": 4562,
      "list,tuple": 4563,
      "version_number": 4564,
      "os.path.splitext(": 4565,
      ".synchronous_command('": 4566,
      "==None": 4567,
      "GI": 4568,
      "NA": 4569,
      "ep_": 4570,
      "h=": 4571,
      "i+": 4572,
      "ndim": 4573,
      "s'ĠinĠ": 4574,
      "x,'": 4575,
      "z[": 4576,
      "§ĢĠì": 4577,
      ");x.": 4578,
      "('-": 4579,
      "file.": 4580,
      "user_id": 4581,
      "Type.": 4582,
      "word_": 4583,
      "quiet": 4584,
      "other.": 4585,
      "install": 4586,
      "structure": 4587,
      ".current.": 4588,
      "mask,": 4589,
      "register": 4590,
      ".clear": 4591,
      "owner": 4592,
      "']'.ĠReceivedĠtype:Ġ'%s'\"%type(": 4593,
      "Generator": 4594,
      "boolean": 4595,
      "'{_=": 4596,
      ":break": 4597,
      "Be": 4598,
      "Win": 4599,
      "ach": 4600,
      "fmt": 4601,
      "gon": 4602,
      "kin": 4603,
      "pid": 4604,
      "vip": 4605,
      "y.s": 4606,
      "Ĭì": 4607,
      "ķĬì": 4608,
      "stro": 4609,
      "ard(": 4610,
      "ce_": 4611,
      "._handle_": 4612,
      "):continue": 4613,
      "np.lin": 4614,
      "formation": 4615,
      "else:raiseĠ": 4616,
      ",_C": 4617,
      ";>.": 4618,
      "atures": 4619,
      "}>x": 4620,
      "float,": 4621,
      "Location": 4622,
      "resource_id": 4623,
      ".setGraphVal('": 4624,
      "wraps(": 4625,
      "invalid-input": 4626,
      "lamb": 4627,
      "Manag": 4628,
      "metavar='": 4629,
      "§ĢĠìķĬì": 4630,
      "+.": 4631,
      "3/": 4632,
      "Fast": 4633,
      "Pos": 4634,
      "a;": 4635,
      "dst": 4636,
      "fl": 4637,
      "p(": 4638,
      "s';": 4639,
      "one_": 4640,
      "));z=": 4641,
      "&&'": 4642,
      ",_);": 4643,
      "combin": 4644,
      ".split(": 4645,
      "sigma": 4646,
      "[x]=": 4647,
      ".format_": 4648,
      "round_": 4649,
      "serialize": 4650,
      "`'.format(value": 4651,
      "vals[i];i+=1;ifĠlen(vals[i])": 4652,
      "(id": 4653,
      "-%m": 4654,
      "Cur": 4655,
      "VM": 4656,
      "s{_=": 4657,
      "wi": 4658,
      "x+=": 4659,
      "fire": 4660,
      "cover": 4661,
      "exchange": 4662,
      "row_": 4663,
      "utc": 4664,
      "();excĠ": 4665,
      "virt": 4666,
      ":>True": 4667,
      "ĠifĠnotĠ": 4668,
      "[];forĠxĠinĠ": 4669,
      "inputs.": 4670,
      "missing": 4671,
      "task_": 4672,
      "Obj": 4673,
      "force_": 4674,
      "cert": 4675,
      "DATA": 4676,
      "doesĠnotĠexist": 4677,
      ")=.": 4678,
      ".meta": 4679,
      "BO": 4680,
      "]-": 4681,
      "cu": 4682,
      "k.get('": 4683,
      "m(": 4684,
      "oci": 4685,
      "y]=": 4686,
      "decl": 4687,
      "s(_)": 4688,
      "None,'": 4689,
      "file(": 4690,
      ":>_": 4691,
      "Exist": 4692,
      "\\nĠĠĠĠ": 4693,
      "Stream": 4694,
      "_file_name": 4695,
      "deriv": 4696,
      "Dire": 4697,
      "_CON": 4698,
      "rename": 4699,
      "(request,": 4700,
      "ctypes.c_": 4701,
      "));_.append(._to_str(.": 4702,
      "SIZE": 4703,
      "service_id,version_number": 4704,
      "80": 4705,
      "Cache": 4706,
      "EP": 4707,
      "],'": 4708,
      "ifyĠ": 4709,
      "peak": 4710,
      "issub": 4711,
      "trun": 4712,
      "sible": 4713,
      "ssh": 4714,
      ":>'": 4715,
      "[];k=": 4716,
      "params,": 4717,
      "placeh": 4718,
      "(c,": 4719,
      ".value=": 4720,
      "uldĠbeĠ": 4721,
      "COMM": 4722,
      "supportedĠ": 4723,
      "Func": 4724,
      "Query": 4725,
      "-%m-": 4726,
      "!=1": 4727,
      ")ĠelseĠ": 4728,
      "+_": 4729,
      "Min": 4730,
      "Task": 4731,
      "Wid": 4732,
      "a);": 4733,
      "cm": 4734,
      "mime": 4735,
      "ences": 4736,
      "'];_=": 4737,
      "dataset_": 4738,
      "(k['": 4739,
      "simul": 4740,
      ".warn": 4741,
      "subj": 4742,
      "piece": 4743,
      "ATE": 4744,
      "auth_": 4745,
      "lat,": 4746,
      "_path,": 4747,
      "document_": 4748,
      "[:,0": 4749,
      "astype(": 4750,
      "definition": 4751,
      ":%M": 4752,
      "accept": 4753,
      "JobF": 4754,
      "kernel": 4755,
      "equip": 4756,
      "UnknownĠ": 4757,
      "preserve_": 4758,
      "\"{}\"": 4759,
      ")!=": 4760,
      ".pop": 4761,
      ".find_": 4762,
      "/2": 4763,
      ":str,": 4764,
      ">Ġ": 4765,
      "ht_": 4766,
      "oundĠ": 4767,
      "ity(": 4768,
      ")}_=": 4769,
      "value!{try:": 4770,
      "),(": 4771,
      "ter_": 4772,
      "np.empty(": 4773,
      "sil": 4774,
      "k.name": 4775,
      "-1];": 4776,
      "Expect": 4777,
      "\\n'.format(": 4778,
      "||notĠ": 4779,
      "}>False": 4780,
      "subject": 4781,
      "):>False": 4782,
      "class.": 4783,
      "train": 4784,
      "ThisĠ": 4785,
      "AND": 4786,
      ".create": 4787,
      "write(": 4788,
      "style.": 4789,
      "iĠinĠrange(len(": 4790,
      "ctypes.byref": 4791,
      ");excĠValueError:raiseĠValueError('value": 4792,
      "math.": 4793,
      "Ġ{}ĠneedĠtoĠbeĠ": 4794,
      "time.time()": 4795,
      "\\\\d+)": 4796,
      "render_": 4797,
      "dbsExceptionHandler('dbsException-invalid-input": 4798,
      "timedelta(": 4799,
      "value!{try:value=": 4800,
      ");excĠValueError:raiseĠValueError('valueĠ{}ĠneedĠtoĠbeĠ": 4801,
      "Ho": 4802,
      "greg": 4803,
      "tup": 4804,
      "ħë": 4805,
      "inte": 4806,
      "any": 4807,
      "geo": 4808,
      "',x": 4809,
      "rack": 4810,
      "iso": 4811,
      "contr": 4812,
      "value.": 4813,
      "{ifĠ'": 4814,
      "scre": 4815,
      "=True)": 4816,
      "\\\\w": 4817,
      "+'\\n": 4818,
      "hasGraph": 4819,
      "account": 4820,
      "addr": 4821,
      "adding": 4822,
      "color=": 4823,
      "connect_": 4824,
      "(x,y,": 4825,
      ".split('/": 4826,
      "stream_": 4827,
      "context.": 4828,
      "URI": 4829,
      "Child": 4830,
      "(filename,": 4831,
      "astype(np.": 4832,
      "cookie": 4833,
      ".sequences.": 4834,
      "')}ifĠ": 4835,
      "C_": 4836,
      "Prf": 4837,
      "_lib": 4838,
      "ding": 4839,
      "ide": 4840,
      "jd": 4841,
      "mk": 4842,
      "s;ifĠ": 4843,
      "s'%": 4844,
      "ê°": 4845,
      "ins": 4846,
      "Ġinter": 4847,
      ");ifĠ._": 4848,
      ":raiseĠexceptions.": 4849,
      "com/": 4850,
      "(_,k": 4851,
      "image_": 4852,
      "chain_": 4853,
      "hyper": 4854,
      "mask=": 4855,
      "proxy.": 4856,
      "-_": 4857,
      ";k.": 4858,
      "font": 4859,
      "i(": 4860,
      "ĠS": 4861,
      "selection": 4862,
      "segment": 4863,
      "uest": 4864,
      "Ġinstance": 4865,
      "exit(": 4866,
      "s(){k=": 4867,
      ".sy": 4868,
      "s_from_": 4869,
      "dĠforĠ": 4870,
      "x,y,": 4871,
      "instance.": 4872,
      "errors.": 4873,
      "callsign": 4874,
      "izer": 4875,
      "dail": 4876,
      "hostname": 4877,
      "signature": 4878,
      "'.join([": 4879,
      "TIME": 4880,
      "Result": 4881,
      "layout": 4882,
      "present": 4883,
      "property_": 4884,
      "np.where(": 4885,
      "App": 4886,
      ".py": 4887,
      "fname": 4888,
      "mut": 4889,
      "},'": 4890,
      "simp": 4891,
      "ĠforĠk,_ĠinĠ": 4892,
      "x,:": 4893,
      "lineĠ": 4894,
      "_schema": 4895,
      "previ": 4896,
      "read(": 4897,
      "fill_": 4898,
      "cursor": 4899,
      ".shape[1]": 4900,
      "wait_": 4901,
      "np.sin": 4902,
      "ip_addres": 4903,
      ",'rb": 4904,
      "rollback": 4905,
      "enabled": 4906,
      "Ġ\"%s\"": 4907,
      "Byte": 4908,
      "Output": 4909,
      "Addres": 4910,
      "Point": 4911,
      "http_": 4912,
      "encoding='utf-8": 4913,
      "struct.pack('": 4914,
      "concaten": 4915,
      "-3": 4916,
      "1/": 4917,
      "GE": 4918,
      "_&&": 4919,
      "_label": 4920,
      "riter": 4921,
      "}x=": 4922,
      "att": 4923,
      "lot": 4924,
      "point_": 4925,
      "ned": 4926,
      "s[x": 4927,
      "valid_": 4928,
      "Enable": 4929,
      "copy.": 4930,
      "fasta": 4931,
      ".close();": 4932,
      "aliase": 4933,
      "vertice": 4934,
      "HEAD": 4935,
      "%Y-%m-": 4936,
      ".json": 4937,
      ".connect": 4938,
      "0)": 4939,
      "Ne": 4940,
      "k+=1": 4941,
      "pt_": 4942,
      "writ": 4943,
      "',{'": 4944,
      "x==": 4945,
      "pol": 4946,
      "[0]=": 4947,
      "tect": 4948,
      "{}/": 4949,
      "setĠ": 4950,
      ".cache": 4951,
      "[1]);": 4952,
      "maximum": 4953,
      ".device": 4954,
      "params['": 4955,
      "ĠisĠTrue": 4956,
      "_type=": 4957,
      "options['": 4958,
      "strip();": 4959,
      "[];forĠ_ĠinĠ": 4960,
      "io_": 4961,
      "ID,": 4962,
      "iveĠ": 4963,
      "lush": 4964,
      "clean_": 4965,
      "SIG": 4966,
      ",**kwargs)": 4967,
      "ACK": 4968,
      "radiu": 4969,
      "webdriver": 4970,
      "MPL": 4971,
      "key=(\\": 4972,
      "silent": 4973,
      "0;ifĠ": 4974,
      ":k.": 4975,
      "Dword(": 4976,
      "Length": 4977,
      "Mon": 4978,
      "Off": 4979,
      "Sign": 4980,
      "rel": 4981,
      "molecule": 4982,
      "y=.": 4983,
      "clu": 4984,
      "prob": 4985,
      "append_": 4986,
      ":raiseĠException('": 4987,
      "prediction": 4988,
      "s']['": 4989,
      "velength": 4990,
      "status": 4991,
      "status(": 4992,
      ");._set('": 4993,
      "start_time": 4994,
      "fastq": 4995,
      "super(Api": 4996,
      "Factor": 4997,
      "FailedĠtoĠ": 4998,
      ".index": 4999,
      ";assertĠ": 5000,
      "CF": 5001,
      "Feature": 5002,
      "Ġ{}": 5003,
      "Ġ{0}": 5004,
      "eric": 5005,
      "decor": 5006,
      "',_,": 5007,
      "];elifĠ": 5008,
      "time.sleep": 5009,
      "not_": 5010,
      ":raiseĠTypeError('": 5011,
      "Copy": 5012,
      "token_": 5013,
      "parameters.": 5014,
      "(value,": 5015,
      "update({'": 5016,
      "chunk_size": 5017,
      "pipel": 5018,
      "Handler(": 5019,
      "ê°ĢĠì": 5020,
      "(N": 5021,
      "(g": 5022,
      "(n,": 5023,
      ")]=": 5024,
      ",y": 5025,
      "-b": 5026,
      "2f": 5027,
      "2}": 5028,
      "Guest": 5029,
      "[key": 5030,
      "dul": 5031,
      "send_": 5032,
      "x}": 5033,
      "Ġformat": 5034,
      "led": 5035,
      "leg": 5036,
      "){@": 5037,
      "extern": 5038,
      "atedĠ": 5039,
      "value('": 5040,
      "log.": 5041,
      "');k.": 5042,
      "setup": 5043,
      "kwd": 5044,
      "os.remove": 5045,
      ",_['": 5046,
      ";>False": 5047,
      "create(": 5048,
      "array_": 5049,
      "range(len(": 5050,
      "charact": 5051,
      "monomial": 5052,
      "copy();": 5053,
      "center": 5054,
      "magic": 5055,
      "Work": 5056,
      "prompt": 5057,
      "67": 5058,
      "=int(": 5059,
      "Match": 5060,
      "[[": 5061,
      "va": 5062,
      "y*": 5063,
      "stract": 5064,
      "exe": 5065,
      "']==": 5066,
      "paralle": 5067,
      "Error{": 5068,
      "(x);": 5069,
      "objecttools.": 5070,
      "group_": 5071,
      "{0:": 5072,
      "];ifĠnotĠ": 5073,
      "begin": 5074,
      ">0&&": 5075,
      "turn": 5076,
      "tree(": 5077,
      "server_": 5078,
      "LOC": 5079,
      ".serial": 5080,
      "public": 5081,
      "median": 5082,
      "readDataInstance.readDword(": 5083,
      "!r": 5084,
      "(word": 5085,
      "28": 5086,
      "33": 5087,
      ":\\n": 5088,
      "Met": 5089,
      "OB": 5090,
      "[4": 5091,
      "cut": 5092,
      "cab": 5093,
      "draw": 5094,
      "gu": 5095,
      "jct_": 5096,
      "lĠinĠ": 5097,
      "ense": 5098,
      "){a=": 5099,
      "anch": 5100,
      "s(:": 5101,
      "unic": 5102,
      "(k),": 5103,
      "able_": 5104,
      "vices": 5105,
      "[0]+": 5106,
      "foun": 5107,
      "models_": 5108,
      "minimum": 5109,
      "(x,'": 5110,
      "sign_": 5111,
      "{forĠxĠinĠ": 5112,
      ":_='": 5113,
      "[xĠforĠxĠinĠ": 5114,
      "body=": 5115,
      "indicator": 5116,
      ".current": 5117,
      "(kwargs": 5118,
      "skip": 5119,
      "ĠthatĠ": 5120,
      "Director": 5121,
      "concatenate(": 5122,
      ")==1": 5123,
      ",var": 5124,
      ".objects.": 5125,
      ";b=": 5126,
      "System": 5127,
      "_('": 5128,
      "bam": 5129,
      "cs": 5130,
      "k*": 5131,
      "liter": 5132,
      "rand": 5133,
      "relat": 5134,
      "',0": 5135,
      "otype": 5136,
      "strPath": 5137,
      "outfile": 5138,
      "url=": 5139,
      "Coun": 5140,
      "method_": 5141,
      "api/v": 5142,
      "Parent": 5143,
      "client_id": 5144,
      "six.string_type": 5145,
      "push": 5146,
      "Iteration": 5147,
      "Root": 5148,
      "Download": 5149,
      "djang": 5150,
      ");excĠValueError:raiseĠValueError('valueĠ{}ĠneedĠtoĠbeĠofĠtypeĠ": 5151,
      "GuestLib": 5152,
      ")%": 5153,
      ":k": 5154,
      "={'": 5155,
      "_ĠnotĠinĠ": 5156,
      "_color": 5157,
      "i=.": 5158,
      "j.append(": 5159,
      "s).": 5160,
      ");try{": 5161,
      "delim": 5162,
      ");ifĠi": 5163,
      "_.append('": 5164,
      "];.": 5165,
      "dataĠ": 5166,
      "ĠforĠkĠinĠ": 5167,
      "ve(": 5168,
      "ride": 5169,
      "os.make": 5170,
      "requests.get(": 5171,
      "sym": 5172,
      ".0/": 5173,
      "query,": 5174,
      "columns": 5175,
      "getattr(.,'": 5176,
      "ETE": 5177,
      "port_": 5178,
      "grade": 5179,
      "(key,": 5180,
      "ShEx": 5181,
      "yourĠ": 5182,
      "(){ifĠ.": 5183,
      ",k.": 5184,
      ".check_": 5185,
      "={": 5186,
      "AĠ": 5187,
      "FileĠ": 5188,
      "a.append(": 5189,
      "bg": 5190,
      "debug('": 5191,
      "coer": 5192,
      "s(k": 5193,
      "d_read": 5194,
      "uplo": 5195,
      "s_dict": 5196,
      "ssl_": 5197,
      "';x=": 5198,
      "scan": 5199,
      "config_file": 5200,
      "[:-1]": 5201,
      ".subm": 5202,
      "None,None": 5203,
      "Quant": 5204,
      "os.path.isdir": 5205,
      "dictionar": 5206,
      "Clust": 5207,
      "1,'": 5208,
      ":y=": 5209,
      "GU": 5210,
      "LIN": 5211,
      "Mdl": 5212,
      "WARN": 5213,
      "_t": 5214,
      "ber(": 5215,
      "ection": 5216,
      "qĠinĠ": 5217,
      "sm": 5218,
      "xpath": 5219,
      "x+='": 5220,
      "y{ifĠ": 5221,
      "release": 5222,
      "_.get": 5223,
      ".sim": 5224,
      ");>'": 5225,
      "value)": 5226,
      "need": 5227,
      "){_={'": 5228,
      "x,y": 5229,
      "delay": 5230,
      "predi": 5231,
      "float(value": 5232,
      "!=-1": 5233,
      "{0}/": 5234,
      ")}ifĠ.": 5235,
      "==0:.": 5236,
      "Entry": 5237,
      "Dir": 5238,
      "ASE": 5239,
      "datas": 5240,
      "master_": 5241,
      ".__name__,": 5242,
      "JobFn(": 5243,
      "Metadata": 5244,
      "ShExJ": 5245,
      "(?P<": 5246,
      ")ĠinĠ": 5247,
      ";whileĠ": 5248,
      "`Ġ": 5249,
      "afe": 5250,
      "bon": 5251,
      "cn": 5252,
      "full_": 5253,
      "vlan": 5254,
      "{k:": 5255,
      "endĠ": 5256,
      "season": 5257,
      "ify": 5258,
      "._parse_": 5259,
      "_.get_": 5260,
      "strp": 5261,
      "polic": 5262,
      "len(y)": 5263,
      "itherĠ": 5264,
      "er_id": 5265,
      "boot": 5266,
      "size,": 5267,
      "[i],": 5268,
      "[:,1": 5269,
      ");forĠyĠinĠ": 5270,
      "disconnect": 5271,
      "dispatch": 5272,
      "workflow": 5273,
      "method=='": 5274,
      "block_": 5275,
      "memor": 5276,
      "executable": 5277,
      "local_": 5278,
      "job.file": 5279,
      "stdout=": 5280,
      "EXT": 5281,
      ".request.": 5282,
      "ORMAT": 5283,
      "recursive": 5284,
      "Fastly": 5285,
      "=i": 5286,
      "Action": 5287,
      "Lay": 5288,
      "PUT": 5289,
      "VI": 5290,
      "]),": 5291,
      "_._": 5292,
      "got": 5293,
      "ture": 5294,
      "Ġ[": 5295,
      "alg": 5296,
      "s.Ġ": 5297,
      "format='": 5298,
      "program": 5299,
      "func=": 5300,
      "scribe": 5301,
      "ussi": 5302,
      ".flush": 5303,
      "Ġspec": 5304,
      "Proper": 5305,
      "job,": 5306,
      "entry_": 5307,
      "histor": 5308,
      "ravel()": 5309,
      ",scope,": 5310,
      "issubclass(": 5311,
      "(url,": 5312,
      ",z": 5313,
      "DR": 5314,
      "PATH": 5315,
      "SER": 5316,
      "_p": 5317,
      "fall": 5318,
      "td": 5319,
      "y.get('": 5320,
      "âķ": 5321,
      "form.": 5322,
      "rop": 5323,
      ")}.": 5324,
      ",'_": 5325,
      "','')": 5326,
      "series(": 5327,
      "();z=": 5328,
      "dom": 5329,
      "x,k": 5330,
      "faces": 5331,
      ".getId(": 5332,
      "box_": 5333,
      "[_],": 5334,
      ")}>x": 5335,
      ".split(':": 5336,
      "numberĠofĠ": 5337,
      "=._api": 5338,
      ")ĠforĠxĠinĠ": 5339,
      "mote_": 5340,
      "page_": 5341,
      "visib": 5342,
      "MAG": 5343,
      "1000": 5344,
      ")->None": 5345,
      "sys.exit(1": 5346,
      "%H:%M": 5347,
      "credential": 5348,
      "strptime": 5349,
      ";try:": 5350,
      "FoundĠ": 5351,
      "Lab": 5352,
      "P','": 5353,
      "PER": 5354,
      "Rat": 5355,
      "dyn": 5356,
      "echo": 5357,
      "null": 5358,
      "}k=": 5359,
      "depend": 5360,
      "){k='": 5361,
      "ĠinĠtheĠ": 5362,
      "coeff": 5363,
      "aspect": 5364,
      "logy": 5365,
      "vec": 5366,
      "persist": 5367,
      "lineno": 5368,
      "_id':": 5369,
      ";>True": 5370,
      "isinstance(x,": 5371,
      ".defa": 5372,
      "[_].": 5373,
      "method(": 5374,
      "ENT_": 5375,
      "variant_": 5376,
      "root.": 5377,
      "suffix": 5378,
      "marker": 5379,
      "UBLAS": 5380,
      "Authentic": 5381,
      "period_": 5382,
      "base_url=._api": 5383,
      ",_CUBLAS": 5384,
      "-x": 5385,
      ".iter_": 5386,
      "6,": 5387,
      "=['": 5388,
      "EE": 5389,
      "SC": 5390,
      "[None": 5391,
      "gh": 5392,
      "{:": 5393,
      "Ġ'.join(": 5394,
      "ķĺì": 5395,
      "ŀħë": 5396,
      "ł¥": 5397,
      "atype": 5398,
      "loan": 5399,
      "s.value": 5400,
      "entĠ": 5401,
      "ateĠ": 5402,
      "nameĠinĠ": 5403,
      "':_.": 5404,
      "s=._": 5405,
      "x,y=": 5406,
      "\\n'%": 5407,
      "lack": 5408,
      "backup": 5409,
      "Dataset": 5410,
      "=None){ifĠvalue!{try:value=": 5411,
      "other_": 5412,
      "directory,": 5413,
      "'.join(_": 5414,
      "api_url": 5415,
      "naQuant": 5416,
      "ecef_": 5417,
      "functools.partial": 5418,
      "constraint": 5419,
      "§ĢĠìķĬìķĺì": 5420,
      "ŀħëł¥": 5421,
      "§ĢĠìķĬìķĺìĬµëĭĪëĭ¤": 5422,
      "=m": 5423,
      "=value": 5424,
      "Button": 5425,
      "DU": 5426,
      "G_": 5427,
      "Hel": 5428,
      "_<": 5429,
      "be_": 5430,
      "pingĠ": 5431,
      "rad": 5432,
      "uch": 5433,
      "z+=": 5434,
      "ëĲ": 5435,
      ");_['": 5436,
      "orient": 5437,
      "stand": 5438,
      "state(": 5439,
      "sed": 5440,
      "argparse.": 5441,
      ".save_": 5442,
      "value(": 5443,
      "),.": 5444,
      "np.nd": 5445,
      "x,k=": 5446,
      "'.format(_": 5447,
      "urllib": 5448,
      "config(": 5449,
      "model_name": 5450,
      ");_=.": 5451,
      "rowser": 5452,
      "%d/": 5453,
      "requirement": 5454,
      "access_key": 5455,
      "{}'.format(.": 5456,
      "solver": 5457,
      "(){ifĠ._": 5458,
      "whileĠTrue{": 5459,
      "entries": 5460,
      "ĺì§ĢĠìķĬìķĺìĬµëĭĪëĭ¤": 5461,
      "start,end": 5462,
      "pository": 5463,
      "logging.getLogger": 5464,
      "Window": 5465,
      "models_proxy.": 5466,
      "ŀħëł¥ëĲ": 5467,
      "ŀħëł¥ëĲĺì§ĢĠìķĬìķĺìĬµëĭĪëĭ¤": 5468,
      ".h": 5469,
      ":yieldĠ": 5470,
      "=4": 5471,
      "New": 5472,
      "UCC": 5473,
      "send": 5474,
      "s');ifĠ": 5475,
      "uc": 5476,
      "inal": 5477,
      "station": 5478,
      "stage": 5479,
      "itter": 5480,
      "ity,": 5481,
      "']}": 5482,
      "_.shape": 5483,
      ".sche": 5484,
      "','/": 5485,
      "');excĠ": 5486,
      "ancel": 5487,
      "x,_": 5488,
      "_sy": 5489,
      "ERS": 5490,
      "filename=": 5491,
      ");forĠiĠinĠ": 5492,
      "Id=None,": 5493,
      "manage": 5494,
      "lon_": 5495,
      "lease_": 5496,
      "hasattr(.,'": 5497,
      "datetime.datetime.": 5498,
      "indices": 5499,
      "json_content": 5500,
      "s=True,": 5501,
      "reshape(": 5502,
      "drop": 5503,
      "ĠwasĠ": 5504,
      "hasGraph('": 5505,
      "'){k=": 5506,
      "(tag": 5507,
      "-c": 5508,
      "-type": 5509,
      "2);": 5510,
      "Over": 5511,
      "fp.": 5512,
      "gz": 5513,
      "glo": 5514,
      "s2": 5515,
      ");ifĠz": 5516,
      "];excĠKeyError": 5517,
      "np.log": 5518,
      ";ifĠ_.": 5519,
      "scr": 5520,
      "Context": 5521,
      "[i+1": 5522,
      "Ġ'{}": 5523,
      "apping": 5524,
      "_.append(('": 5525,
      "usage": 5526,
      "subprocess.PIPE": 5527,
      "quote": 5528,
      ".client.": 5529,
      "warnings.warn('": 5530,
      "click.echo('": 5531,
      "trunc": 5532,
      "Msg": 5533,
      "_str": 5534,
      "b);": 5535,
      "e.0": 5536,
      "Ġerror": 5537,
      "inf": 5538,
      "art": 5539,
      "val,": 5540,
      "];j=": 5541,
      "s,.": 5542,
      "scatter": 5543,
      "Exec": 5544,
      "{'name':": 5545,
      "models.": 5546,
      "minute": 5547,
      "ship": 5548,
      "base64": 5549,
      "Section": 5550,
      "parsed_": 5551,
      "List[": 5552,
      "inst['": 5553,
      "utf8": 5554,
      "field_name": 5555,
      "10.7554/eLife.0": 5556,
      "decode('utf-8": 5557,
      ".register_": 5558,
      "engine": 5559,
      "Optional[": 5560,
      "Queue": 5561,
      "lambda": 5562,
      "ExpectedĠ": 5563,
      "(l": 5564,
      ".put": 5565,
      "AV": 5566,
      "B_": 5567,
      "Cli": 5568,
      "MET": 5569,
      "W_": 5570,
      "a:": 5571,
      "c);": 5572,
      "k&&": 5573,
      "k[0]": 5574,
      "ogram": 5575,
      "ration_": 5576,
      "s:raiseĠ": 5577,
      "lect_": 5578,
      "geome": 5579,
      "maj": 5580,
      "');else:": 5581,
      "ĠforĠcĠinĠ": 5582,
      ":>.": 5583,
      "percent": 5584,
      "Repo": 5585,
      "scor": 5586,
      "_sample": 5587,
      ";_=._": 5588,
      "call(": 5589,
      "(fname": 5590,
      "Process": 5591,
      "MAP": 5592,
      "();forĠkĠinĠ": 5593,
      "';_='": 5594,
      "assistant": 5595,
      "WARNING": 5596,
      "(h": 5597,
      "(str(": 5598,
      "-4": 5599,
      ".l": 5600,
      ".analysistype].": 5601,
      "01": 5602,
      ";raiseĠ": 5603,
      "=get_": 5604,
      "OA": 5605,
      "i*": 5606,
      "os_": 5607,
      "y));": 5608,
      "Ġobject": 5609,
      "Ġargument": 5610,
      ");exc": 5611,
      "s(){ifĠ": 5612,
      "trim": 5613,
      "values": 5614,
      "sĠfromĠ": 5615,
      "=False;": 5616,
      "=False){_=": 5617,
      ".split()": 5618,
      "wordĠ": 5619,
      "Name,": 5620,
      "ĠnotĠinĠ._": 5621,
      "beenĠ": 5622,
      "=np.array(": 5623,
      "quires": 5624,
      ")}}excĠ": 5625,
      "general": 5626,
      "_fn": 5627,
      "target,": 5628,
      "Ġ{1}": 5629,
      "address": 5630,
      "(){_=.": 5631,
      "insert_": 5632,
      "os.path.join(_,'": 5633,
      "collections.": 5634,
      "dtype=int": 5635,
      "dtype=float": 5636,
      "s[_]": 5637,
      "####": 5638,
      "np.isnan": 5639,
      "screen": 5640,
      ")ĠisĠ": 5641,
      ".'%": 5642,
      ".db": 5643,
      ".trans": 5644,
      ".find('": 5645,
      "90": 5646,
      "JEC": 5647,
      "[r": 5648,
      "blan": 5649,
      "cen": 5650,
      "f\"": 5651,
      "ger(": 5652,
      "k),": 5653,
      "ner": 5654,
      "sure": 5655,
      "Ġ{}'.format(": 5656,
      "){withĠ": 5657,
      "cosmo": 5658,
      "unch": 5659,
      ");ifĠm": 5660,
      "parseĠ": 5661,
      "parent.": 5662,
      "Error:raiseĠ": 5663,
      ":Ġ{}'.format": 5664,
      ".getLocal": 5665,
      "flow_": 5666,
      "substit": 5667,
      "IN_": 5668,
      "ized": 5669,
      "clip": 5670,
      "KeyError:pass": 5671,
      "E_URL": 5672,
      "))}._": 5673,
      "Parse": 5674,
      "number=": 5675,
      "_:_.": 5676,
      "timeout=": 5677,
      "charge": 5678,
      "');_.add_argument('--": 5679,
      "Control": 5680,
      ",'wb": 5681,
      ",'w')ĠasĠ": 5682,
      "secret_": 5683,
      "media": 5684,
      "::2,1": 5685,
      "pd.DataFrame": 5686,
      "ctxt,": 5687,
      "cannotĠbeĠ": 5688,
      "application/json": 5689,
      "_register_": 5690,
      "campaign": 5691,
      ".default_": 5692,
      "\".format": 5693,
      ",None": 5694,
      ",key": 5695,
      ".name,": 5696,
      "500": 5697,
      "Send": 5698,
      "Tar": 5699,
      "[p": 5700,
      "_R": 5701,
      "_col": 5702,
      "i{": 5703,
      "padding": 5704,
      "sock": 5705,
      "watch": 5706,
      "era": 5707,
      "redirect": 5708,
      "('ascii": 5709,
      "ated_": 5710,
      "str(x": 5711,
      "=None)=": 5712,
      "tour": 5713,
      "log.warn": 5714,
      "filepath": 5715,
      "y==": 5716,
      "();k.": 5717,
      "dow_": 5718,
      "quan": 5719,
      "ĠasĠk": 5720,
      "=True){ifĠ": 5721,
      "json(": 5722,
      "_,k": 5723,
      "STAR": 5724,
      "best": 5725,
      "emon": 5726,
      "){forĠxĠinĠ": 5727,
      "bind('": 5728,
      "fixed_": 5729,
      "UnexpectedĠ": 5730,
      "tree.": 5731,
      "queryset": 5732,
      "close()": 5733,
      "pkg": 5734,
      "ExceptionĠasĠe{": 5735,
      "evalu": 5736,
      "Start": 5737,
      "'ĠmustĠbeĠofĠtypeĠ'['str": 5738,
      "logical_file_name": 5739,
      "sizeĠ": 5740,
      "NotImplementedError('": 5741,
      "(2*": 5742,
      ".has_": 5743,
      "1','": 5744,
      ";_": 5745,
      "Oper": 5746,
      "_]": 5747,
      "i<": 5748,
      "i==": 5749,
      "lap": 5750,
      "sal": 5751,
      "relate": 5752,
      "('\\n": 5753,
      "unif": 5754,
      "tran": 5755,
      ")}x=": 5756,
      "':_['": 5757,
      ".send": 5758,
      "result(": 5759,
      "point(": 5760,
      "kwargs=": 5761,
      "outĠ": 5762,
      "etwe": 5763,
      "dict[": 5764,
      "**kwargs){": 5765,
      "[i].": 5766,
      "line(": 5767,
      "aggreg": 5768,
      "(){.": 5769,
      "(){._": 5770,
      "Description": 5771,
      "wavelength": 5772,
      "super": 5773,
      "newĠ": 5774,
      "handle,": 5775,
      "stderr=": 5776,
      "._send_": 5777,
      "::2,0": 5778,
      "stdin": 5779,
      "meshcode": 5780,
      "exec_": 5781,
      "os.makedirs(": 5782,
      ".submit(": 5783,
      "ctxt,stream": 5784,
      "+b": 5785,
      ".text": 5786,
      ".post": 5787,
      ".startswith('": 5788,
      "=vals[i];i+=1;ifĠlen(vals[i])": 5789,
      "LAN": 5790,
      "SUB": 5791,
      "false": 5792,
      "fron": 5793,
      "k);>": 5794,
      "mĠ": 5795,
      "op.": 5796,
      "pt(": 5797,
      "._get": 5798,
      "',kwargs": 5799,
      "',lvl=": 5800,
      "name':'": 5801,
      "(_);>": 5802,
      ";ifĠx": 5803,
      "ĠasĠ_;": 5804,
      "user,": 5805,
      "implement": 5806,
      "open_": 5807,
      "s'],": 5808,
      "):>True": 5809,
      "[0];>": 5810,
      "Sequence": 5811,
      "ALL": 5812,
      "width=": 5813,
      "container_": 5814,
      "[2:": 5815,
      "features": 5816,
      "parent_class.": 5817,
      "alpha,": 5818,
      "ĠnotĠfound": 5819,
      "hydp": 5820,
      "identifier": 5821,
      "expire": 5822,
      "A-Z": 5823,
      "repeat": 5824,
      "scan_parameter": 5825,
      "$',": 5826,
      "1d(": 5827,
      "<1": 5828,
      "Pass": 5829,
      "SO": 5830,
      "Sy": 5831,
      "_code": 5832,
      "actor": 5833,
      "bro": 5834,
      "n:": 5835,
      "pot": 5836,
      "q_": 5837,
      "vl": 5838,
      "z(": 5839,
      "íĺ": 5840,
      "ĠF": 5841,
      "Ġ--": 5842,
      "attemp": 5843,
      "',n": 5844,
      "asic": 5845,
      "uture": 5846,
      "tri": 5847,
      "':k=": 5848,
      "th_": 5849,
      "quare": 5850,
      "json(._": 5851,
      "numeric": 5852,
      "}>True": 5853,
      "ampl": 5854,
      "pygame": 5855,
      "shel": 5856,
      "shell": 5857,
      "fields.": 5858,
      "ize(": 5859,
      "label='": 5860,
      "REC": 5861,
      "agent": 5862,
      "archive": 5863,
      "iterator": 5864,
      "table_": 5865,
      "class=": 5866,
      "rong": 5867,
      "llable": 5868,
      "Proto": 5869,
      ".pub": 5870,
      "extract": 5871,
      "ROM": 5872,
      "And": 5873,
      ".rend": 5874,
      "np.array([": 5875,
      "app.config['": 5876,
      "manager.": 5877,
      ":%S": 5878,
      "Class": 5879,
      "d_reads[x]": 5880,
      ")',": 5881,
      ")-1": 5882,
      ",d": 5883,
      ".i": 5884,
      ".connection": 5885,
      "35": 5886,
      "?:raiseĠValueError('": 5887,
      "Emp": 5888,
      "FF": 5889,
      "_model": 5890,
      "_version": 5891,
      "cfg": 5892,
      "custom_": 5893,
      "ian": 5894,
      "xy": 5895,
      "z]=": 5896,
      ");y.": 5897,
      "ityĠ": 5898,
      "){try:>": 5899,
      "._KEYS.": 5900,
      "=None:": 5901,
      ".sha": 5902,
      "data[": 5903,
      "ĠforĠk,vĠinĠ": 5904,
      "ament": 5905,
      "}}}": 5906,
      "startĠ": 5907,
      "_[-1": 5908,
      "map_": 5909,
      "itertools.": 5910,
      "best_": 5911,
      "iosample": 5912,
      "directoryĠ": 5913,
      "Ġ'+str(": 5914,
      "ĠmustĠbeĠaĠ": 5915,
      "DBS": 5916,
      "\\x00": 5917,
      "Storage": 5918,
      "attachment": 5919,
      "==None||": 5920,
      "Label": 5921,
      "bind('<": 5922,
      "');>_": 5923,
      "(s,": 5924,
      "+k": 5925,
      ".pre": 5926,
      "27": 5927,
      "400": 5928,
      "<=0": 5929,
      "=a": 5930,
      "RI": 5931,
      "Tree": 5932,
      "Util": 5933,
      "a[": 5934,
      "cle_": 5935,
      "e-": 5936,
      "hum": 5937,
      "i+1": 5938,
      "py.": 5939,
      "scal": 5940,
      "x/": 5941,
      "inĠ": 5942,
      "itial": 5943,
      "cept": 5944,
      "chrom": 5945,
      "serie": 5946,
      "thonĠ": 5947,
      "pow": 5948,
      ":Ġ',": 5949,
      "config.get('": 5950,
      "isinstance(value,": 5951,
      "],[": 5952,
      "communic": 5953,
      "imple": 5954,
      ");forĠiĠinĠ(!": 5955,
      "range(1,": 5956,
      "label('": 5957,
      "befor": 5958,
      "==0{": 5959,
      ".fetch": 5960,
      "sort_": 5961,
      "//2": 5962,
      "SELE": 5963,
      "expected": 5964,
      "COL": 5965,
      "raw_parser.": 5966,
      "orig_": 5967,
      "Ġ-Ġ": 5968,
      "os.path.exists(_": 5969,
      "organ": 5970,
      "handler(": 5971,
      "period": 5972,
      "predix.": 5973,
      "!:_=": 5974,
      "'*": 5975,
      "(item": 5976,
      "34": 5977,
      "Act": 5978,
      "Mar": 5979,
      "Url": 5980,
      "_Name": 5981,
      "cc": 5982,
      "cri": 5983,
      "f('": 5984,
      "k.get_": 5985,
      "k+='": 5986,
      "s3": 5987,
      "s{k=": 5988,
      "y/": 5989,
      "ify_": 5990,
      "determin": 5991,
      "){impĠ": 5992,
      "._data": 5993,
      "']+": 5994,
      ".sign": 5995,
      "abstract": 5996,
      "');i=": 5997,
      "setLevel": 5998,
      "x,kĠinĠ": 5999,
      "context_": 6000,
      "=True){_=": 6001,
      "duce": 6002,
      "compat": 6003,
      ".splitlines(": 6004,
      "ĠforĠ_ĠinĠk": 6005,
      "_file(": 6006,
      "table_name": 6007,
      "io.": 6008,
      "ioc_": 6009,
      "Ident": 6010,
      ".split('\\n": 6011,
      "process(": 6012,
      ")}}else{": 6013,
      "(msg": 6014,
      "constant": 6015,
      "Configuration": 6016,
      "normalize_": 6017,
      "[y]": 6018,
      "LIST": 6019,
      "MODE": 6020,
      "Author": 6021,
      "fetch('/": 6022,
      "os.path.abspath(": 6023,
      "expanduser": 6024,
      "embed": 6025,
      "deepcopy(": 6026,
      "StopIteration": 6027,
      "!ĠelseĠ": 6028,
      "%i": 6029,
      "(y.": 6030,
      "*k": 6031,
      "EW": 6032,
      "Mapping": 6033,
      "SH": 6034,
      "S['": 6035,
      "Sender": 6036,
      "[name": 6037,
      "c['": 6038,
      "duplicate": 6039,
      "mil": 6040,
      "pin": 6041,
      "war": 6042,
      "wĠinĠ": 6043,
      "yes": 6044,
      "report": 6045,
      "least": 6046,
      "dest_": 6047,
      "ity=": 6048,
      "ceil": 6049,
      "name=None,": 6050,
      "=None;._": 6051,
      "ulation": 6052,
      "%s]": 6053,
      "timeĠ": 6054,
      "False}": 6055,
      "neg": 6056,
      "olver": 6057,
      "date,": 6058,
      "model,": 6059,
      "[];x=": 6060,
      "request,": 6061,
      "=='':raiseĠ": 6062,
      "crement": 6063,
      "float(_": 6064,
      "tag=='": 6065,
      "strip();ifĠ": 6066,
      ".shape[0],": 6067,
      "Union": 6068,
      "title='": 6069,
      "(m,": 6070,
      "converter": 6071,
      "created": 6072,
      "override": 6073,
      "log_level": 6074,
      "Pool": 6075,
      "','.join(": 6076,
      "prefix,": 6077,
      "Ġ'%s'Ġ": 6078,
      "`'.format(value))}._": 6079,
      "virtual": 6080,
      "ê°ĢĠìŀħëł¥ëĲĺì§ĢĠìķĬìķĺìĬµëĭĪëĭ¤": 6081,
      "naQuantification": 6082,
      "%02": 6083,
      "(int(": 6084,
      ")+1": 6085,
      "*args": 6086,
      ".org/": 6087,
      "2];": 6088,
      "Ad": 6089,
      "C,": 6090,
      "EVER": 6091,
      "_IN": 6092,
      "c/": 6093,
      "github": 6094,
      "hidd": 6095,
      "j:": 6096,
      "marg": 6097,
      "nc": 6098,
      "ql_": 6099,
      "rgb": 6100,
      "y}": 6101,
      "ereĠ": 6102,
      "peting": 6103,
      "assign": 6104,
      "name=='": 6105,
      "urface": 6106,
      ");>.synchronous_command('": 6107,
      "path,'": 6108,
      "));i=": 6109,
      "append": 6110,
      "&&.": 6111,
      "date':'": 6112,
      "controll": 6113,
      ":Ġ%r": 6114,
      "_shape": 6115,
      "||.": 6116,
      "competing": 6117,
      "readGroup": 6118,
      ".wor": 6119,
      "){k=._": 6120,
      "(sy": 6121,
      "labels(": 6122,
      "{_='": 6123,
      "header['": 6124,
      "(){x=": 6125,
      "aster": 6126,
      "static": 6127,
      "statistic": 6128,
      "Char": 6129,
      "init__": 6130,
      "primary_": 6131,
      "Any": 6132,
      "datatype": 6133,
      "ABLE": 6134,
      "':{'date':'": 6135,
      "']'.ĠReceivedĠtype:Ġ'%s'\"%type": 6136,
      "size_": 6137,
      "semble": 6138,
      "dict();_['": 6139,
      "\\nĠĠĠĠĠĠĠĠĠĠĠĠĠĠĠĠĠĠĠĠ": 6140,
      "hydpy.": 6141,
      "'\\n": 6142,
      ")&&notĠ": 6143,
      ")**2": 6144,
      "*2": 6145,
      "+z": 6146,
      ".');>": 6147,
      "17": 6148,
      "=\"": 6149,
      "Back": 6150,
      "]ĠifĠ": 6151,
      "bit_": 6152,
      "canĠ": 6153,
      "e),": 6154,
      "m['": 6155,
      "n'tĠ": 6156,
      "ts.": 6157,
      "v1": 6158,
      "Ġversion": 6159,
      "revision": 6160,
      "annotation": 6161,
      "enter": 6162,
      "trie": 6163,
      ".spec": 6164,
      "(k,_)": 6165,
      "();elifĠ": 6166,
      "clsĠ": 6167,
      "==.": 6168,
      "{},Ġ": 6169,
      "quad": 6170,
      "os.list": 6171,
      ":Ġ%sĠ": 6172,
      "baseĠ": 6173,
      "}}else{": 6174,
      "finishe": 6175,
      "isĠnotĠ": 6176,
      "text/": 6177,
      "[i])": 6178,
      "[:]=": 6179,
      "[:-1": 6180,
      "shutil.": 6181,
      "gene_": 6182,
      "label_": 6183,
      "_files(": 6184,
      "b.append(": 6185,
      "enums.": 6186,
      "currenc": 6187,
      "getattr(.": 6188,
      "sys.exit(": 6189,
      "s[i]": 6190,
      "struct.un": 6191,
      "used": 6192,
      "left(": 6193,
      "Content-Type": 6194,
      ")){": 6195,
      "))}>": 6196,
      "-Ġ": 6197,
      "0;_=": 6198,
      "49": 6199,
      "Custom": 6200,
      "Open": 6201,
      "VE": 6202,
      "button": 6203,
      "dm": 6204,
      "nm": 6205,
      "ual_": 6206,
      "vstack": 6207,
      "wasĠ": 6208,
      "z,_,": 6209,
      "s.add(": 6210,
      "ram": 6211,
      "mod_": 6212,
      "dĠwithĠ": 6213,
      "instance['id": 6214,
      "_name='": 6215,
      "edit": 6216,
      "book": 6217,
      "header(": 6218,
      "float64": 6219,
      "floatĠforĠfieldĠ`": 6220,
      "strip());": 6221,
      "disk": 6222,
      "File(": 6223,
      "service,": 6224,
      ")ĠforĠiĠinĠ": 6225,
      "convert": 6226,
      "convert(": 6227,
      "AttributeError:pass": 6228,
      "'.join(k": 6229,
      "Does": 6230,
      "HTML": 6231,
      "flags=": 6232,
      "register_": 6233,
      "given_": 6234,
      "DOM": 6235,
      "quote(": 6236,
      "MissingĠ": 6237,
      "lat,lon": 6238,
      "delimiter": 6239,
      "cript": 6240,
      "EVEREST": 6241,
      "));ifĠnotĠ": 6242,
      "0),": 6243,
      "1*": 6244,
      "3*": 6245,
      ">.": 6246,
      "Email": 6247,
      "J_": 6248,
      "LEN": 6249,
      "WH": 6250,
      "_time": 6251,
      "ĠB": 6252,
      "'];>": 6253,
      "raf": 6254,
      ",'-": 6255,
      "ilar": 6256,
      "{},": 6257,
      "date.": 6258,
      "sĠare": 6259,
      "validate(": 6260,
      ";forĠyĠinĠ": 6261,
      "impor": 6262,
      "tokenize": 6263,
      "map((\\": 6264,
      "assert_": 6265,
      "(fn": 6266,
      ",source": 6267,
      "k:k.": 6268,
      ")}else:raiseĠ": 6269,
      "job.add": 6270,
      "estimat": 6271,
      "}}>_": 6272,
      "Column": 6273,
      "handler.": 6274,
      "TYPES": 6275,
      "os.environ['": 6276,
      "Parser(": 6277,
      "calibration": 6278,
      "internal": 6279,
      "sdp.": 6280,
      "anchor": 6281,
      "UCCESS": 6282,
      "'{k=": 6283,
      "(obj,": 6284,
      "(list,tuple": 6285,
      "-name": 6286,
      ".key": 6287,
      ".make_": 6288,
      ":f": 6289,
      "Ab": 6290,
      "C','": 6291,
      "Save": 6292,
      "[{'": 6293,
      "a['": 6294,
      "bg_": 6295,
      "kĠnotĠinĠ": 6296,
      "s=None){ifĠ": 6297,
      "slug": 6298,
      "x);ifĠ": 6299,
      "y+=": 6300,
      "Ġ',": 6301,
      ");whileĠ": 6302,
      "encry": 6303,
      "rege": 6304,
      "];a=": 6305,
      "True,": 6306,
      "False;ifĠ": 6307,
      "x,_=": 6308,
      "sĠelseĠ": 6309,
      "sĠareĠ": 6310,
      "=100": 6311,
      "dir=": 6312,
      ");forĠzĠinĠ": 6313,
      ".read(": 6314,
      "[];forĠyĠinĠ": 6315,
      "))}elifĠ": 6316,
      "source_": 6317,
      "difference": 6318,
      "Chn": 6319,
      "md5": 6320,
      "\\t\\t": 6321,
      "flux_": 6322,
      "gitude": 6323,
      "processor": 6324,
      "2_3_": 6325,
      "DELETE": 6326,
      "']={'bib": 6327,
      ".refresh": 6328,
      "ployment": 6329,
      "character": 6330,
      "=='':raiseĠPopbillException(-99999999,'": 6331,
      "%.": 6332,
      "));>_": 6333,
      "*','": 6334,
      "GR": 6335,
      "Tax": 6336,
      "[]}": 6337,
      "bad": 6338,
      "ek(": 6339,
      "k[x": 6340,
      "mtime": 6341,
      "ord(": 6342,
      "real": 6343,
      "coder": 6344,
      "'],.": 6345,
      "':0,'": 6346,
      "str(k": 6347,
      ".socket": 6348,
      "(_);ifĠ": 6349,
      "();else:": 6350,
      "True}": 6351,
      "extent": 6352,
      "buf": 6353,
      "add_parser": 6354,
      "try:x=": 6355,
      "version_info": 6356,
      "ATOR": 6357,
      "label,": 6358,
      "'];x=": 6359,
      "char_": 6360,
      "description=": 6361,
      "letter": 6362,
      "libr": 6363,
      "Annotation": 6364,
      "err_": 6365,
      "non-": 6366,
      "text_type": 6367,
      "Template": 6368,
      "provider": 6369,
      "MAX_": 6370,
      "ctx.obj['": 6371,
      "observation": 6372,
      "preserve_case": 6373,
      "%Y-%m-%d": 6374,
      "(){ifĠnotĠ": 6375,
      ")>0": 6376,
      ".type": 6377,
      ".lower()": 6378,
      ".endswith('": 6379,
      "1=": 6380,
      "DC": 6381,
      "TX": 6382,
      "]));": 6383,
      "_);>": 6384,
      "_with_": 6385,
      "hf": 6386,
      "hdu": 6387,
      "i]": 6388,
      "ii": 6389,
      "render": 6390,
      "uct": 6391,
      "vingĠ": 6392,
      "y=None,": 6393,
      "{_": 6394,
      "{_.": 6395,
      "ative_": 6396,
      "oriz": 6397,
      "ift_": 6398,
      "exper": 6399,
      "confir": 6400,
      "under": 6401,
      "try_": 6402,
      "dist_": 6403,
      ".sock": 6404,
      "sertion": 6405,
      "):x=": 6406,
      "),int(": 6407,
      "log(": 6408,
      ";ifĠ._": 6409,
      "cls=": 6410,
      "]=np.": 6411,
      "amb": 6412,
      "[0]*": 6413,
      ":Ġ{0}": 6414,
      ":Ġ{0}'.format(": 6415,
      "pac": 6416,
      "prett": 6417,
      "_[-1]": 6418,
      ";forĠiĠinĠ": 6419,
      "array.": 6420,
      "array,": 6421,
      "+'\"": 6422,
      ");forĠi,": 6423,
      "group_id": 6424,
      "table(": 6425,
      "input['": 6426,
      "port,": 6427,
      "service_": 6428,
      "core": 6429,
      "'};": 6430,
      "codon": 6431,
      "FIX": 6432,
      "port(": 6433,
      "',None);": 6434,
      "Doc": 6435,
      "supported": 6436,
      "cv2.": 6437,
      "cwl": 6438,
      "sbjct_": 6439,
      "Network": 6440,
      "migration": 6441,
      "ensitive": 6442,
      "Print": 6443,
      ",scope,ctxt,stream": 6444,
      "SELECT": 6445,
      ".url": 6446,
      "85": 6447,
      "=len(": 6448,
      "=bool": 6449,
      "DE_": 6450,
      "FĠ": 6451,
      "SP": 6452,
      "TOR": 6453,
      "VL": 6454,
      "_')": 6455,
      "ds_": 6456,
      "ef": 6457,
      "folder_": 6458,
      "j=.": 6459,
      "k:raiseĠ": 6460,
      "xdo": 6461,
      "Ġd": 6462,
      "inv": 6463,
      "rem_": 6464,
      "._set_": 6465,
      "',_)": 6466,
      "['-": 6467,
      "None)": 6468,
      "ural": 6469,
      "];i=": 6470,
      "top_": 6471,
      "):_.append(": 6472,
      "absol": 6473,
      "s=s.": 6474,
      "pointer": 6475,
      "args[0]": 6476,
      "setdefault(": 6477,
      "x,yĠinĠ": 6478,
      "{ifĠ.": 6479,
      "&&len(": 6480,
      ")),'": 6481,
      "=10": 6482,
      "updated": 6483,
      "params.": 6484,
      "ĠisĠFalse": 6485,
      "[_]['": 6486,
      "field,": 6487,
      "group('": 6488,
      "_file,": 6489,
      "=_)": 6490,
      "beam": 6491,
      "))}else:": 6492,
      "clear_": 6493,
      "(value=None){ifĠvalue!{try:value=": 6494,
      "NotExist": 6495,
      "'),('": 6496,
      ")),int(": 6497,
      "SECON": 6498,
      "str,)),\"ArgumentĠ'": 6499,
      ".cursor": 6500,
      "empty_": 6501,
      "original": 6502,
      "attrib['": 6503,
      "raise_for_": 6504,
      "CorpNum,UserID": 6505,
      "':k,'": 6506,
      "Position": 6507,
      "declare": 6508,
      "job.fileStore": 6509,
      "%H:%M:%S": 6510,
      "hydpy.pub": 6511,
      "(img": 6512,
      ".list_": 6513,
      "0-9": 6514,
      "1);": 6515,
      "22": 6516,
      "Glob": 6517,
      "If": 6518,
      "Mask": 6519,
      "XML": 6520,
      "b='": 6521,
      "iment": 6522,
      "k:>": 6523,
      "mc": 6524,
      "vhost": 6525,
      "wsg": 6526,
      "Ġ=": 6527,
      "strap": 6528,
      "alg.": 6529,
      "){_": 6530,
      "',{}": 6531,
      "ingĠforĠ": 6532,
      "uri,": 6533,
      "stringĠ": 6534,
      "(_,.": 6535,
      "value_": 6536,
      "pars.": 6537,
      "');elifĠ": 6538,
      "clone": 6539,
      "cls_": 6540,
      "sĠmustĠbeĠ": 6541,
      "Regist": 6542,
      "_system": 6543,
      "_ĠinĠ.": 6544,
      "fin:": 6545,
      "_[j]": 6546,
      "cess(": 6547,
      "compute": 6548,
      "password(": 6549,
      "callback=": 6550,
      "color='": 6551,
      "continu": 6552,
      "(1.0": 6553,
      "continue}ifĠ": 6554,
      ";else:k=": 6555,
      "stats(": 6556,
      "vironment": 6557,
      "Environment": 6558,
      ";elifĠisinstance(": 6559,
      "directory_": 6560,
      "k.append(_": 6561,
      "datap": 6562,
      "great": 6563,
      "reversed(": 6564,
      "hide": 6565,
      "_suffix": 6566,
      "child_": 6567,
      "'}};_['": 6568,
      "traceback.format_": 6569,
      "Manager": 6570,
      "Target": 6571,
      "DoesNotExist": 6572,
      "'):raiseĠ": 6573,
      "'){x=": 6574,
      "(app": 6575,
      ".header": 6576,
      ".check": 6577,
      ":bool": 6578,
      "LU": 6579,
      "Pol": 6580,
      "Zone": 6581,
      "[i,": 6582,
      "cas": 6583,
      "clou": 6584,
      "fm": 6585,
      "go_": 6586,
      "hfo": 6587,
      "rent": 6588,
      "s){x=": 6589,
      "});": 6590,
      ");x": 6591,
      "ctx,": 6592,
      "']);ifĠ'": 6593,
      "forĠkĠinĠ": 6594,
      "tries": 6595,
      ")}._": 6596,
      ".sol": 6597,
      "log.warning('": 6598,
      "()->": 6599,
      "doi": 6600,
      "nedĠ": 6601,
      "quenc": 6602,
      "';::'": 6603,
      "endswith": 6604,
      "fin{ifĠ": 6605,
      ".select": 6606,
      ");_=np.": 6607,
      "commandĠ": 6608,
      "es=None,": 6609,
      "');ifĠ_": 6610,
      "(year": 6611,
      "latitude": 6612,
      "func,": 6613,
      "day_": 6614,
      "cord(": 6615,
      "leaf": 6616,
      "struct_": 6617,
      "property": 6618,
      "phy": 6619,
      "UNI": 6620,
      "window_": 6621,
      "\\\\s*": 6622,
      "StringIO": 6623,
      "verify_": 6624,
      "',Ġ'.join(": 6625,
      "utcnow": 6626,
      "parallel": 6627,
      "readDataInstance.readDword();_.": 6628,
      "!{_=": 6629,
      ".C": 6630,
      "IB": 6631,
      "MB": 6632,
      "NS": 6633,
      "Pe": 6634,
      "Pub": 6635,
      "V_": 6636,
      "a(": 6637,
      "b:": 6638,
      "gent": 6639,
      "gpu": 6640,
      "icon": 6641,
      "j{": 6642,
      "s'.format(": 6643,
      "sender": 6644,
      "uffix": 6645,
      "y[0]": 6646,
      "Ġ')": 6647,
      "atalog": 6648,
      "_.extend(": 6649,
      "main_": 6650,
      "s__": 6651,
      "));raiseĠ": 6652,
      "format(": 6653,
      "list(.": 6654,
      "ssl": 6655,
      "instance,": 6656,
      "dela": 6657,
      "';assertĠ": 6658,
      "'.format(k": 6659,
      "004": 6660,
      "finite": 6661,
      ".wrap": 6662,
      "Contain": 6663,
      "]);x=": 6664,
      "(k,x)": 6665,
      "continue;": 6666,
      "sys.exc_info": 6667,
      "meta_": 6668,
      "addresse": 6669,
      "Runn": 6670,
      "run_num": 6671,
      "required_": 6672,
      "client_secret": 6673,
      "ABLE_": 6674,
      "resolution": 6675,
      "configure(": 6676,
      "sampl": 6677,
      "pds.": 6678,
      ")){ifĠ": 6679,
      "-a": 6680,
      "37": 6681,
      "=(": 6682,
      "=y,": 6683,
      ">',": 6684,
      "A=": 6685,
      "A_": 6686,
      "AST": 6687,
      "B,": 6688,
      "KEN": 6689,
      "Must": 6690,
      "Ori": 6691,
      "OUT": 6692,
      "PRE": 6693,
      "Qt": 6694,
      "Rel": 6695,
      "Wa": 6696,
      "cro": 6697,
      "gion": 6698,
      "kg": 6699,
      "s*": 6700,
      "uv": 6701,
      "ĠatĠ": 6702,
      "less": 6703,
      "){b=": 6704,
      "._is_": 6705,
      "ĠinĠ._": 6706,
      "name;": 6707,
      "unpack": 6708,
      ");ifĠlen(_)": 6709,
      "_.startswith('": 6710,
      "tier": 6711,
      "time.": 6712,
      "context(": 6713,
      "len(z": 6714,
      "_sing": 6715,
      "items": 6716,
      "cao": 6717,
      "Const": 6718,
      "curve": 6719,
      "color,": 6720,
      "items():": 6721,
      "1024": 6722,
      ".shape[0];": 6723,
      "base.": 6724,
      "Uni": 6725,
      "command,": 6726,
      "';ifĠnotĠ": 6727,
      "];>_": 6728,
      "install_": 6729,
      "{};forĠkĠinĠ": 6730,
      ");>._section": 6731,
      "matrix(": 6732,
      "projection": 6733,
      "Head": 6734,
      "s[k]": 6735,
      "enumerate(.": 6736,
      "cwd(": 6737,
      "vertices": 6738,
      "================": 6739,
      "re.match('": 6740,
      "modified": 6741,
      "LOGGER.debug('": 6742,
      "ociation": 6743,
      "Document": 6744,
      ")&": 6745,
      "))}ifĠ": 6746,
      "+)": 6747,
      "0.": 6748,
      "=-1": 6749,
      "CE": 6750,
      "Hy": 6751,
      "Popen(": 6752,
      "Raw": 6753,
      "URE": 6754,
      "UsingĠ": 6755,
      "br": 6756,
      "hal": 6757,
      "rup": 6758,
      "s+": 6759,
      "{j=": 6760,
      "|Ġ": 6761,
      "ĠonĠ": 6762,
      ");n=": 6763,
      "atche": 6764,
      "ensor": 6765,
      "enotype": 6766,
      "ste": 6767,
      "sedĠ": 6768,
      "deg": 6769,
      "forme": 6770,
      "elist": 6771,
      "',True": 6772,
      "exit_": 6773,
      "s())": 6774,
      "isĠin": 6775,
      "consum": 6776,
      "contour": 6777,
      "str(_": 6778,
      "to_s": 6779,
      "[0-9": 6780,
      "list):": 6781,
      "velo": 6782,
      ".real": 6783,
      ":>;": 6784,
      "'%_": 6785,
      "question": 6786,
      ";>_.": 6787,
      "){k=.": 6788,
      "objects.get(": 6789,
      "+1:": 6790,
      "KeyError:": 6791,
      "way": 6792,
      "actual": 6793,
      ".split('.')": 6794,
      "+=1;ifĠ": 6795,
      "mode=='": 6796,
      "title,": 6797,
      "break}}ifĠ": 6798,
      "Mode": 6799,
      "_depth": 6800,
      "errno": 6801,
      "datetime.strptime": 6802,
      "_SUCCESS": 6803,
      ".close()": 6804,
      "utils.get_": 6805,
      "voice": 6806,
      "DATE": 6807,
      "TOKEN": 6808,
      "POST','": 6809,
      "resolve_": 6810,
      "Interval": 6811,
      ".register": 6812,
      "similar": 6813,
      "Assertion": 6814,
      "course": 6815,
      "double": 6816,
      "np.linspace": 6817,
      ".work": 6818,
      "'}ifĠ": 6819,
      "-i": 6820,
      "44": 6821,
      "Spec": 6822,
      "[j]": 6823,
      "_for_": 6824,
      "gn": 6825,
      "py_": 6826,
      "z*": 6827,
      "}raiseĠ": 6828,
      "secur": 6829,
      "rever": 6830,
      "',y": 6831,
      "s.cublas": 6832,
      "['name']": 6833,
      "name(": 6834,
      "dian": 6835,
      "values()": 6836,
      "k.append('": 6837,
      "setdefault('": 6838,
      "']=id_": 6839,
      "config,": 6840,
      "configobj['": 6841,
      "}}else:": 6842,
      "Inte": 6843,
      "prev": 6844,
      "[];y=": 6845,
      "final": 6846,
      "os.path.expanduser": 6847,
      "las.cublas": 6848,
      "floor": 6849,
      "country": 6850,
      "ĠnotĠinĠ.": 6851,
      "]);else:": 6852,
      "week": 6853,
      "encode(": 6854,
      "imgur": 6855,
      "cls.__": 6856,
      "Struct": 6857,
      "Ġ%dĠ": 6858,
      "0;whileĠ": 6859,
      "[.analysistype].": 6860,
      "cublas.cublas": 6861,
      ":_.append('": 6862,
      "':_,'": 6863,
      "disabled": 6864,
      "opts['": 6865,
      "CheckStatu": 6866,
      "dicate": 6867,
      "lower();ifĠ": 6868,
      "Update": 6869,
      "decimal": 6870,
      "OPTION": 6871,
      "'ĠinĠkwargs:": 6872,
      "ipv6": 6873,
      "bootstrap": 6874,
      "uniform": 6875,
      ".queue": 6876,
      "AUT": 6877,
      "Gtk.": 6878,
      "Vol": 6879,
      "Vect": 6880,
      "Wh": 6881,
      "air": 6882,
      "is.": 6883,
      "i,_ĠinĠ": 6884,
      "ow": 6885,
      "pur": 6886,
      "ss(": 6887,
      "ush": 6888,
      "vas": 6889,
      "x.get('": 6890,
      "¬ë": 6891,
      "ĠT": 6892,
      "altern": 6893,
      "mean_": 6894,
      "){try:_=": 6895,
      "valu": 6896,
      "serve": 6897,
      ");>y": 6898,
      "');x.": 6899,
      "sical": 6900,
      "plt": 6901,
      "k.startswith('": 6902,
      "{};_=": 6903,
      "list=": 6904,
      ".reference": 6905,
      "code_": 6906,
      "}}elifĠ": 6907,
      "finish": 6908,
      "when": 6909,
      "Select": 6910,
      "build(": 6911,
      "grid_": 6912,
      "parse_args(": 6913,
      "locale": 6914,
      "facet": 6915,
      "description='": 6916,
      "re.findall": 6917,
      "==1:": 6918,
      "close();": 6919,
      "Dict[str,": 6920,
      "single": 6921,
      "event_number": 6922,
      "allowed": 6923,
      "ĠinĠinstance": 6924,
      "idfobject": 6925,
      "startswith(": 6926,
      "gaussi": 6927,
      "round_temperature": 6928,
      "Authentication": 6929,
      "scrip": 6930,
      "')}>": 6931,
      "();>_": 6932,
      ":raise": 6933,
      "Clas": 6934,
      "HDU": 6935,
      "NC.": 6936,
      "Pix": 6937,
      "S,": 6938,
      "SET": 6939,
      "[x.": 6940,
      "c:": 6941,
      "cd": 6942,
      "car": 6943,
      "clo": 6944,
      "png": 6945,
      "s);_=": 6946,
      "Ġrequest": 6947,
      ");m=": 6948,
      "descriptor": 6949,
      "Ġinte": 6950,
      "._check_": 6951,
      "colo": 6952,
      "notification": 6953,
      "toy": 6954,
      "moment": 6955,
      ");>k.": 6956,
      "max=": 6957,
      "):pass": 6958,
      "]=x": 6959,
      "y,x=": 6960,
      "icro": 6961,
      "k,x": 6962,
      "vars(": 6963,
      "version=": 6964,
      "Count": 6965,
      "+1)*": 6966,
      "query.": 6967,
      "iteration": 6968,
      "strip().": 6969,
      "(y)": 6970,
      "[];forĠiĠinĠ": 6971,
      "existing": 6972,
      "width,": 6973,
      "']='TheĠ": 6974,
      "lower().": 6975,
      "erĠthanĠ": 6976,
      "FIL": 6977,
      "(!0:": 6978,
      "use_cache": 6979,
      "enable_": 6980,
      "'\".format": 6981,
      "APP": 6982,
      "sampler": 6983,
      "etree.SubElement": 6984,
      "._meta.": 6985,
      "internal_": 6986,
      "moreĠ": 6987,
      "VMGuestLib": 6988,
      "Host": 6989,
      "decorator": 6990,
      "fallback": 6991,
      "log.warn('": 6992,
      "fetch('/service": 6993,
      "Register": 6994,
      "!=.": 6995,
      "(row": 6996,
      "010": 6997,
      "2/": 6998,
      ":{": 6999,
      ";m=": 7000,
      "CRE": 7001,
      "PC": 7002,
      "WIL": 7003,
      "]==": 7004,
      "but": 7005,
      "dar": 7006,
      "just": 7007,
      "nick": 7008,
      "z+": 7009,
      "z,'": 7010,
      "Ġlist": 7011,
      "infile": 7012,
      ");m": 7013,
      ");::'": 7014,
      "assemb": 7015,
      "consu": 7016,
      ")}y=": 7017,
      "':j": 7018,
      "log.error('": 7019,
      "s=[];": 7020,
      "amma": 7021,
      "cade": 7022,
      "cach": 7023,
      "ERE": 7024,
      "what": 7025,
      "\\\\S": 7026,
      "[:,:": 7027,
      "tokens.": 7028,
      "query=": 7029,
      "message_": 7030,
      "strip_": 7031,
      "items()ĠifĠ": 7032,
      "=_functools.partial": 7033,
      "optim": 7034,
      "match.": 7035,
      "tity": 7036,
      "response(": 7037,
      "'):_=": 7038,
      "differ": 7039,
      "frame.": 7040,
      "IndexError": 7041,
      "where": 7042,
      "identifi": 7043,
      "resolve": 7044,
      "failure": 7045,
      "global_register_": 7046,
      "sync": 7047,
      "alreadyĠexist": 7048,
      "multipli": 7049,
      "priority": 7050,
      "private": 7051,
      "os.getcwd(": 7052,
      ".wait_": 7053,
      "ĠbutĠ": 7054,
      "argparse.Argument": 7055,
      "geometry": 7056,
      "(%s)": 7057,
      ")+'": 7058,
      ".parse": 7059,
      ".items(){ifĠ": 7060,
      "Gen": 7061,
      "N,": 7062,
      "[int(": 7063,
      "ache_": 7064,
      "cb": 7065,
      "menu": 7066,
      "pli": 7067,
      "s);k=": 7068,
      "tpl": 7069,
      "w3": 7070,
      "Ġparameter": 7071,
      "alig": 7072,
      "loade": 7073,
      "'][": 7074,
      "id,'": 7075,
      "like": 7076,
      "=None)->": 7077,
      "data':": 7078,
      "mouse_": 7079,
      "max,": 7080,
      "');j=": 7081,
      "np.random.": 7082,
      "figure": 7083,
      "Inst": 7084,
      "dict();forĠ": 7085,
      "user,.": 7086,
      "refer": 7087,
      "_type='": 7088,
      "options=": 7089,
      "binary": 7090,
      "content,": 7091,
      "using": 7092,
      "stats.": 7093,
      "end_time": 7094,
      "Notification": 7095,
      "LOW": 7096,
      "'));_.append(('": 7097,
      "raw(": 7098,
      "%d'%": 7099,
      ".gz": 7100,
      "encode_": 7101,
      "specified": 7102,
      "select_": 7103,
      "ING_": 7104,
      "proxy_": 7105,
      "math.s": 7106,
      ".clean": 7107,
      "Interface": 7108,
      "insert(0,": 7109,
      "template(": 7110,
      ":str)->": 7111,
      "dtype=np.float32": 7112,
      "CreatingĠ": 7113,
      "Link": 7114,
      "calculate_": 7115,
      ".split('/')": 7116,
      "glob.": 7117,
      "\")": 7118,
      "'ĠelseĠ": 7119,
      "(3,": 7120,
      ")==0": 7121,
      "-y": 7122,
      ".query(": 7123,
      ";c=": 7124,
      "Range": 7125,
      "]{ifĠ": 7126,
      "_URL": 7127,
      "a+": 7128,
      "a{": 7129,
      "d','": 7130,
      "fla": 7131,
      "mit": 7132,
      "ru": 7133,
      "s];": 7134,
      "safe_": 7135,
      "x))": 7136,
      "Ġkey": 7137,
      ");.__": 7138,
      "onent_": 7139,
      "('%s": 7140,
      "loc=": 7141,
      "._create_": 7142,
      "name']=": 7143,
      "trig": 7144,
      "tip_": 7145,
      "mod(": 7146,
      "np.pi": 7147,
      "np.asarray(": 7148,
      "obj_": 7149,
      "exc:pass": 7150,
      "\\n','": 7151,
      "ĠasĠk;": 7152,
      "dict,": 7153,
      "info_": 7154,
      "laz": 7155,
      "nodes.": 7156,
      "header.": 7157,
      "arrayĠ": 7158,
      "sub_": 7159,
      "INT": 7160,
      "INTER": 7161,
      "set_id": 7162,
      "match_": 7163,
      "state='": 7164,
      "ization_": 7165,
      ";else:raiseĠ": 7166,
      ")}}else:": 7167,
      "!:_['": 7168,
      "longitude": 7169,
      "Thread": 7170,
      "_frame": 7171,
      "mote": 7172,
      "phase": 7173,
      "link_": 7174,
      "decode_": 7175,
      "histogram": 7176,
      "logging.DEBUG": 7177,
      "skip_": 7178,
      "display_item": 7179,
      "02d}": 7180,
      "progressb": 7181,
      "smooth": 7182,
      "uint8": 7183,
      "placeholder": 7184,
      "equipament": 7185,
      "pipeline": 7186,
      "Protocol": 7187,
      "Global": 7188,
      ".parse_": 7189,
      ".handle_": 7190,
      ".execute_": 7191,
      "GEX": 7192,
      "Hist": 7193,
      "One": 7194,
      "_and_": 7195,
      "hot": 7196,
      "my": 7197,
      "non_": 7198,
      "oun": 7199,
      "uccess": 7200,
      "z{ifĠ": 7201,
      "}Ġ{": 7202,
      "in(": 7203,
      "redirect_": 7204,
      "let_": 7205,
      "){c=": 7206,
      "'].append(": 7207,
      "type==": 7208,
      "s_run": 7209,
      "calar": 7210,
      "getĠ": 7211,
      ":Ġ{}": 7212,
      "url(": 7213,
      "urllib.": 7214,
      "Expr": 7215,
      "_sup": 7216,
      "how_": 7217,
      "indexes": 7218,
      "ref_": 7219,
      "Types.": 7220,
      "genus": 7221,
      "}ifĠ'": 7222,
      "s:_=": 7223,
      "i.append(": 7224,
      "_file__": 7225,
      "list(set(": 7226,
      "{forĠyĠinĠ": 7227,
      "Chil": 7228,
      "aveĠ": 7229,
      "FIG": 7230,
      "aryFunc": 7231,
      "display": 7232,
      "include_": 7233,
      "(text,": 7234,
      "os.environ.get('": 7235,
      "forecast": 7236,
      "amount": 7237,
      "normalized_": 7238,
      "re.compile('": 7239,
      "Origin": 7240,
      "colour": 7241,
      "progressbar": 7242,
      "aryFuncChn": 7243,
      "(id_": 7244,
      ")=._": 7245,
      ".process_": 7246,
      "/%d/": 7247,
      "2,'": 7248,
      "5*": 7249,
      ";k['": 7250,
      "Fi": 7251,
      "Syn": 7252,
      "Test": 7253,
      "Wrong": 7254,
      "[^": 7255,
      "_/": 7256,
      "a=.": 7257,
      "c='": 7258,
      "dash": 7259,
      "gue": 7260,
      "k,'": 7261,
      "kĠifĠ": 7262,
      "n*": 7263,
      "s));": 7264,
      "sing_": 7265,
      "tl": 7266,
      "v2(": 7267,
      "x=None": 7268,
      "{_:": 7269,
      "²Ī": 7270,
      "ĠyouĠ": 7271,
      "endian": 7272,
      "seen": 7273,
      "alth": 7274,
      "aryĠ": 7275,
      "el_": 7276,
      "._f": 7277,
      "example": 7278,
      "'].value": 7279,
      "idf.": 7280,
      "until": 7281,
      "];b=": 7282,
      "tolist": 7283,
      "notĠfound": 7284,
      "(__file__": 7285,
      "s,**": 7286,
      "ted.": 7287,
      "();try{": 7288,
      "proble": 7289,
      "';raiseĠ": 7290,
      "';z='": 7291,
      ":Ġ'+str(": 7292,
      "Ref": 7293,
      "']=_": 7294,
      "hoo": 7295,
      "db.": 7296,
      "ĠisĠ'": 7297,
      "objectmodel": 7298,
      "xĠinĠenumerate(": 7299,
      "INDE": 7300,
      "shift": 7301,
      "ONE": 7302,
      "opt_": 7303,
      "before": 7304,
      "(y);": 7305,
      ")}ifĠ'": 7306,
      "loc[": 7307,
      "=None){x=": 7308,
      "column_": 7309,
      "daemon": 7310,
      ");else:raiseĠ": 7311,
      "port=": 7312,
      ",k)": 7313,
      "chart": 7314,
      "_delete": 7315,
      "letion": 7316,
      "hasattr(_,'": 7317,
      "start_date": 7318,
      "closed": 7319,
      "Auto": 7320,
      "attribute_": 7321,
      "DateTime": 7322,
      "polygon": 7323,
      "VALID": 7324,
      "np.where": 7325,
      "re.search('": 7326,
      "coerce": 7327,
      "START": 7328,
      "íĺ¸": 7329,
      "Vector": 7330,
      "²Īíĺ¸": 7331,
      "-m": 7332,
      ".config": 7333,
      ".join": 7334,
      ".vis": 7335,
      "2=": 7336,
      "4*": 7337,
      ":_+=": 7338,
      ">{}": 7339,
      "D,": 7340,
      "OM": 7341,
      "Plu": 7342,
      "Simple": 7343,
      "WF": 7344,
      "With": 7345,
      "Wrap": 7346,
      "WORD": 7347,
      "a/": 7348,
      "az": 7349,
      "bi": 7350,
      "k,_,": 7351,
      "rn": 7352,
      "s'):": 7353,
      "sa.": 7354,
      "xĠnotĠinĠ": 7355,
      "z.get('": 7356,
      "}y=": 7357,
      "ĠM": 7358,
      "ĠID": 7359,
      "rec": 7360,
      "){withĠopen(": 7361,
      "._db": 7362,
      "exact": 7363,
      "s():": 7364,
      "chr": 7365,
      "conn,": 7366,
      "_.replace('": 7367,
      ")}}>_": 7368,
      "note": 7369,
      "d_at": 7370,
      ".size_": 7371,
      "thon_": 7372,
      "type']=='": 7373,
      ");>[": 7374,
      "power": 7375,
      "np.cos(": 7376,
      "formatter": 7377,
      "ation(": 7378,
      "proc": 7379,
      "')!=-1": 7380,
      "_name__": 7381,
      "sĠ(": 7382,
      "))ĠforĠ": 7383,
      "pawn": 7384,
      "code,": 7385,
      "board": 7386,
      ";>x": 7387,
      "varPar": 7388,
      "=False);": 7389,
      "_,x=": 7390,
      "param_": 7391,
      ";_=.": 7392,
      "[i][": 7393,
      "ATTR": 7394,
      ".0;": 7395,
      "word,": 7396,
      "ied_": 7397,
      "set_x": 7398,
      "methodĠ": 7399,
      "Dec": 7400,
      "Decode": 7401,
      ".shape,": 7402,
      "interp": 7403,
      "wave": 7404,
      "statement": 7405,
      "packet": 7406,
      "memory": 7407,
      "other,": 7408,
      "aryPrf": 7409,
      "ency_": 7410,
      "certain": 7411,
      "replace_": 7412,
      "sep='": 7413,
      "----------------": 7414,
      "JSONError(\"": 7415,
      "cublasCheckStatu": 7416,
      "light": 7417,
      "Accept": 7418,
      "since": 7419,
      "_ground_temperature": 7420,
      "pattern_": 7421,
      "average_ground_temperature": 7422,
      "number_of_": 7423,
      "_libcublas.cublas": 7424,
      "Ġinterest": 7425,
      "clusive": 7426,
      "Identifier": 7427,
      "fetch('/service/%s/": 7428,
      "!Ġ": 7429,
      "(image": 7430,
      ".,": 7431,
      ".item": 7432,
      ".table": 7433,
      ".');_=": 7434,
      ".start(": 7435,
      "Ass": 7436,
      "NP": 7437,
      "Port": 7438,
      "SAT": 7439,
      "hard": 7440,
      "y','": 7441,
      "onent.": 7442,
      "remo": 7443,
      "detect": 7444,
      "){try{_=": 7445,
      "ĠintoĠ": 7446,
      "lopen": 7447,
      "s.index": 7448,
      "s.pop": 7449,
      "exce": 7450,
      "route": 7451,
      "']*": 7452,
      "utdown": 7453,
      "rain": 7454,
      "name}": 7455,
      "urlopen": 7456,
      "tile": 7457,
      "values,": 7458,
      "s=k": 7459,
      "(.)": 7460,
      "ip,": 7461,
      "&&_.": 7462,
      "-1:": 7463,
      "load(": 7464,
      "info(\"": 7465,
      ".__get_": 7466,
      ");_='": 7467,
      ",.user,.": 7468,
      "try:y=": 7469,
      "sys": 7470,
      "symbol": 7471,
      "has_key": 7472,
      "str(value": 7473,
      "%s'%(.": 7474,
      "KeyError('": 7475,
      "_repo": 7476,
      "data_set": 7477,
      "(frame": 7478,
      "Ġ'*": 7479,
      "exception('": 7480,
      "continue}elifĠ": 7481,
      "anten": 7482,
      "uuid,": 7483,
      "alĠargument": 7484,
      "sum(": 7485,
      "first(": 7486,
      "testing": 7487,
      "USER": 7488,
      "',default=": 7489,
      "CPEComponent.": 7490,
      "\\n';_+='": 7491,
      "sudo('": 7492,
      "'ĠmustĠbeĠofĠtypeĠ'['str']'.ĠReceivedĠtype:Ġ'%s'\"%type(": 7493,
      "setLevel(": 7494,
      "experiment": 7495,
      "!:.": 7496,
      "(arg": 7497,
      "+2": 7498,
      "-len(": 7499,
      ".com/": 7500,
      "/(": 7501,
      "8,": 7502,
      "NUM": 7503,
      "PL": 7504,
      "WN": 7505,
      "[]);": 7506,
      "]);ifĠ": 7507,
      "b['": 7508,
      "eitherĠ": 7509,
      "k.get": 7510,
      "venv": 7511,
      "zen": 7512,
      "}/": 7513,
      "ong": 7514,
      "std(": 7515,
      "rest": 7516,
      "alt_": 7517,
      "memo": 7518,
      "Ġinser": 7519,
      "couldĠnotĠ": 7520,
      "']{ifĠ": 7521,
      "k=.": 7522,
      "args_": 7523,
      "(_)}": 7524,
      "),_": 7525,
      "poll": 7526,
      "np.concatenate(": 7527,
      "k.extend(": 7528,
      "'));ifĠ": 7529,
      "'.format('": 7530,
      ".can": 7531,
      "y,x": 7532,
      "comma": 7533,
      "pret": 7534,
      "all([": 7535,
      "string=": 7536,
      "common_": 7537,
      "validation": 7538,
      "Type,": 7539,
      "default=": 7540,
      "options(": 7541,
      "table,": 7542,
      "Debug": 7543,
      "angul": 7544,
      "app_name": 7545,
      "Loader": 7546,
      "workflow_": 7547,
      "!:_.": 7548,
      "(zip": 7549,
      "password,.": 7550,
      ".pri": 7551,
      "Metho": 7552,
      "'.join(x": 7553,
      "'.join(_)": 7554,
      "Node_Name": 7555,
      "buffer(": 7556,
      "where(": 7557,
      "user_ldap": 7558,
      "lda,": 7559,
      ".request('": 7560,
      "NumberĠofĠ": 7561,
      "requests.exceptions.": 7562,
      "refresh_token": 7563,
      "render(": 7564,
      "granular": 7565,
      "Buff": 7566,
      "element_": 7567,
      "retrie": 7568,
      "pwm": 7569,
      "********": 7570,
      "source.err_": 7571,
      ".getLocalId(": 7572,
      "flux_unit": 7573,
      "Plugin": 7574,
      "(path,": 7575,
      "+alpha": 7576,
      "-error": 7577,
      "2d(": 7578,
      "=b": 7579,
      "AA": 7580,
      "AD_": 7581,
      "OC": 7582,
      "_))": 7583,
      "_||": 7584,
      "ao": 7585,
      "a-z": 7586,
      "cmap": 7587,
      "h.": 7588,
      "j+": 7589,
      "k;>": 7590,
      "ry": 7591,
      "rum": 7592,
      "so": 7593,
      "tb.": 7594,
      "x[1]": 7595,
      ");r=": 7596,
      "peer": 7597,
      "id']": 7598,
      "id.org/": 7599,
      ".show": 7600,
      "','S": 7601,
      ");>False": 7602,
      "ply": 7603,
      "timezone": 7604,
      "does": 7605,
      "listen": 7606,
      "){_=_libcublas.cublas": 7607,
      "no-": 7608,
      "col_": 7609,
      "bus": 7610,
      "os.ch": 7611,
      "int32": 7612,
      "hourl": 7613,
      ".section": 7614,
      ");_={'": 7615,
      ").value": 7616,
      "s)=": 7617,
      "ator_": 7618,
      "'ĠinĠ.": 7619,
      "):>_": 7620,
      "anguage": 7621,
      "title_": 7622,
      "epub": 7623,
      "){forĠjĠinĠ": 7624,
      "command=='": 7625,
      "ARCH": 7626,
      "blocklistRegex": 7627,
      "cord_": 7628,
      "ritical": 7629,
      "npz": 7630,
      "gradi": 7631,
      "context,": 7632,
      "context['": 7633,
      "NotĠ": 7634,
      "bool,": 7635,
      "local_path": 7636,
      "cls.models_proxy.": 7637,
      "ItemCode": 7638,
      "lower()=='": 7639,
      "given-name": 7640,
      "TEMPL": 7641,
      "3600": 7642,
      "share": 7643,
      "',.logger.exception": 7644,
      "file=f": 7645,
      "Allow": 7646,
      "grant_": 7647,
      "like(": 7648,
      "analysis_": 7649,
      "sameĠ": 7650,
      "dbsExceptionHandler('dbsException-invalid-input','": 7651,
      "contribut": 7652,
      "probabil": 7653,
      "found.": 7654,
      "dynam": 7655,
      "leastĠ": 7656,
      "competingĠinterest": 7657,
      "add_parser('": 7658,
      "cublasCheckStatus(_)": 7659,
      ".attr": 7660,
      ".root": 7661,
      "=x.": 7662,
      "?{_=": 7663,
      "Pack": 7664,
      "V['": 7665,
      "[v": 7666,
      "])}": 7667,
      "]+=": 7668,
      "_*": 7669,
      "_KEY": 7670,
      "fon": 7671,
      "i,'": 7672,
      "lun": 7673,
      "soup": 7674,
      "yet": 7675,
      "{m=": 7676,
      ");withĠ": 7677,
      "alar": 7678,
      "legen": 7679,
      "){n=": 7680,
      "){::'": 7681,
      "antĠ": 7682,
      "ged": 7683,
      "cogn": 7684,
      "otif": 7685,
      "conf.": 7686,
      ");ifĠk.": 7687,
      "urlen": 7688,
      ".sort(": 7689,
      "','_": 7690,
      "mayĠ": 7691,
      "));j=": 7692,
      "(k);>": 7693,
      "pos_": 7694,
      "np.mean": 7695,
      "np.radians(": 7696,
      "ĠforĠvĠinĠ": 7697,
      "==3": 7698,
      "ness": 7699,
      "x,k,": 7700,
      "sĠwithĠ": 7701,
      "sĠexist": 7702,
      "sĠandĠ": 7703,
      "len(c": 7704,
      "sc_": 7705,
      ",:]=": 7706,
      "_sche": 7707,
      "_save": 7708,
      "Inde": 7709,
      "host_": 7710,
      "json_data": 7711,
      "Exception(\"": 7712,
      "){k={'": 7713,
      "');ifĠ'": 7714,
      "short": 7715,
      "s'].append(": 7716,
      "_type=='": 7717,
      "[k],": 7718,
      "message='": 7719,
      "(y,'": 7720,
      "(f,": 7721,
      "variance": 7722,
      "...');": 7723,
      "lobber": 7724,
      "ES_": 7725,
      "missing_": 7726,
      "area": 7727,
      "');>.": 7728,
      "(mt,": 7729,
      "'},": 7730,
      "bytes": 7731,
      "address_": 7732,
      "_PRO": 7733,
      "unique_id": 7734,
      "+'/'+": 7735,
      "qry_": 7736,
      "ECK": 7737,
      "noĠcompetingĠinterest": 7738,
      "iddle": 7739,
      "allowlistRegex": 7740,
      "handler_": 7741,
      "initial_": 7742,
      "routing_": 7743,
      "enumerate(_": 7744,
      "cycle": 7745,
      "Variable": 7746,
      "Updat": 7747,
      "Stats(": 7748,
      "randint(": 7749,
      "lambda_": 7750,
      "attempt": 7751,
      "organization": 7752,
      "Authorization": 7753,
      "urlencode": 7754,
      "(line": 7755,
      "(input_": 7756,
      ".j": 7757,
      "23": 7758,
      "3}": 7759,
      "<0:": 7760,
      "Ma": 7761,
      "ME_": 7762,
      "MIS": 7763,
      "SD": 7764,
      "WS": 7765,
      "[(": 7766,
      "bur": 7767,
      "egg": 7768,
      "ger_": 7769,
      "horiz": 7770,
      "ip.": 7771,
      "mys": 7772,
      "r/": 7773,
      "sid": 7774,
      "tldap": 7775,
      "ven": 7776,
      "xml_": 7777,
      "yin": 7778,
      "yel": 7779,
      "{try{": 7780,
      "inplace": 7781,
      ");p=": 7782,
      "ere": 7783,
      "ĠinĠenumerate(": 7784,
      "s(),": 7785,
      "names": 7786,
      "];excĠ": 7787,
      "data)": 7788,
      "(k);ifĠ": 7789,
      "plural": 7790,
      "();x.": 7791,
      "')=='": 7792,
      "excMsg": 7793,
      "[0]['": 7794,
      "_name(": 7795,
      "etc/": 7796,
      "heigh": 7797,
      "user.": 7798,
      "reads.": 7799,
      ".depth": 7800,
      "message,": 7801,
      "_file_": 7802,
      "action_": 7803,
      "columns=": 7804,
      "'];y=": 7805,
      "'];z=": 7806,
      "):raiseĠRuntimeError('": 7807,
      "api/": 7808,
      "Selection": 7809,
      "built": 7810,
      ".set_x": 7811,
      "end_date": 7812,
      "task_id": 7813,
      ".gl": 7814,
      "UNT": 7815,
      "layer_": 7816,
      "IOError('": 7817,
      "seq,": 7818,
      "authorsĠ": 7819,
      "RuntimeError": 7820,
      "pressure": 7821,
      "(kwargs.": 7822,
      "ensure_": 7823,
      "cast=bool": 7824,
      "reshape((": 7825,
      "ReadGroup": 7826,
      "apply(": 7827,
      "drop_": 7828,
      "hexdigest": 7829,
      "='+str(": 7830,
      "master": 7831,
      "https://w3": 7832,
      "mustĠhaveĠ": 7833,
      "compare_": 7834,
      "['type']": 7835,
      "vas.": 7836,
      "np.ndarray": 7837,
      "major": 7838,
      "substitution": 7839,
      "struct.unpack('": 7840,
      "(value=None){ifĠvalue!{try:value=float(value": 7841,
      "SECOND": 7842,
      "Child(": 7843,
      "Wrapper": 7844,
      "fetch('/service/%s/version": 7845,
      "id.org/cwl": 7846,
      "https://w3id.org/cwl": 7847,
      ".G": 7848,
      ".dtype": 7849,
      "/sal": 7850,
      "32,": 7851,
      "DAY": 7852,
      "RA": 7853,
      "SM": 7854,
      "Ter": 7855,
      "Tot": 7856,
      "[-": 7857,
      "]);>": 7858,
      "_date": 7859,
      "_[1]": 7860,
      "c.append(": 7861,
      "df.": 7862,
      "f}": 7863,
      "ful": 7864,
      "h_": 7865,
      "sq": 7866,
      "wb": 7867,
      "|=": 7868,
      "Ġ%s',": 7869,
      "stĠ": 7870,
      "alo": 7871,
      "alg_": 7872,
      "lector": 7873,
      "deprec": 7874,
      "anit": 7875,
      "ant(": 7876,
      "adap": 7877,
      "s(cls,": 7878,
      "str):": 7879,
      "types.": 7880,
      "s_index": 7881,
      "s_tuple": 7882,
      "s_100": 7883,
      "verb": 7884,
      "np.unique": 7885,
      "%s:": 7886,
      "=None,S": 7887,
      "key(": 7888,
      "[0]);": 7889,
      "']=_.": 7890,
      "info=": 7891,
      ");_=k.": 7892,
      "start=": 7893,
      "(soup": 7894,
      "[_])": 7895,
      "[i:": 7896,
      "python_": 7897,
      "+1;": 7898,
      "str(e": 7899,
      "headers['": 7900,
      "queryĠ": 7901,
      "emitter": 7902,
      "))}excĠ": 7903,
      "ALI": 7904,
      "yieldĠ_": 7905,
      "results.": 7906,
      ")}}forĠ": 7907,
      "expand_": 7908,
      ",c,": 7909,
      "monitor": 7910,
      "Chunk": 7911,
      "]}elifĠ": 7912,
      "page_size": 7913,
      "')}elifĠ": 7914,
      "output_dir": 7915,
      "**2+": 7916,
      "();forĠ_ĠinĠ": 7917,
      "plugins','": 7918,
      ")||(": 7919,
      ",'r')ĠasĠ": 7920,
      "flush": 7921,
      "',default=False,": 7922,
      "calculate": 7923,
      "LoadingĠ": 7924,
      "_FORMAT": 7925,
      "enode": 7926,
      "forward": 7927,
      "forward_": 7928,
      "HttpResponse": 7929,
      "adjac": 7930,
      "k,x=.submit(": 7931,
      "modifier": 7932,
      "',type=str,": 7933,
      "scenar": 7934,
      ".width": 7935,
      "incx,": 7936,
      "key=(\\x:": 7937,
      "api/v3/": 7938,
      "Cluster": 7939,
      "amplitude": 7940,
      "Decimal": 7941,
      ",.user,.password,.": 7942,
      "https://w3id.org/cwl/sal": 7943,
      "s_100_with_": 7944,
      ",.user,.password,.user_ldap": 7945,
      "https://w3id.org/cwl/salad": 7946,
      ".k": 7947,
      ".run_": 7948,
      "2],": 7949,
      "Bar": 7950,
      "FC": 7951,
      "]))": 7952,
      "_ĠifĠ": 7953,
      "blob": 7954,
      "s>": 7955,
      "tz": 7956,
      "uff": 7957,
      "y);ifĠ": 7958,
      "y&&": 7959,
      ");k": 7960,
      "erarch": 7961,
      "rev": 7962,
      "meter": 7963,
      "ge_": 7964,
      "rou": 7965,
      "mp_": 7966,
      "];c=": 7967,
      "tology": 7968,
      "type':": 7969,
      "dĠbyĠ": 7970,
      "ĠforĠtheĠ": 7971,
      "ited": 7972,
      "]=y": 7973,
      "_name,'": 7974,
      "-1],": 7975,
      "Return": 7976,
      "pagin": 7977,
      "isinstance(kwargs['": 7978,
      "reading": 7979,
      ");_=_.": 7980,
      "string.": 7981,
      "Cond": 7982,
      ")}>y": 7983,
      "objects(": 7984,
      "pysat": 7985,
      "token,": 7986,
      "assertĠisinstance(": 7987,
      "match(": 7988,
      "bind(": 7989,
      "_.append(k": 7990,
      "response(k,x)": 7991,
      "getattr(.,": 7992,
      ".fit": 7993,
      "doc__": 7994,
      "k[const.": 7995,
      "bytes_": 7996,
      "least_": 7997,
      "type(e),": 7998,
      "]+=.": 7999,
      "data,commdct": 8000,
      "queryset(": 8001,
      "summary": 8002,
      "schema_": 8003,
      "networkapi_url": 8004,
      "radius": 8005,
      "iĠinĠrange(0,": 8006,
      "click.": 8007,
      "defined": 8008,
      "aug": 8009,
      "nonzero": 8010,
      "merge_": 8011,
      "propertyĠ": 8012,
      "slice(": 8013,
      "Polic": 8014,
      "CDR": 8015,
      "upper()=='": 8016,
      "http.": 8017,
      "cipient": 8018,
      "surname':'": 8019,
      "Box": 8020,
      "=None;else:.": 8021,
      "blue": 8022,
      "_.split('": 8023,
      "sys.stderr.write('": 8024,
      "ĠthatĠnoĠcompetingĠinterest": 8025,
      "Client.": 8026,
      "ioc_api.": 8027,
      "Syntax": 8028,
      "given-names':'": 8029,
      "networkapi_url,.user,.password,.user_ldap": 8030,
      "\",": 8031,
      "%2": 8032,
      "(q,": 8033,
      "(CorpNum,": 8034,
      "(ctypes.c_": 8035,
      ")]);": 8036,
      ",name,": 8037,
      "/3": 8038,
      "2D": 8039,
      "68": 8040,
      "A','": 8041,
      "CI": 8042,
      "Driver": 8043,
      "TL": 8044,
      "]Ġ": 8045,
      "]ĠforĠ": 8046,
      "f.write('": 8047,
      "i);ifĠ": 8048,
      "ki": 8049,
      "n='": 8050,
      "site_": 8051,
      "stub": 8052,
      "s.values(": 8053,
      "rozen": 8054,
      "uringĠ": 8055,
      "lic_": 8056,
      "notĠin": 8057,
      ");>{'": 8058,
      "Error:Ġ": 8059,
      "team": 8060,
      "True;ifĠ": 8061,
      "quis": 8062,
      "exc{": 8063,
      "len(z)": 8064,
      "sci": 8065,
      "rank": 8066,
      ";forĠi,": 8067,
      "[_[0]": 8068,
      ");k=._": 8069,
      "Type=None,": 8070,
      "fieldname": 8071,
      "Name=": 8072,
      "{_=._": 8073,
      "headers": 8074,
      ";k=._": 8075,
      "set_y": 8076,
      "dtype='": 8077,
      "[];forĠi,": 8078,
      "Identity": 8079,
      "))}}": 8080,
      "();ifĠ'": 8081,
      "parameters": 8082,
      ".f_": 8083,
      "limit_": 8084,
      "root,": 8085,
      "post('": 8086,
      "FIEL": 8087,
      "mask_": 8088,
      "authorize": 8089,
      "object_id": 8090,
      "_+='&": 8091,
      "-1,etag": 8092,
      "Subject": 8093,
      "execute('": 8094,
      "basic_": 8095,
      "keep": 8096,
      "DEFAULTS": 8097,
      "yaml.": 8098,
      "':_},'": 8099,
      "vidual": 8100,
      "subprocess.check_": 8101,
      "distance_": 8102,
      "lookup_": 8103,
      "(a,b": 8104,
      "*np.cos(": 8105,
      ".decode('utf-8": 8106,
      ".__class__.__name__": 8107,
      "Create": 8108,
      "click.echo": 8109,
      "helpers.": 8110,
      "ipv4": 8111,
      "Comman": 8112,
      ".widget": 8113,
      "CPEComponent2_3_": 8114,
      "metavar='<": 8115,
      "COMMAN": 8116,
      "number=-1,etag": 8117,
      "=vals[i];i+=1;ifĠlen(vals[i])==0:.": 8118,
      "VLX": 8119,
      "declareĠthatĠnoĠcompetingĠinterest": 8120,
      ".workflow": 8121,
      "AUTH": 8122,
      "yellow": 8123,
      "authorsĠdeclareĠthatĠnoĠcompetingĠinterest": 8124,
      "https://w3id.org/cwl/salad#": 8125,
      "networkapi_url,.user,.password,.user_ldap)": 8126,
      "authorsĠdeclareĠthatĠnoĠcompetingĠinterestsĠexist": 8127,
      "!{k=": 8128,
      "(payload": 8129,
      "(r,": 8130,
      ")['": 8131,
      ")>1": 8132,
      "6:": 8133,
      ":z=": 8134,
      "AF": 8135,
      "Fail": 8136,
      "GP": 8137,
      "Gu": 8138,
      "GRO": 8139,
      "LL": 8140,
      "N_": 8141,
      "OL": 8142,
      "QL": 8143,
      "Y,": 8144,
      "[g": 8145,
      "betwe": 8146,
      "d}'.format(": 8147,
      "oĠinĠ": 8148,
      "pg": 8149,
      "pm": 8150,
      "rc_": 8151,
      "twe": 8152,
      "wind": 8153,
      "will": 8154,
      "x));": 8155,
      "y':": 8156,
      "zo": 8157,
      "{a=": 8158,
      "ĠdoesĠnotĠ": 8159,
      ");y": 8160,
      ");s=": 8161,
      "orith": 8162,
      "sect": 8163,
      "arc": 8164,
      "annot": 8165,
      "._load_": 8166,
      "_==0": 8167,
      "adcast": 8168,
      "='.": 8169,
      "(_('": 8170,
      "(_[0]": 8171,
      "rail": 8172,
      "{ifĠ_": 8173,
      "))+": 8174,
      "Require": 8175,
      ",_))": 8176,
      ":raiseĠPy": 8177,
      "ĠasĠx": 8178,
      "isinstance(obj,": 8179,
      "[];z=": 8180,
      "}>y": 8181,
      "':'','": 8182,
      "white": 8183,
      "[_][": 8184,
      "is_valid": 8185,
      "s:_.": 8186,
      "Key()": 8187,
      ";k=.": 8188,
      "status']": 8189,
      "disc": 8190,
      "Look": 8191,
      "state.": 8192,
      "))}else{": 8193,
      "mode=": 8194,
      "parameters=": 8195,
      "ThereĠ": 8196,
      "password,": 8197,
      "bool(": 8198,
      "Measurement": 8199,
      "client,": 8200,
      "Contin": 8201,
      "upper(),": 8202,
      "ConfigParser": 8203,
      "multi=True": 8204,
      "split('": 8205,
      "IPv": 8206,
      "allowed_": 8207,
      "order_by": 8208,
      ",(str,)),\"ArgumentĠ'": 8209,
      ")ĠasĠf": 8210,
      "Transaction": 8211,
      "walk": 8212,
      "torno": 8213,
      "fireEvent": 8214,
      "cutoff": 8215,
      "pygame.": 8216,
      "re.findall('": 8217,
      "global_register_value('": 8218,
      "aryPrfT": 8219,
      "k,x=.submit({'": 8220,
      "CDR3_": 8221,
      "authorsĠdeclareĠthatĠnoĠcompetingĠinterestsĠexist.": 8222,
      ".*": 8223,
      "1Ġ": 8224,
      ":int": 8225,
      ";try{": 8226,
      "={}": 8227,
      "Av": 8228,
      "Access": 8229,
      "Bin": 8230,
      "Flo": 8231,
      "MIN": 8232,
      "Role": 8233,
      "TĠ": 8234,
      "[%s]": 8235,
      "_by_": 8236,
      "_TYPE_": 8237,
      "big": 8238,
      "gitĠ": 8239,
      "hm": 8240,
      "pb": 8241,
      "s;>": 8242,
      "tas": 8243,
      "vm": 8244,
      "x._": 8245,
      "zh": 8246,
      "increment": 8247,
      "mecab": 8248,
      "){p=": 8249,
      "',0);": 8250,
      "pet": 8251,
      "admin_": 8252,
      "']),": 8253,
      "='*": 8254,
      "id(": 8255,
      "one({'": 8256,
      "strument": 8257,
      "values[": 8258,
      "np.vstack": 8259,
      "=None,**": 8260,
      "(.networkapi_url,.user,.password,.user_ldap)": 8261,
      "listĠofĠ": 8262,
      "setup_": 8263,
      "nod": 8264,
      "delD": 8265,
      "ordinal": 8266,
      "Repository": 8267,
      "codec": 8268,
      "\\n');": 8269,
      "ourn": 8270,
      "_id=None,": 8271,
      ".__init__": 8272,
      "number(": 8273,
      "pr_": 8274,
      "[_:": 8275,
      "imit": 8276,
      "])/": 8277,
      "ĠforĠ_ĠinĠ.": 8278,
      "?:._": 8279,
      "signe": 8280,
      "lock=": 8281,
      "apps.get_": 8282,
      "(x,k": 8283,
      "'];else:": 8284,
      "bind": 8285,
      "logging.warning('": 8286,
      "[0];_=": 8287,
      "Uncertain": 8288,
      "tract": 8289,
      "SetId": 8290,
      ")ĠforĠvĠinĠ": 8291,
      "treenode": 8292,
      "_debug('": 8293,
      "glob(": 8294,
      "')}excĠ": 8295,
      "make_indicator": 8296,
      ".bit": 8297,
      "':>'": 8298,
      "');forĠkĠinĠ": 8299,
      "alled": 8300,
      "TypeError,": 8301,
      "pkg_": 8302,
      "dictionary": 8303,
      "article_": 8304,
      "bucket_": 8305,
      "docker": 8306,
      "logical_": 8307,
      ".service.": 8308,
      "ModuleLoad": 8309,
      "inspect.is": 8310,
      "secure": 8311,
      "adjust": 8312,
      "STATUS": 8313,
      "VALUE": 8314,
      "ified_": 8315,
      "Widget": 8316,
      "astype(int": 8317,
      "Application": 8318,
      "previous_": 8319,
      "cntx": 8320,
      "stdout=subprocess.PIPE": 8321,
      "Help": 8322,
      "percentile": 8323,
      "(sys.": 8324,
      "':{'date':'20": 8325,
      "Poly": 8326,
      "cacheĠ": 8327,
      "let_Node_Name": 8328,
      "\".format(": 8329,
      "'/": 8330,
      ")sĠ": 8331,
      ".stop": 8332,
      ".print_": 8333,
      "2',": 8334,
      "2]=": 8335,
      "3),": 8336,
      ">=1": 8337,
      "Got": 8338,
      "MD": 8339,
      "]'.format(": 8340,
      "_parse_": 8341,
      "a*": 8342,
      "aded": 8343,
      "css": 8344,
      "cpu": 8345,
      "eze": 8346,
      "jav": 8347,
      "lc": 8348,
      "lw": 8349,
      "pdf": 8350,
      "sity": 8351,
      "switch": 8352,
      "Ġ/": 8353,
      ");q=": 8354,
      "recogn": 8355,
      "._de": 8356,
      ".sat": 8357,
      ".scope": 8358,
      "thatĠ": 8359,
      "poch": 8360,
      "np.array": 8361,
      "%s\\n": 8362,
      "()+": 8363,
      "**_": 8364,
      ".release": 8365,
      ":>;ifĠ": 8366,
      "contro": 8367,
      "Receiver": 8368,
      "outer": 8369,
      "s[index": 8370,
      "kwargs:": 8371,
      "config.get_": 8372,
      "||(": 8373,
      "join(.": 8374,
      "user(": 8375,
      "int(number": 8376,
      ").T": 8377,
      "(x)ĠforĠxĠinĠ": 8378,
      "run('": 8379,
      ");k=.": 8380,
      "gene": 8381,
      "strip('/": 8382,
      "Delete": 8383,
      "(x,y": 8384,
      "level_": 8385,
      "sys.version_info": 8386,
      "break;": 8387,
      "length=": 8388,
      "Setting": 8389,
      "execut": 8390,
      "function(": 8391,
      "server-error": 8392,
      "settings(": 8393,
      "choo": 8394,
      "units.": 8395,
      "condition='": 8396,
      ")}else:_=": 8397,
      ",**kwargs){_=": 8398,
      "ĠisĠnotĠvalid": 8399,
      "verbose:::'": 8400,
      "UND": 8401,
      "];forĠxĠinĠ": 8402,
      "=False){k='": 8403,
      "ByName": 8404,
      "[c]": 8405,
      "currentĠ": 8406,
      "\\\\s+(": 8407,
      "ĠinputĠ": 8408,
      "caption": 8409,
      "method='POST": 8410,
      "Callback": 8411,
      "f.readline": 8412,
      "scheme": 8413,
      "alignment": 8414,
      "lgcPrint": 8415,
      "Array": 8416,
      "){@wraps(": 8417,
      "MAGIC": 8418,
      "Operation": 8419,
      "e-0": 8420,
      "constants.": 8421,
      "WHERE": 8422,
      "tldap.": 8423,
      "\"'+": 8424,
      "\",Ġ": 8425,
      "&255": 8426,
      ".insert": 8427,
      "39": 8428,
      "4:": 8429,
      "BAS": 8430,
      "CB": 8431,
      "DF": 8432,
      "IST": 8433,
      "Pas": 8434,
      "Tra": 8435,
      "The": 8436,
      "_number": 8437,
      "by(": 8438,
      "browser": 8439,
      "dag": 8440,
      "ead": 8441,
      "oa": 8442,
      "pg_": 8443,
      "rd": 8444,
      "vcf": 8445,
      "x<": 8446,
      "xĠ": 8447,
      "yte": 8448,
      "á»": 8449,
      "ìĿ": 8450,
      "inverse": 8451,
      ");f": 8452,
      ");exc(": 8453,
      "atleast_": 8454,
      "reason": 8455,
      "){m=": 8456,
      "'],_['": 8457,
      "id','": 8458,
      "inger": 8459,
      "_.text": 8460,
      "lict": 8461,
      "k==0": 8462,
      "mption": 8463,
      "','H": 8464,
      "s_for_": 8465,
      "set.": 8466,
      "setGraphVal('": 8467,
      "x.append('": 8468,
      "tryingĠtoĠ": 8469,
      "';z=": 8470,
      "s[y": 8471,
      "isinstance(.": 8472,
      ":raiseĠValueError(\"": 8473,
      "max()": 8474,
      "_,x": 8475,
      "version,": 8476,
      "State(": 8477,
      ".0*": 8478,
      "work.": 8479,
      "REQU": 8480,
      "[k])": 8481,
      "_registr": 8482,
      "(){y=": 8483,
      "state=": 8484,
      "binary_": 8485,
      "module__": 8486,
      ");else:k=": 8487,
      "'{x=": 8488,
      "Ġ{1}'.format(": 8489,
      "_CH": 8490,
      "Respost": 8491,
      "parent_id": 8492,
      "prefix='": 8493,
      "_csv": 8494,
      "handle,_CUBLAS": 8495,
      "_+=bytes(": 8496,
      "CHECK": 8497,
      ",'w')ĠasĠf": 8498,
      "debug.log('": 8499,
      ",'r')ĠasĠf": 8500,
      "history": 8501,
      "scipy.s": 8502,
      "+'.'+": 8503,
      "right_": 8504,
      "[-1];": 8505,
      "register.": 8506,
      "scipy.asarray(": 8507,
      "Word(": 8508,
      "higher_": 8509,
      "ffici": 8510,
      "cluster_run": 8511,
      "d_reads[x][_].": 8512,
      "MODE[": 8513,
      "Container": 8514,
      "icrosecond": 8515,
      "\">": 8516,
      "%Ġ": 8517,
      "%s,": 8518,
      "()}excĠ": 8519,
      "1-": 8520,
      "2),": 8521,
      "31": 8522,
      ";n=": 8523,
      "Basic": 8524,
      "Hrf": 8525,
      "Language": 8526,
      "RnaQuantification": 8527,
      "UseĠ": 8528,
      "_cache": 8529,
      "eg": 8530,
      "fer_": 8531,
      "m:": 8532,
      "my_": 8533,
      "uwsg": 8534,
      "z}": 8535,
      "{withĠ": 8536,
      "{1}'.format(": 8537,
      "lem": 8538,
      "){x='": 8539,
      "){log.info('": 8540,
      "ansi": 8541,
      "asp": 8542,
      "asyn": 8543,
      ");ifĠ_:": 8544,
      "_.keys(": 8545,
      "k=k.": 8546,
      "divide": 8547,
      ".safe_": 8548,
      "len,": 8549,
      "s_from": 8550,
      "s={}": 8551,
      "uldn": 8552,
      "));k.": 8553,
      "(k))": 8554,
      "[0,": 8555,
      "prog": 8556,
      "doing": 8557,
      "&&isinstance(": 8558,
      "ableĠ": 8559,
      "Remote": 8560,
      "y,x,": 8561,
      "_sum": 8562,
      "_id']=": 8563,
      "info.": 8564,
      "---": 8565,
      "string_": 8566,
      "size=1": 8567,
      "ample_": 8568,
      "params)": 8569,
      ");k=_.": 8570,
      "pypi": 8571,
      "}ifĠ.": 8572,
      "addition": 8573,
      "s:.": 8574,
      "header('": 8575,
      "data_and_": 8576,
      "DED": 8577,
      "events.": 8578,
      "matchĠ": 8579,
      "matcher": 8580,
      "[1]+": 8581,
      "=None){assertĠ": 8582,
      "app,": 8583,
      "[];forĠzĠinĠ": 8584,
      "s',[]": 8585,
      "AL_": 8586,
      "missingĠ": 8587,
      "length,": 8588,
      "SetName": 8589,
      "container,": 8590,
      "open(filename": 8591,
      "]}else:": 8592,
      "s{x=": 8593,
      ",**kwargs){": 8594,
      "\"%(": 8595,
      "Result(": 8596,
      "output_file": 8597,
      "Compound": 8598,
      "IOC": 8599,
      "IOError": 8600,
      "(remote_": 8601,
      "matrix_": 8602,
      "');forĠxĠinĠ": 8603,
      "ceived": 8604,
      "app.config": 8605,
      "left_": 8606,
      "month,": 8607,
      "GET','": 8608,
      "dicator": 8609,
      "project_name": 8610,
      "dock_": 8611,
      "docker_": 8612,
      "hierarch": 8613,
      "import_module": 8614,
      "SSL": 8615,
      "ifiedĠ": 8616,
      "analysis": 8617,
      "Password": 8618,
      "Empty": 8619,
      "determineĠ": 8620,
      "os.listdir": 8621,
      "DCAR": 8622,
      "WILDCAR": 8623,
      "v2(handle,_CUBLAS": 8624,
      "fetch('/service/%s/version/%d/": 8625,
      "ioc_api.make_indicator": 8626,
      "quisition": 8627,
      "UncertainFunction": 8628,
      "data_and_metadata": 8629,
      "(other": 8630,
      ")s": 8631,
      ")ĠasĠe": 8632,
      ";k": 8633,
      "Agent": 8634,
      "GL_": 8635,
      "LL_": 8636,
      "Pat": 8637,
      "Skip": 8638,
      "Tmp": 8639,
      "[q": 8640,
      "_{k=": 8641,
      "bold": 8642,
      "c;": 8643,
      "eq": 8644,
      "gzip": 8645,
      "i-": 8646,
      "lass": 8647,
      "lishe": 8648,
      "mix": 8649,
      "nn": 8650,
      "p;": 8651,
      "rp": 8652,
      "s'ĠnotĠinĠ": 8653,
      "sleep": 8654,
      "ua": 8655,
      "wf": 8656,
      "y)}": 8657,
      "std_": 8658,
      "release_": 8659,
      "reduce": 8660,
      "cov": 8661,
      "'];ifĠnotĠ": 8662,
      "name,:": 8663,
      "];_.": 8664,
      "series": 8665,
      "data_file": 8666,
      "path(": 8667,
      "format,": 8668,
      "time=": 8669,
      "obs_": 8670,
      "provision": 8671,
      "False,'": 8672,
      "{}.": 8673,
      "famil": 8674,
      "[0],'": 8675,
      "len(b": 8676,
      ".categor": 8677,
      ".cache_": 8678,
      "foli": 8679,
      ".get_command": 8680,
      "y,.": 8681,
      "\\n'.join(": 8682,
      ":raiseĠInvalid": 8683,
      "_snapshot": 8684,
      "info(": 8685,
      "=False){ifĠnotĠ": 8686,
      "causeĠ": 8687,
      "commit_": 8688,
      ":::": 8689,
      "ĠĠĠĠĠĠĠĠĠĠĠĠ": 8690,
      "elseĠ'": 8691,
      "(k,v": 8692,
      "author_": 8693,
      "interpo": 8694,
      "transl": 8695,
      "module,": 8696,
      "(1+": 8697,
      "{forĠzĠinĠ": 8698,
      "[0];x=": 8699,
      "plot.": 8700,
      "s',None": 8701,
      ":.log('": 8702,
      "ANG": 8703,
      "newline": 8704,
      "AMP": 8705,
      "convertĠ": 8706,
      "elements_tuple": 8707,
      "[2],": 8708,
      "returnedĠ": 8709,
      "requiredĠ": 8710,
      "m,n,": 8711,
      "')}else{": 8712,
      "typing": 8713,
      "input_data": 8714,
      "_cert": 8715,
      "authorization_": 8716,
      "}else:raiseĠ": 8717,
      "buffer_": 8718,
      "Item/": 8719,
      "time_elements_tuple": 8720,
      "Elements": 8721,
      "item_node(": 8722,
      "Can'tĠ": 8723,
      "len(_),": 8724,
      "func_unit_": 8725,
      "func_multipli": 8726,
      "func_higher_": 8727,
      "repr(": 8728,
      "ities,": 8729,
      "src_": 8730,
      "walk(": 8731,
      "logger.debug(f\"": 8732,
      "VALUE_": 8733,
      "common.": 8734,
      "Endpoint": 8735,
      "Permission.": 8736,
      "followingĠ": 8737,
      "\\r\\n": 8738,
      "contrib": 8739,
      "callsign.": 8740,
      "simple": 8741,
      "!r}": 8742,
      "ShExJ.": 8743,
      "front": 8744,
      "virtualenv": 8745,
      "NC.ERR": 8746,
      "gradient": 8747,
      "item_node(condition": 8748,
      "!=None": 8749,
      "'sĠ": 8750,
      "(('": 8751,
      "(int,": 8752,
      ",max_": 8753,
      ".output": 8754,
      ".convert_": 8755,
      "1',": 8756,
      "2].": 8757,
      "=[];": 8758,
      "Fin": 8759,
      "GTH": 8760,
      "Nii": 8761,
      "RG": 8762,
      "Sw": 8763,
      "[5": 8764,
      "c','": 8765,
      "d:": 8766,
      "ech": 8767,
      "ever": 8768,
      "f.write": 8769,
      "gy": 8770,
      "ier": 8771,
      "ivar": 8772,
      "k/": 8773,
      "nav": 8774,
      "oauth": 8775,
      "p['": 8776,
      "s+='": 8777,
      "safe": 8778,
      "wel": 8779,
      "z);ifĠ": 8780,
      "z),": 8781,
      "ĠName": 8782,
      "){s=": 8783,
      "('<": 8784,
      "Ġinformation": 8785,
      "._read": 8786,
      "._session": 8787,
      "._process_": 8788,
      "val=": 8789,
      "','W": 8790,
      "mach": 8791,
      "):k.append(": 8792,
      "value':": 8793,
      "vert": 8794,
      "verse_": 8795,
      "logl": 8796,
      "s,**kwargs": 8797,
      "resize": 8798,
      "));assertĠ": 8799,
      "(k,_,": 8800,
      "np.ones(": 8801,
      "[0,0": 8802,
      "ply_": 8803,
      "ĠforĠpĠinĠ": 8804,
      "doĠnotĠ": 8805,
      "_name_": 8806,
      "-1)": 8807,
      "perĠ": 8808,
      ",_),": 8809,
      "_sh": 8810,
      "}}}>": 8811,
      "endar": 8812,
      "dir_": 8813,
      ".select_": 8814,
      ".description": 8815,
      "short_": 8816,
      "gen_": 8817,
      "ofĠtheĠ": 8818,
      "[k];": 8819,
      "[k]['": 8820,
      "):>'": 8821,
      "]);elifĠ": 8822,
      "status,": 8823,
      "assertĠisinstance(kwargs['": 8824,
      "a,b": 8825,
      "latti": 8826,
      ");excĠOS": 8827,
      "day=": 8828,
      "();ifĠ_": 8829,
      "ARY": 8830,
      "sort(": 8831,
      "_flu": 8832,
      "s[i].": 8833,
      "criter": 8834,
      "{ifĠnotĠisinstance(": 8835,
      "specific": 8836,
      "timestamp=": 8837,
      "callback_": 8838,
      "}}>k": 8839,
      "dist.": 8840,
      "testing(": 8841,
      "OptionalĠargument": 8842,
      "returnnone": 8843,
      "beta,": 8844,
      "PY3": 8845,
      "region,": 8846,
      "passe": 8847,
      ")),\"OptionalĠargument": 8848,
      "STRING": 8849,
      "compress_": 8850,
      "apply_T": 8851,
      "child(": 8852,
      "functools.wraps(": 8853,
      "calibration_": 8854,
      "copy_attribute": 8855,
      "Offset(": 8856,
      "Signal": 8857,
      "literal_": 8858,
      "=None:returnnone": 8859,
      "']'.ĠReceivedĠtype:Ġ'%s'\"%type(kwargs['": 8860,
      "Unicode": 8861,
      "Structure": 8862,
      "'ĠinĠkwargs:assertĠisinstance(kwargs['": 8863,
      "tip_label": 8864,
      "rough": 8865,
      "Condition": 8866,
      "DEFAULTS['": 8867,
      "Resposta": 8868,
      "doingtesting(": 8869,
      "ioc_api.make_indicatoritem_node(condition": 8870,
      "func_unit_cord": 8871,
      "func_higher_cord": 8872,
      ")),\"OptionalĠargumentĠ'": 8873,
      "doingtesting(testing": 8874,
      "!||": 8875,
      "#Ġ": 8876,
      "(['": 8877,
      ",data": 8878,
      ",default": 8879,
      "-np.": 8880,
      "./": 8881,
      "0;k=": 8882,
      "1)": 8883,
      "2**": 8884,
      "429": 8885,
      "5;": 8886,
      "Done": 8887,
      "Flag": 8888,
      "Ge": 8889,
      "NEC": 8890,
      "Sol": 8891,
      "YY": 8892,
      "_+=1": 8893,
      "_unit_": 8894,
      "b{": 8895,
      "fd": 8896,
      "future": 8897,
      "ging": 8898,
      "gap": 8899,
      "hĠinĠ": 8900,
      "i}": 8901,
      "jamo": 8902,
      "k))": 8903,
      "kip_": 8904,
      "ni": 8905,
      "s&": 8906,
      "tspan": 8907,
      ");z": 8908,
      "alive": 8909,
      "algo": 8910,
      "itch": 8911,
      "anyĠ": 8912,
      "filen": 8913,
      "adam": 8914,
      "s(x,": 8915,
      "chass": 8916,
      "name()": 8917,
      "union": 8918,
      "_.get(": 8919,
      ")}else{ifĠ": 8920,
      "':x,'": 8921,
      ".sort_": 8922,
      "','Ġ": 8923,
      "','given-names':'": 8924,
      "notĠisinstance(": 8925,
      "files": 8926,
      "s={'": 8927,
      "s=_,": 8928,
      "format=": 8929,
      "();try:": 8930,
      "&&freq": 8931,
      ".reset(": 8932,
      "len(args": 8933,
      "order(": 8934,
      "']=int(": 8935,
      ",_,k": 8936,
      "ĠasĠx;": 8937,
      ".we": 8938,
      "min,": 8939,
      "minor": 8940,
      "validator": 8941,
      "node,": 8942,
      ";forĠzĠinĠ": 8943,
      "(_,func_higher_cord": 8944,
      "comple": 8945,
      "ctor_": 8946,
      "(spec": 8947,
      "(schema": 8948,
      "logger.error": 8949,
      "fields,": 8950,
      "READ": 8951,
      "scribe_": 8952,
      "=_unit_": 8953,
      "data_api.": 8954,
      "posit": 8955,
      "columns,": 8956,
      "[0];k=": 8957,
      "ĠtoĠtheĠ": 8958,
      "quick": 8959,
      "yieldĠfromĠ": 8960,
      "stream,": 8961,
      "service(": 8962,
      "(mon": 8963,
      "_flag": 8964,
      "(i+1": 8965,
      "ASK": 8966,
      "ordering": 8967,
      "Arn": 8968,
      "PIX": 8969,
      "]+)": 8970,
      "estim": 8971,
      "find_all": 8972,
      "AttributeError:": 8973,
      "==1:>": 8974,
      ".setdefault('": 8975,
      "datetime.now": 8976,
      ".rm": 8977,
      "config.genome": 8978,
      "));forĠkĠinĠ": 8979,
      "s[_]=": 8980,
      "only_": 8981,
      "attributeĠ": 8982,
      "\\\\d{": 8983,
      "node_text(": 8984,
      "TypeError(": 8985,
      "AGE_": 8986,
      "resolver": 8987,
      "subprocess.Popen(": 8988,
      "',default='": 8989,
      "(source,": 8990,
      "provided": 8991,
      "Ġinstead": 8992,
      "ĠisĠnotĠaĠvalidĠ": 8993,
      "fluxes.": 8994,
      "Tuple[": 8995,
      "pattern,": 8996,
      "copy.deepcopy(": 8997,
      "external": 8998,
      ".simulate": 8999,
      "margin": 9000,
      "codons_dict": 9001,
      "traceback.format_exc": 9002,
      "hfos": 9003,
      "argparse.ArgumentParser(": 9004,
      "doesn'tĠ": 9005,
      "uldn'tĠ": 9006,
      "Pattern": 9007,
      ".get_commands('": 9008,
      "typing.": 9009,
      "func_unit_cord=_unit_": 9010,
      "!');": 9011,
      "%s,Ġ": 9012,
      "(attr": 9013,
      "(param": 9014,
      ")];ifĠ": 9015,
      "+/": 9016,
      ",stderr=": 9017,
      "-=": 9018,
      ".on_": 9019,
      "<=1": 9020,
      "E,": 9021,
      "F_": 9022,
      "FIN": 9023,
      "Fix": 9024,
      "UID": 9025,
      "VIC": 9026,
      "X_": 9027,
      "_,'": 9028,
      "acl": 9029,
      "b;": 9030,
      "b[": 9031,
      "border_": 9032,
      "dt.": 9033,
      "fp": 9034,
      "i),": 9035,
      "jd(": 9036,
      "m[": 9037,
      "s;_=": 9038,
      "s'),": 9039,
      "te_": 9040,
      "uĠinĠ": 9041,
      "uro": 9042,
      "xx": 9043,
      "x&&": 9044,
      "x);k=": 9045,
      "}{": 9046,
      "Ġpath": 9047,
      "ine_": 9048,
      "seg": 9049,
      "rep": 9050,
      "me_": 9051,
      "){k,_=": 9052,
      "',[]": 9053,
      "route_": 9054,
      "rase": 9055,
      "id']=": 9056,
      "None),": 9057,
      ");ifĠj": 9058,
      ");ifĠk:": 9059,
      "apture": 9060,
      "ma.": 9061,
      "(_)}>": 9062,
      "(_);>_": 9063,
      "s_in_": 9064,
      "s==": 9065,
      "tact": 9066,
      "')[0]": 9067,
      "keys": 9068,
      "&&_": 9069,
      "y_run": 9070,
      "';_.": 9071,
      "sĠaĠ": 9072,
      "s[-1]": 9073,
      "Exp": 9074,
      "loader": 9075,
      "}}excĠ": 9076,
      "dict()": 9077,
      "varExt": 9078,
      "username=": 9079,
      "commit(": 9080,
      "'+.": 9081,
      "nodes(": 9082,
      "i,z=": 9083,
      "Confir": 9084,
      "backend_": 9085,
      "[i];": 9086,
      "subscription": 9087,
      "REF": 9088,
      "checksum": 9089,
      "[k].": 9090,
      "responseĠ": 9091,
      "data_path": 9092,
      "data_item_": 9093,
      "){ifĠnotĠ._": 9094,
      "latten": 9095,
      ".readline": 9096,
      "%sĠ%s'%": 9097,
      "license": 9098,
      "transport": 9099,
      "input('": 9100,
      "func)Ċ": 9101,
      "workspace": 9102,
      ".set_global_register_value('": 9103,
      "FilePath": 9104,
      "title=": 9105,
      "currence": 9106,
      "k[y": 9107,
      "execution": 9108,
      "signal_": 9109,
      "settings['": 9110,
      "metadata_": 9111,
      "]}else{": 9112,
      ");ifĠ_:>": 9113,
      "Attribut": 9114,
      ",**kwargs){ifĠ": 9115,
      "change_": 9116,
      "changed_": 9117,
      "analyze": 9118,
      "AttributeError('": 9119,
      "Form": 9120,
      "'.join(k)": 9121,
      "graph.": 9122,
      "201": 9123,
      "Ġ%s.": 9124,
      "cls.get_": 9125,
      "entry(": 9126,
      "RequestNum": 9127,
      "');forĠ_ĠinĠ": 9128,
      "Item';z='": 9129,
      "[z]=": 9130,
      ".ndim": 9131,
      "lvl=debug": 9132,
      "PythonĠ": 9133,
      "selected_": 9134,
      "(file_path": 9135,
      "ĠthisĠ": 9136,
      "ERROR:Ġ": 9137,
      ":continue;": 9138,
      "('.//": 9139,
      "socket.": 9140,
      "StartingĠ": 9141,
      "180": 9142,
      ".sum(": 9143,
      "readDataInstance.readWord(": 9144,
      "ValidationError('": 9145,
      "Row": 9146,
      "json()['": 9147,
      "Store.": 9148,
      "os.path.dirname(": 9149,
      "http://ww": 9150,
      "y,:negate": 9151,
      "logging.getLogger(": 9152,
      "varNumVol": 9153,
      ",k,z,_,": 9154,
      "ĠshouldĠbeĠ": 9155,
      "stroke": 9156,
      "simulate": 9157,
      "block_struct": 9158,
      "negative": 9159,
      "hfos.": 9160,
      "ambient": 9161,
      "ioc_api.make_indicatoritem_node(condition,k,z,_,": 9162,
      "ioc_api.make_indicatoritem_node(condition,k,z,_,y,:negate": 9163,
      "(p,": 9164,
      "(X,": 9165,
      ".join(": 9166,
      "020": 9167,
      "1+": 9168,
      "58": 9169,
      "70": 9170,
      ":_+='": 9171,
      "Alig": 9172,
      "C=": 9173,
      "Duplicate": 9174,
      "_out": 9175,
      "_check_": 9176,
      "_DI": 9177,
      "cg": 9178,
      "dp_": 9179,
      "hc": 9180,
      "har": 9181,
      "kĠ": 9182,
      "mu": 9183,
      "m='": 9184,
      "s){forĠ": 9185,
      "vot": 9186,
      "wc": 9187,
      "y=None": 9188,
      "{b=": 9189,
      "Ģë": 9190,
      ");delĠ": 9191,
      "s(*": 9192,
      "chun": 9193,
      "_.status_code": 9194,
      "','r": 9195,
      "s=k,": 9196,
      "sib": 9197,
      "sibl": 9198,
      "();i=": 9199,
      "(.*": 9200,
      "(.,_)": 9201,
      "')).": 9202,
      "{ifĠe.": 9203,
      "x.add_": 9204,
      "cale_": 9205,
      "';._": 9206,
      "y.extend(": 9207,
      "len(m": 9208,
      "len(x": 9209,
      "-1.0": 9210,
      "Reader": 9211,
      "scim": 9212,
      ".getAttribute": 9213,
      "_square": 9214,
      "dict(zip": 9215,
      "ible": 9216,
      "tagName": 9217,
      "linear": 9218,
      ");forĠjĠinĠ": 9219,
      "call('": 9220,
      "i.connection": 9221,
      "strip(": 9222,
      "discover": 9223,
      "=_,:": 9224,
      ");_.set": 9225,
      ");excĠExceptionĠasĠ": 9226,
      "=np.lin": 9227,
      "base,": 9228,
      "(cmd": 9229,
      ".flag": 9230,
      "block_size": 9231,
      "stats_": 9232,
      "memcached_": 9233,
      "zeros_": 9234,
      "suc": 9235,
      "array('": 9236,
      "Medi": 9237,
      "feed": 9238,
      "uuid':": 9239,
      "price": 9240,
      "template,": 9241,
      "CODE": 9242,
      "_cfg": 9243,
      "deviceId": 9244,
      "VER_": 9245,
      "_PATH": 9246,
      "qualified_": 9247,
      "particip": 9248,
      "remote": 9249,
      "vocab": 9250,
      "StateChange": 9251,
      "original_": 9252,
      "Status.": 9253,
      "_dict['": 9254,
      "2.0*": 9255,
      "Iterator": 9256,
      "group(2": 9257,
      "iter(int(number": 9258,
      "re.compile('^": 9259,
      "VariantAnnotation": 9260,
      ".value=readDataInstance.readDword();_.": 9261,
      "timedelta(day": 9262,
      "visible": 9263,
      "job.addChild": 9264,
      "s=s.replace('": 9265,
      "raise_for_status(": 9266,
      "']='TheĠauthorsĠdeclareĠthatĠnoĠcompetingĠinterestsĠexist.": 9267,
      "mysql_": 9268,
      "Continu": 9269,
      "Float": 9270,
      "\");": 9271,
      "(args": 9272,
      "(index": 9273,
      ".\\n": 9274,
      ".max_": 9275,
      ".in_": 9276,
      ".element": 9277,
      ".enable": 9278,
      "2Ġ": 9279,
      "4]": 9280,
      "=3": 9281,
      "=\\": 9282,
      "=i,": 9283,
      "=z,": 9284,
      "DT": 9285,
      "Na": 9286,
      "Zip": 9287,
      "_con": 9288,
      "_[1": 9289,
      "ain": 9290,
      "bum": 9291,
      "hub": 9292,
      "i2": 9293,
      "k;ifĠ": 9294,
      "nc.": 9295,
      "od": 9296,
      "s1": 9297,
      "s}'.format(": 9298,
      "v(": 9299,
      "x;ifĠ": 9300,
      "y._": 9301,
      "z));": 9302,
      "Ġ*": 9303,
      "Ġfound": 9304,
      "ĠareĠ": 9305,
      "enci": 9306,
      "ret": 9307,
      "ree_": 9308,
      "led_": 9309,
      "annel": 9310,
      "gest_": 9311,
      "for_type": 9312,
      "Ġinitial": 9313,
      "._generate_": 9314,
      "',str(": 9315,
      "covar": 9316,
      "ped_": 9317,
      "s(k,": 9318,
      "forĠxĠinĠ": 9319,
      "dio": 9320,
      "str(_)": 9321,
      "str(k)": 9322,
      "=None;.": 9323,
      "tob": 9324,
      ".sc": 9325,
      ".sig": 9326,
      "tic": 9327,
      "mooth": 9328,
      "result_": 9329,
      "y=False,": 9330,
      "time,": 9331,
      "k.id": 9332,
      "ĠforĠtĠinĠ": 9333,
      "{}_": 9334,
      "len(y": 9335,
      "-1,1": 9336,
      "s[j": 9337,
      "andid": 9338,
      "_site": 9339,
      "_id,:": 9340,
      "predict": 9341,
      "os.path.get": 9342,
      "info['": 9343,
      "cast_": 9344,
      ".writ": 9345,
      "errorĠ": 9346,
      "text.": 9347,
      "text='": 9348,
      "(src": 9349,
      "float(i": 9350,
      "pyvl": 9351,
      "'ĠinĠ_:": 9352,
      "[k]*": 9353,
      "status':'": 9354,
      "events(": 9355,
      ");excĠExceptionĠasĠe": 9356,
      "=np.where(": 9357,
      "{forĠiĠinĠ": 9358,
      "s',base_url=._api": 9359,
      "Unit": 9360,
      "command==": 9361,
      "(*args,**": 9362,
      "k[-1]": 9363,
      "(z);": 9364,
      "g_val": 9365,
      "Channel": 9366,
      "FILE": 9367,
      "ACH": 9368,
      "(){_=._": 9369,
      "SEPAR": 9370,
      ".b64": 9371,
      ")ĠifĠ_": 9372,
      "used_": 9373,
      "128": 9374,
      "weights=": 9375,
      "pression": 9376,
      "free_": 9377,
      "lvl=error": 9378,
      "lvl=verbose": 9379,
      "objects.filter(": 9380,
      "Org": 9381,
[...]
